<unk>	0
<s>	0
</s>	0
<pad>	0
।	-3.08461
ं	-3.56877
ः	-3.84851
॥	-3.95722
ा	-4.07962
े	-4.31836
ो	-4.44102
▁च	-4.53401
▁न	-4.61752
म्	-4.64792
स्य	-4.82423
▁स	-4.94483
▁	-5.13036
म	-5.32191
▁अ	-5.383
▁इति	-5.40173
ेन	-5.42948
ाः	-5.47049
ी	-5.77359
▁वा	-5.78821
ि	-5.97677
▁तु	-5.99904
स्च	-6.03318
ौ	-6.05912
ति	-6.10129
ैः	-6.10342
्य	-6.10476
▁हि	-6.13276
न	-6.13975
त	-6.22119
ात्	-6.22184
ाय	-6.22277
ानि	-6.24908
ान्	-6.26351
▁एव	-6.27105
▁सर्व	-6.3099
▁यथा	-6.32228
ेषु	-6.34462
▁तथा	-6.37237
या	-6.38959
क	-6.40106
▁प्र	-6.40341
▁तत्र	-6.41049
ानां	-6.42757
▁ते	-6.48409
ता	-6.48689
▁वि	-6.48998
▁स्व	-6.52095
मिति	-6.52501
ेण	-6.60058
ादि	-6.60449
स	-6.63229
ां	-6.63543
▁भवति	-6.63571
ऽ	-6.65687
ते	-6.65911
▁तस्य	-6.66857
▁आ	-6.67348
ेति	-6.69106
र	-6.72112
्	-6.72789
तः	-6.77526
▁अथ	-6.79375
स्	-6.80813
ैर्	-6.81533
त्व	-6.81982
मेव	-6.82821
▁सु	-6.83303
▁सा	-6.84004
य	-6.84454
व	-6.87646
र्	-6.90064
ोऽ	-6.91902
न्	-6.92485
▁किं	-6.92628
▁तत्	-6.93053
वि	-6.96154
▁एवं	-6.97666
▁य	-6.98919
ाद	-6.99755
▁सं	-7.02589
▁नाम	-7.05935
▁वै	-7.06246
ान	-7.08103
न्ति	-7.08485
▁तद	-7.09794
स्तु	-7.09838
▁तेन	-7.10141
तो	-7.1126
▁प्रति	-7.11301
▁धर्म	-7.11396
ार्थ	-7.12665
▁मे	-7.1293
त्वात्	-7.13281
पि	-7.1444
▁चोर्रेच्त्	-7.15291
▁त	-7.17232
स्व	-7.17249
▁महा	-7.18473
ना	-7.19442
▁पर	-7.20394
त्वं	-7.20881
▁देव	-7.23862
▁कर्म	-7.2486
्या	-7.25102
प्र	-7.25575
द	-7.26615
▁यदि	-7.2684
▁सह	-7.27569
▁सम	-7.2804
ाद्	-7.28548
ित	-7.29029
त्	-7.29421
▁तं	-7.29755
▁ततः	-7.30581
▁पथ्या	-7.31855
▁परि	-7.3304
▁तद्	-7.33423
▁ये	-7.34514
▁ब्रह्म	-7.3615
सं	-7.36831
▁तदा	-7.37521
▁क	-7.3756
प	-7.37586
मा	-7.38286
▁अपि	-7.38843
ु	-7.39377
सु	-7.39604
सि	-7.40232
ैव	-7.4068
▁मा	-7.42135
▁स्यात्	-7.42911
भिः	-7.43184
ाव	-7.44155
▁मम	-7.44817
ास्च	-7.45607
▁या	-7.4586
ैर	-7.46257
ज	-7.46522
▁पुनः	-7.4703
च	-7.48508
▁उप	-7.48518
▁पूर्व	-7.49177
ोऽपि	-7.50196
▁यत्र	-7.50211
ाणां	-7.50396
धर्म	-7.50918
रूप	-7.51388
▁अत्र	-7.52471
▁ततो	-7.52722
ेव	-7.53698
तया	-7.53912
▁गुण	-7.53922
▁एक	-7.54016
ेऽ	-7.54884
▁कथं	-7.55443
ज्ञान	-7.55617
मपि	-7.55669
तु	-7.56886
त्र	-7.5708
▁यो	-7.5737
▁ज्ञान	-7.57574
▁इत्य	-7.58594
▁उवाच	-7.59352
थ	-7.59546
▁इव	-7.61318
ाद्य	-7.61952
वत्	-7.62905
यति	-7.63693
गुण	-7.63712
▁त्व	-7.64244
तां	-7.6446
योः	-7.6455
ाणि	-7.65203
िका	-7.65277
▁चैव	-7.65801
▁कृत	-7.65879
▁पञ्च	-7.66093
भाव	-7.66096
नि	-7.66744
▁काम	-7.66781
▁कृत्वा	-7.66842
त्वेन	-7.66987
▁ह	-7.67393
ै	-7.67464
ान्य	-7.67868
▁सब्द	-7.68698
▁रूप	-7.69094
▁नि	-7.69744
ेत	-7.69917
ोप	-7.70502
▁आह	-7.70587
▁व	-7.70609
स्त	-7.7179
▁यत्	-7.72743
न्न	-7.73854
▁वेद	-7.73893
मान	-7.74475
▁यः	-7.7649
ण	-7.76657
▁राजा	-7.77033
▁यस्य	-7.77096
ानाम	-7.7764
िक	-7.78051
▁फल	-7.7821
मिव	-7.78347
ेऽपि	-7.78515
▁सर्वे	-7.78565
▁ह्य	-7.78851
▁स्री	-7.80066
▁लोक	-7.80662
द्	-7.81319
▁यद	-7.81464
▁येन	-7.81653
ल	-7.81796
▁तव	-7.82394
▁ऽ	-7.82714
▁मया	-7.82822
▁काल	-7.82999
ग	-7.8453
▁पुत्र	-7.85103
ह	-7.85109
न्त	-7.85604
ाम्	-7.86054
मात्र	-7.86235
िता	-7.86261
ैक	-7.87041
ाह	-7.87076
न्ते	-7.88585
कर्म	-7.88732
येत्	-7.88829
ान्तर	-7.88878
▁दृष्ट्वा	-7.89034
ैस्च	-7.89875
▁भवेत्	-7.90571
▁रस	-7.90654
▁त्वं	-7.90668
ात्म	-7.90847
देव	-7.91368
भेद	-7.91385
सब्द	-7.91522
त्य	-7.91672
ेत्	-7.92056
परि	-7.92529
कं	-7.92862
मुप	-7.92927
▁ना	-7.92973
ङ्ग	-7.93805
▁दुःख	-7.94224
स्या	-7.94654
▁राज	-7.9473
विसेष	-7.9516
▁तेषां	-7.95335
ये	-7.95418
यो	-7.95446
▁त्रि	-7.95767
कः	-7.96146
्यते	-7.96272
सम	-7.96529
▁सुख	-7.97649
▁भव	-7.98011
▁दस	-7.98218
पद	-7.98366
▁कार्य	-7.99084
स्तथा	-7.99774
ायां	-7.99801
भि	-7.99865
▁जीव	-8.00306
▁भाव	-8.00413
वान्	-8.01311
ामि	-8.02235
षु	-8.0233
▁भूत	-8.02556
भिर्	-8.0257
माह	-8.02772
फल	-8.03083
▁प्राण	-8.03123
का	-8.05019
ञ्च	-8.05283
्व	-8.05445
▁इह	-8.05601
▁यदा	-8.05947
कार	-8.06831
▁व्य	-8.07258
पर	-8.07827
▁खलु	-8.08007
ानु	-8.08238
ाच्च	-8.08247
▁ज	-8.08801
▁एष	-8.08896
काल	-8.09457
▁अन	-8.09591
▁उ	-8.09645
भूत	-8.09991
▁सत्य	-8.10077
▁स्म	-8.10149
त्वे	-8.10205
▁सदा	-8.1038
▁पुरुष	-8.106
प्य	-8.11064
र्थ	-8.11335
▁ननु	-8.11521
▁निर्	-8.12491
स्थ	-8.12617
▁मन्त्र	-8.12682
कृत	-8.13295
▁सप्त	-8.13389
हि	-8.14077
▁कृष्ण	-8.14093
रस	-8.14735
▁प	-8.15119
राज	-8.15335
▁परम	-8.1601
▁योग	-8.16902
▁नित्य	-8.17514
▁तां	-8.1775
▁अर्थ	-8.179
ान्न	-8.17976
यः	-8.18069
जन	-8.18155
ात्मा	-8.19014
▁विसेष	-8.19508
ाभ्यां	-8.20017
न्य	-8.20459
बल	-8.2049
▁सत्त्व	-8.20706
नु	-8.21207
▁भवन्ति	-8.21598
से	-8.21745
ाङ्ग	-8.21766
▁विषय	-8.22086
ेष्व	-8.22348
▁पुनर	-8.22449
▁बहु	-8.22757
▁पद	-8.22877
▁गो	-8.22886
योग	-8.23351
कम्	-8.23765
ांस्च	-8.23778
द्य	-8.23805
पूर्व	-8.24071
व्य	-8.24099
▁भविष्यति	-8.24196
▁नास्ति	-8.25542
सा	-8.25584
नं	-8.25662
विषय	-8.25705
ार्थं	-8.25756
ापि	-8.26327
▁रथ	-8.26355
▁बुद्ध	-8.26777
▁भेद	-8.2742
▁म	-8.27575
ीय	-8.27825
पाद	-8.27931
भिर	-8.28679
▁चा	-8.28816
गत	-8.28853
▁चेत्	-8.28903
्वा	-8.29057
▁अत	-8.29179
िति	-8.29194
▁ब्राह्मण	-8.29598
▁बल	-8.29706
वद	-8.29745
▁यज्ञ	-8.2984
▁पाप	-8.29997
कर	-8.30246
▁पुनर्	-8.30428
वर्ण	-8.31249
वर	-8.31526
▁अन्य	-8.31775
लक्षण	-8.31777
दोष	-8.31833
ध	-8.32265
▁ता	-8.32788
यं	-8.32807
स्चैव	-8.33015
▁प्रत्य	-8.33676
▁सर्वं	-8.33726
ान्त	-8.34061
ोक्त	-8.34137
▁यद्	-8.34475
▁जन	-8.34869
मित्य	-8.35134
▁क्रिया	-8.35267
▁मां	-8.35429
▁स्रुत्वा	-8.36432
▁पाद	-8.36629
वा	-8.36741
तर	-8.36757
▁चित्त	-8.36759
देस	-8.37014
के	-8.37064
िनी	-8.37227
▁विस्व	-8.37446
▁अनु	-8.37649
यां	-8.37963
स्त्व	-8.38214
▁कारण	-8.38582
▁प्रमाण	-8.38899
योर्	-8.39064
▁वर	-8.39069
भव	-8.39285
▁वज्र	-8.39555
ाभि	-8.3965
त्वम्	-8.39826
स्यापि	-8.39934
ासु	-8.39947
▁तथैव	-8.4001
▁कर	-8.40212
▁देह	-8.40235
▁इत्यर्थः	-8.40499
▁लोके	-8.41045
▁तस्मात्	-8.41636
▁सोम	-8.41709
ताम्	-8.41771
▁गुरु	-8.41775
भ	-8.41827
सिद्ध	-8.42003
▁भावः	-8.4204
स्तस्य	-8.42136
कार्य	-8.42307
ानाम्	-8.42435
▁दोष	-8.42543
▁दृष्ट	-8.42602
स्यैव	-8.4263
मुख	-8.42952
ेत्य	-8.43099
▁सिद्ध	-8.43674
▁किम	-8.43682
▁घट	-8.44111
मनु	-8.44199
रिति	-8.44467
प्रति	-8.45014
सर्व	-8.45019
▁प्रत्यक्ष	-8.45083
▁सति	-8.45356
को	-8.45657
वाक्य	-8.45815
▁सिव	-8.45936
वेद	-8.46008
▁वर्ण	-8.46028
यन्	-8.46069
वचन	-8.46358
मिदं	-8.46364
मन	-8.46595
▁द्वि	-8.47029
काम	-8.47259
▁र	-8.47467
ेन्द्रिय	-8.47544
सत	-8.47971
▁सत	-8.47973
दर्सन	-8.4819
सार	-8.48233
▁राम	-8.48261
▁तस्माद	-8.48429
लोक	-8.48627
▁एत	-8.48651
▁प्रथम	-8.48739
▁मह	-8.48797
ादौ	-8.48954
▁अभि	-8.48973
▁आत्म	-8.49146
ितं	-8.49461
मेक	-8.49548
▁का	-8.49785
ितः	-8.49791
गण	-8.49848
ाकार	-8.5002
▁भगवान्	-8.50056
त्वाद	-8.50151
कल्प	-8.50426
▁नैव	-8.50475
ेन्द्र	-8.50736
क्ष	-8.50873
▁इदं	-8.5106
▁पुण्य	-8.51596
▁इन्द्र	-8.51781
▁द	-8.51834
ादीनां	-8.51877
▁क्व	-8.51899
▁नव	-8.5196
ास्ते	-8.52118
▁प्रिय	-8.52192
्यं	-8.52411
यन्ति	-8.52735
▁तस्या	-8.5284
भाग	-8.53015
भ्य	-8.53437
▁सर	-8.53507
▁स्वाहा	-8.53552
▁कल्प	-8.537
तीति	-8.54151
▁विद्या	-8.54262
▁त्वया	-8.54331
▁परं	-8.54889
स्ति	-8.55121
▁सुभूते	-8.55319
स्तत्र	-8.55344
मु	-8.55443
चित्त	-8.55827
पुत्र	-8.55848
स्ते	-8.55858
▁गत	-8.56032
प्राप्त	-8.56112
यत्	-8.56495
▁विप्र	-8.56568
धि	-8.56572
ाग्र	-8.56577
▁तत	-8.5664
िनः	-8.56751
▁ग	-8.57197
सत्त्व	-8.57231
▁जल	-8.57322
द्वय	-8.57389
ास्रय	-8.57644
प्रत्यय	-8.57928
▁बोधिसत्त्व	-8.57935
ने	-8.58165
▁उच्यते	-8.58184
▁कुल	-8.58263
पुरुष	-8.58355
ेभ्यः	-8.58365
▁ल	-8.58442
▁सूर्य	-8.58604
▁नृप	-8.58654
▁सरीर	-8.58729
ोऽयं	-8.59219
▁तर्हि	-8.59258
ाभाव	-8.59335
णा	-8.59624
ष्ट	-8.59711
▁पक्ष	-8.6006
▁उक्त	-8.60109
▁निर	-8.60294
िर	-8.60421
ाम	-8.60566
सो	-8.60769
न्त्य	-8.60868
दि	-8.60929
लिङ्ग	-8.61101
▁स्रुत	-8.61256
ेनैव	-8.61261
र्य	-8.61322
▁मनो	-8.61594
▁जात	-8.61744
ुप	-8.61795
▁बाल	-8.62092
श	-8.62282
च्च	-8.62306
ट	-8.62456
▁त्वा	-8.62489
ड	-8.6249
▁इत्यादि	-8.6257
महा	-8.62577
▁करोति	-8.62672
कारण	-8.62687
▁दिव्य	-8.62799
योर	-8.63072
▁मोक्ष	-8.63142
स्तदा	-8.63174
ादिषु	-8.63277
▁गृह	-8.63356
त्वा	-8.63471
दा	-8.63644
▁इ	-8.63653
▁स्त्री	-8.63665
ेयं	-8.63716
वद्	-8.6395
▁राजन्	-8.63985
ाप	-8.64033
मय	-8.64329
▁नित्यं	-8.64341
कुल	-8.6435
▁देवा	-8.64356
क्रम	-8.64405
▁जय	-8.64409
भय	-8.64603
मन्त्र	-8.64626
▁लिङ्ग	-8.64746
▁प्रज्ञापारमिता	-8.64754
▁तस्मिन्	-8.64973
हं	-8.65169
दृष्ट	-8.6518
मभि	-8.65222
▁नाना	-8.65515
क्रिया	-8.65531
सः	-8.65548
▁विना	-8.65728
▁काय	-8.65881
ादिति	-8.65953
सुख	-8.65962
▁तम	-8.66029
▁ख	-8.66047
ङ्	-8.66106
करण	-8.66323
पक्ष	-8.66324
▁पद्म	-8.66365
मह	-8.66366
▁हेतु	-8.66426
ादयः	-8.6644
ेभ्यो	-8.66456
निमित्त	-8.66697
▁सुद्ध	-8.66781
▁तदेव	-8.67118
▁तच्च	-8.67278
▁सास्त्र	-8.67279
ब	-8.67304
▁कर्ण	-8.67367
स्वभाव	-8.67617
▁पुष्प	-8.6764
▁नो	-8.67665
▁वस्तु	-8.67672
मि	-8.67689
सौ	-8.67904
ब्रह्म	-8.6813
▁रत्न	-8.68153
▁यावत्	-8.68331
दान	-8.68354
ष	-8.68407
ू	-8.68418
नाम	-8.68455
▁साध्य	-8.68494
च्छ	-8.68497
▁गन्ध	-8.68629
▁स्वभाव	-8.68659
ित्वा	-8.68735
▁युक्त	-8.6885
▁प्राप्त	-8.69115
▁को	-8.69126
ुः	-8.69333
▁सोऽ	-8.69447
▁लक्षण	-8.69448
▁मृग	-8.69547
▁सर्वत्र	-8.69639
▁अव	-8.69993
▁पुरा	-8.70017
ग्रह	-8.70059
▁देस	-8.70336
रि	-8.70406
▁अस्य	-8.70419
▁वीर	-8.70448
ेष	-8.70527
▁स्वयं	-8.70602
▁द्वितीय	-8.7072
▁मुख	-8.71431
प्रमाण	-8.715
▁वाक्य	-8.71895
▁विज्ञान	-8.71979
ेद	-8.72042
जात	-8.72044
▁धन	-8.7213
▁अयं	-8.72141
युक्त	-8.72457
ाया	-8.7247
▁सहस्र	-8.72491
▁विद्यते	-8.72561
नम्	-8.72676
मार्ग	-8.72889
देह	-8.72934
▁चन्द्र	-8.72997
न्तु	-8.7306
त्वम	-8.73133
घ	-8.73159
निर्	-8.73203
▁पस्य	-8.73349
ेस्वर	-8.73958
मति	-8.74091
▁सुर	-8.74245
ोत्तर	-8.74344
ास्	-8.74629
रेव	-8.74655
▁अस्ति	-8.74862
▁भगवन्	-8.75208
ती	-8.75228
ाग्नि	-8.75466
वास	-8.75674
र्न	-8.76074
काय	-8.76266
रथ	-8.76322
▁जायते	-8.76589
ाति	-8.76693
▁नाग	-8.76874
ाणाम	-8.76961
▁वन	-8.77201
▁द्रव्य	-8.77237
▁मद	-8.77238
▁भिन्न	-8.77239
ज्ञ	-8.77409
▁तत्त्व	-8.77596
▁प्रत्यय	-8.77907
सर	-8.78004
वृत्त	-8.78124
▁क्रम	-8.78259
▁नमः	-8.78284
िः	-8.78334
ानन्द	-8.78422
▁अहं	-8.78428
▁मान	-8.78449
ीनां	-8.78601
▁यत	-8.78873
गन्ध	-8.79033
▁भारत	-8.79172
यित्वा	-8.79299
▁रुद्र	-8.79343
▁मूल	-8.79412
▁स्थित	-8.79722
▁माया	-8.80071
जा	-8.80275
स्थान	-8.8031
▁कथम	-8.80523
▁चेति	-8.80599
▁समान	-8.80611
मुक्त	-8.80683
▁गत्वा	-8.80738
▁संसार	-8.80774
ाथ	-8.80972
▁मधु	-8.8111
▁तौ	-8.81419
यामास	-8.81493
ीं	-8.81545
▁अप	-8.81625
ेक	-8.81674
स्तत्	-8.81712
हस्त	-8.81773
धर	-8.82011
▁गच्छ	-8.82199
▁दान	-8.82234
▁जन्म	-8.82479
ितम्	-8.82659
▁साधु	-8.82724
बुद्ध	-8.82737
▁तस्माद्	-8.83189
वती	-8.83256
▁राग	-8.83547
त्स	-8.83767
▁पस्यति	-8.83794
्यमान	-8.83912
वन	-8.8392
स्तद	-8.83926
▁यद्य	-8.84024
▁कु	-8.84104
▁बोधिसत्त्वो	-8.84217
▁पुर	-8.84441
मन्य	-8.84453
ीति	-8.84547
दुःख	-8.84606
▁पादस्	-8.84768
नी	-8.84822
▁किम्	-8.8491
▁रूपं	-8.8497
▁अतो	-8.84987
ण्ड	-8.85023
्यां	-8.85116
द्रव्य	-8.85244
ग्रहण	-8.85255
▁दण्ड	-8.85286
ादेव	-8.85302
▁विपुला	-8.85385
▁कुरु	-8.85449
▁अब्	-8.85451
मप्य	-8.8558
बन्ध	-8.8626
▁मोह	-8.86303
▁मुक्त	-8.86465
▁हर	-8.86651
▁यम	-8.86844
ेद्	-8.86848
▁स्वर्ग	-8.86934
स्वरूप	-8.86976
मूल	-8.86991
राग	-8.87075
▁प्राप्नोति	-8.8709
▁सेष	-8.87136
भिन्न	-8.87144
▁पूर्वं	-8.87146
वै	-8.87152
▁समा	-8.87409
हेतु	-8.8757
▁द्वादस	-8.87645
▁ॐ	-8.87658
▁कस्य	-8.87849
▁बुद्धि	-8.87917
पुष्प	-8.87964
▁एते	-8.88177
▁दीर्घ	-8.88272
ात्मक	-8.88296
ोऽप्य	-8.88407
ेर	-8.88632
हर	-8.88635
▁सक्ति	-8.88646
मिह	-8.88774
▁पि	-8.88853
▁पर्वत	-8.88934
▁प्रजा	-8.89076
▁सून्य	-8.89128
ञ्	-8.89137
▁हरि	-8.89232
▁स्वरूप	-8.89255
रत्न	-8.89295
▁चित्	-8.89342
▁देवता	-8.8963
▁प्रकास	-8.89642
ात	-8.90031
▁मार्ग	-8.90111
▁यच्च	-8.90143
▁आदि	-8.90157
त्वाद्	-8.90205
▁सूत्र	-8.90234
▁प्रा	-8.90292
▁द्विज	-8.90357
▁रक्त	-8.90395
▁भोग	-8.90677
ेह	-8.908
▁भाग	-8.90997
▁निमित्त	-8.91217
▁नु	-8.91315
▁वस	-8.91321
ेय	-8.91502
ेत्यर्थः	-8.9153
विसिष्ट	-8.91594
विधि	-8.91704
ासन	-8.91796
दत्त	-8.91814
क्षय	-8.91874
▁सुभ	-8.9189
▁चित्र	-8.91935
▁साधन	-8.92019
स्वर	-8.92345
साधन	-8.92369
▁नील	-8.92405
तोऽ	-8.92478
▁सन्	-8.92545
ेर्	-8.92601
ाख्य	-8.92825
स्तव	-8.92986
ुर्	-8.92992
▁दृस्यते	-8.93175
▁गर्भ	-8.93181
सक्ति	-8.93276
वस	-8.93286
▁परा	-8.93448
वर्ष	-8.93536
▁सृणु	-8.93555
वाद	-8.93736
▁ब	-8.93786
▁तथ	-8.93822
▁तावत्	-8.94007
▁तथापि	-8.94129
▁अतः	-8.94325
▁विधि	-8.94561
▁मित्र	-8.94834
▁सूत	-8.95233
▁चापि	-8.95294
▁केन	-8.95337
विद्या	-8.95467
▁कुमार	-8.95536
▁विकल्प	-8.95537
▁एतत्	-8.9555
▁मध्ये	-8.95552
▁यथ	-8.95631
पा	-8.95686
▁सूर	-8.9587
▁करण	-8.96057
▁अनेन	-8.96086
▁स्याद	-8.96183
▁भ	-8.96243
▁किल	-8.96432
नीय	-8.96494
सेष	-8.96566
▁सामान्य	-8.96854
मर्थ	-8.97091
▁दुर्	-8.97367
▁रक्ष	-8.97386
भू	-8.97438
▁प्राप्य	-8.97526
▁वद	-8.97537
विज्ञान	-8.97641
रिव	-8.97687
ाप्य	-8.97752
▁वर्तते	-8.97781
▁जाति	-8.97834
▁गण	-8.97885
▁तथागत	-8.97898
▁भय	-8.9792
जल	-8.97926
▁मनः	-8.97929
▁प्रधान	-8.98129
▁पार्थ	-8.98205
▁वर्ष	-8.98219
स्र	-8.98348
र्ध	-8.98502
▁तुल्य	-8.9857
िर्	-8.98926
▁महाराज	-8.98957
▁वचन	-8.99059
▁तन्	-8.99073
न्ती	-8.99273
▁प्रकृति	-8.99293
▁नर	-8.99311
ायाः	-8.99385
▁राक्षस	-8.99403
िह	-8.99543
ख	-8.99747
▁सान्त	-8.99774
▁क्रोध	-8.9979
▁भीम	-8.99811
चर	-8.99844
ञ्ज	-8.99942
▁तानि	-9.00205
ुर	-9.00254
गर्भ	-9.00586
▁तया	-9.00725
▁वयं	-9.00808
धा	-9.00914
ाकास	-9.00968
▁अन्यथा	-9.011
▁भू	-9.01159
ास्ति	-9.01206
▁हेतोः	-9.01264
▁उत्तर	-9.01335
▁क्षण	-9.0136
काले	-9.01369
सत्य	-9.01546
यज्ञ	-9.01586
प्राण	-9.01715
▁वृक्ष	-9.01718
▁ग्राम	-9.01739
सह	-9.01784
ादित्य	-9.01791
▁अति	-9.01944
▁ध्यान	-9.02043
िभिः	-9.02054
सम्	-9.02055
▁क्लेस	-9.02076
▁पृथिवी	-9.02169
सूत्र	-9.02216
मित्यर्थः	-9.02238
िनो	-9.0225
▁हस्त	-9.02303
संबन्ध	-9.02328
मुच्यते	-9.02346
▁सकल	-9.02455
▁कुतः	-9.0247
▁विष्णु	-9.02546
वृत्ति	-9.02696
रूपं	-9.02765
व्रत	-9.02782
िव	-9.02782
विकल्प	-9.02783
▁दत्त	-9.02984
बोध	-9.03083
▁व्रत	-9.03102
ास्तु	-9.03221
▁उद्	-9.03229
ेहि	-9.03349
काः	-9.03376
द्वि	-9.034
स्तद्	-9.03432
सरीर	-9.03625
▁प्रसाद	-9.03722
त्रय	-9.03881
मित्र	-9.03896
रा	-9.04203
▁च्द्	-9.04384
ोर्	-9.04406
मण्डल	-9.0477
ागम	-9.04834
क्	-9.0485
न्तं	-9.04852
▁देवी	-9.04945
विरोध	-9.04945
▁निज	-9.04987
पात	-9.05122
साध्य	-9.05126
ास्व	-9.05166
▁प्रकृत	-9.05242
ास्त	-9.05293
स्तेन	-9.05363
पुर	-9.05364
▁स्याद्	-9.05446
▁सद	-9.05456
▁फलं	-9.05639
▁उत्	-9.0565
क्षण	-9.05652
▁विष	-9.05709
सी	-9.05779
▁केवल	-9.05867
▁चक्र	-9.05896
स्था	-9.06098
ष्व	-9.06255
ग्र	-9.06274
ैस्	-9.06316
▁नास	-9.06464
▁ए	-9.06769
दण्ड	-9.06773
▁जगत्	-9.06802
ांस	-9.07032
▁पूर्ण	-9.07206
▁ग्रह	-9.07292
मथ	-9.07304
त्रि	-9.07313
स्त्रि	-9.0753
वीर्य	-9.07531
▁बाह्य	-9.07537
▁वृद्ध	-9.07562
धन	-9.07616
त्त	-9.07712
जीव	-9.07792
नियम	-9.07883
▁पितृ	-9.07956
मृत	-9.08173
▁स्वप्न	-9.08178
ह्	-9.08212
वस्तु	-9.08512
▁सक्र	-9.08539
▁एवम	-9.08549
ासि	-9.08623
ैष	-9.08658
ार्थः	-9.08817
नेन	-9.0887
▁हृदय	-9.09117
▁संस्कार	-9.09187
णि	-9.09607
▁धूम	-9.09741
कस्य	-9.09874
मेतत्	-9.09908
▁प्रज्ञा	-9.09912
▁सोक	-9.09931
▁सूक्ष्म	-9.09978
ेदं	-9.10122
▁ततस्च	-9.10138
▁यावद	-9.10179
स्तं	-9.10184
▁लब्ध	-9.10386
▁समुद्र	-9.1047
प्रकास	-9.10497
▁मुख्य	-9.10542
्यन्ते	-9.10592
▁स्थान	-9.10671
▁दर्सन	-9.10808
भ्यः	-9.10819
▁ज्ञानं	-9.10935
भोग	-9.1099
▁बभूव	-9.10996
कर्ण	-9.11013
▁भक्त	-9.11083
मध्य	-9.1109
र्वा	-9.11093
▁प्रयोग	-9.11359
न्तर	-9.11446
▁मन्द	-9.11523
▁कृतं	-9.11662
चि	-9.11905
▁सम्यक्	-9.11909
▁संसयः	-9.11989
▁सम्	-9.12072
▁मनसा	-9.1212
्यो	-9.12184
गो	-9.12246
▁कः	-9.12511
वः	-9.12573
सहस्र	-9.12644
▁व्रज	-9.12673
रूपा	-9.12778
प्रकार	-9.12795
▁कुसल	-9.12922
▁ततोऽ	-9.13083
▁कुर्यात्	-9.13103
▁स्रुति	-9.1319
िना	-9.13212
नित्य	-9.13343
स्स	-9.13396
▁सर्वा	-9.13427
▁व्यवहार	-9.13501
▁वध	-9.13581
मात्रं	-9.13628
▁छ	-9.13661
▁प्रज्ञापारमिताय	-9.1367
▁कार्यं	-9.13768
ेत्यादि	-9.13783
वे	-9.13845
▁बीज	-9.13849
▁तद्यथा	-9.14005
▁सर्वेषां	-9.14262
मद	-9.14268
सास्त्र	-9.14483
ार्य	-9.14562
▁वाच्य	-9.14619
▁पिता	-9.1464
▁तत्रैव	-9.14673
▁सील	-9.14892
ेऽप्य	-9.15042
च्	-9.15077
▁नारायण	-9.15104
▁त्वां	-9.15138
पाल	-9.15226
▁मय	-9.15369
मव	-9.15414
्यै	-9.15424
▁भीष्म	-9.15433
ाक्ष	-9.15436
ाभावात्	-9.1544
स्मिन्	-9.15592
स्त्वं	-9.15745
छ	-9.15892
बुद्धि	-9.15943
मास	-9.16009
ोदय	-9.16171
ार्ध	-9.16417
ीकृत	-9.1644
संयोग	-9.16468
तत्त्व	-9.16564
▁पर्य	-9.16751
सील	-9.16906
हार	-9.16981
यम	-9.17063
वान	-9.17103
हित	-9.17119
▁संज्ञा	-9.17125
ाण्य	-9.17143
▁संयोग	-9.17188
▁बन्ध	-9.17261
▁अङ्ग	-9.17286
िषु	-9.17508
▁सिंह	-9.1763
▁मृत	-9.17665
द्र	-9.17716
▁तत्कस्य	-9.18055
िष्यति	-9.18059
ोऽथ	-9.18313
ध्य	-9.18513
▁तान्	-9.18535
▁भगवानाह	-9.18728
▁द्वे	-9.18827
▁भूत्वा	-9.18879
ोत्तम	-9.189
ग्	-9.1891
ग्नि	-9.18925
ज्ञानं	-9.18947
सम्बन्ध	-9.19084
▁आकास	-9.19319
चक्र	-9.19345
▁मणि	-9.194
प्रिय	-9.19532
▁वत्स	-9.19559
▁स्पर्स	-9.19619
ारम्भ	-9.19741
▁तृतीय	-9.19763
भिस्च	-9.19935
न्तो	-9.19938
▁हत	-9.20201
भ्यो	-9.20285
सामान्य	-9.20352
▁के	-9.20371
▁यतः	-9.20488
ितुं	-9.20624
▁नच	-9.2079
मी	-9.20829
पुण्य	-9.20934
▁नापि	-9.20972
विध	-9.20989
णं	-9.20991
कुसल	-9.20992
▁यस्च	-9.21086
▁समस्त	-9.21118
ात्र	-9.21141
▁पु	-9.2123
▁काले	-9.21296
पथ	-9.2133
▁अग्नि	-9.21399
▁भूमि	-9.21437
▁पसु	-9.21498
▁यं	-9.21614
ला	-9.21696
▁इत्याह	-9.21705
भूमि	-9.21737
व्यवहार	-9.21737
लाभ	-9.21839
▁पार्थिव	-9.22017
ास	-9.22024
मान्	-9.22091
▁सूद्र	-9.222
▁कथ	-9.22238
▁सुवर्ण	-9.2225
गृह	-9.22294
बाध	-9.22373
▁मध्य	-9.2242
स्त्र	-9.22428
▁वेदना	-9.22437
ात्मना	-9.22483
▁महत्	-9.22538
▁तादृस	-9.22606
▁तेषाम	-9.22626
नाथ	-9.2264
ुक्त	-9.2281
▁दोषः	-9.22816
ायुध	-9.22895
▁दक्षिण	-9.22941
▁एषा	-9.22991
▁ति	-9.23097
▁तावद	-9.23178
ृ	-9.23331
▁चरति	-9.23441
ैस्त	-9.23469
सुर	-9.23508
▁नियत	-9.2352
मात्रेण	-9.23637
ोत्	-9.23657
▁ध	-9.23663
▁बाण	-9.23836
▁श	-9.23848
दन्त	-9.23911
▁स्थ	-9.23916
▁नियम	-9.24011
▁सुत	-9.24065
िताः	-9.24101
▁प्रसिद्ध	-9.24108
ार	-9.24251
▁मास	-9.24285
ाचार्य	-9.24426
ाहं	-9.24512
बीज	-9.24669
▁दूर	-9.24681
सिद्धि	-9.24747
▁तन्न	-9.24828
मस्ति	-9.24911
संभव	-9.24912
तस्च	-9.24995
ाल	-9.25025
ानुमान	-9.2508
▁नमो	-9.25107
▁आर्य	-9.25123
▁वीर्य	-9.25189
न्तः	-9.25255
त्वाच्च	-9.25256
विभाग	-9.25355
तम	-9.25529
ोऽस्ति	-9.25566
रहित	-9.25575
त्वादिति	-9.25725
सत्	-9.25773
यते	-9.25942
ोऽसि	-9.25952
न्ध	-9.26046
ज्ज	-9.26207
▁क्षय	-9.26459
ब्राह्मण	-9.26707
▁रणे	-9.26768
▁कथम्	-9.2679
▁क्वचित्	-9.26827
▁कौसिक	-9.27013
▁बोधि	-9.27187
▁भक्ति	-9.27272
मल	-9.27397
ान्ते	-9.27472
▁विसिष्ट	-9.27565
र्व	-9.27596
▁गिरि	-9.27712
मोह	-9.27925
▁कर्मणा	-9.27981
▁सत्	-9.27992
िय	-9.28031
प्रयोग	-9.28035
▁पिण्ड	-9.2814
▁गज	-9.28144
▁स्वेत	-9.28172
ुद	-9.28172
▁ज्ञात	-9.28191
मयं	-9.28252
दस	-9.28299
▁युधिष्ठिर	-9.28301
ाभास	-9.28418
नां	-9.28426
▁दत्त्वा	-9.28438
▁याति	-9.28489
ित्य	-9.28684
संस्कार	-9.28732
प्रत्यक्ष	-9.2882
▁स्मृति	-9.28909
▁वायु	-9.2901
▁भ्रम	-9.29168
▁व्या	-9.29282
वाह	-9.294
वीर	-9.29417
ादयो	-9.29673
▁समनुपस्यति	-9.29686
▁सम्बन्ध	-9.29845
▁तेषु	-9.29881
गुरु	-9.29991
माण	-9.3004
मध्ये	-9.30074
▁दैव	-9.3011
तत्	-9.30166
▁मुनि	-9.3021
▁सत्यं	-9.30225
▁वात	-9.30335
नुमान	-9.30363
ादिभिः	-9.30372
▁पीत	-9.30475
स्येति	-9.30636
▁दृढ	-9.30708
याम	-9.30726
ङ्क	-9.30777
▁कल	-9.30793
▁प्रकरण	-9.30854
गा	-9.30876
ात्स	-9.30886
पदार्थ	-9.30895
▁चिद	-9.30897
चित	-9.30898
नाग	-9.3094
▁आत्मा	-9.30961
णी	-9.3098
▁नदी	-9.30981
द्ध	-9.31035
वार	-9.31087
री	-9.31104
▁बाध	-9.31107
रूपेण	-9.31338
न्द	-9.31368
▁निष्	-9.31414
▁विसेषण	-9.31432
ासय	-9.31489
▁भगवता	-9.31536
ाभ्य	-9.31756
▁प्रीति	-9.31803
मुख्य	-9.31922
▁परस्पर	-9.31923
▁क्षेत्र	-9.31924
वृक्ष	-9.31959
▁गतः	-9.3198
▁गोप	-9.32001
▁दैत्य	-9.32017
सब्देन	-9.3206
सन	-9.32088
▁बोधिसत्त्वस्य	-9.32146
जाल	-9.32254
प्रत्य	-9.32258
▁मन	-9.32344
रपि	-9.32352
▁स्फुट	-9.32405
▁अस्व	-9.32408
▁मनुष्य	-9.32502
▁वचनं	-9.32519
▁उद	-9.32717
▁हंस	-9.32761
▁चिर	-9.32786
▁क्रियते	-9.32816
▁देवाः	-9.32871
नास	-9.32918
▁चतुर्	-9.33029
▁पदार्थ	-9.3313
▁काव्य	-9.33357
▁मृत्यु	-9.33434
पति	-9.33555
यथा	-9.3356
स्कन्ध	-9.33604
▁संसय	-9.33711
▁सार्धं	-9.33797
▁कन्या	-9.33864
ितो	-9.33871
▁हेम	-9.33904
▁दर्सयति	-9.33928
रक्ष	-9.33977
▁ओ	-9.343
्यः	-9.34338
गोचर	-9.34358
िन	-9.34518
▁गच्छति	-9.34551
▁स्मर	-9.34579
स्ता	-9.34641
▁तात	-9.34651
ात्मनः	-9.34731
▁विनास	-9.34782
विद्य	-9.3496
तुल्य	-9.3503
▁धर्मं	-9.35093
▁अद्य	-9.3514
▁कृते	-9.35144
ालम्बन	-9.35159
त्येव	-9.35228
फलं	-9.35245
वृद्ध	-9.35326
केन	-9.35344
ोऽस्मि	-9.355
रु	-9.35573
▁विरोध	-9.35578
कि	-9.35584
▁वक्तव्यम्	-9.35687
परम	-9.35723
व्यापार	-9.35745
ावयव	-9.358
▁अपर	-9.35865
भ्यां	-9.35899
▁सुक्ल	-9.35912
त्वस्य	-9.35933
सक्त	-9.35994
▁दृष्टान्त	-9.36016
▁तस्मै	-9.36266
घ्न	-9.36309
क्त	-9.36326
संज्ञा	-9.36407
ध्वज	-9.36414
▁द्वौ	-9.36453
▁मही	-9.36487
▁यक्ष	-9.36496
▁खल्व	-9.36506
▁समाधि	-9.36508
वध	-9.3653
▁चतुर्थ	-9.36546
सेन	-9.36588
क्र	-9.36611
▁सङ्ख	-9.36627
विष	-9.36694
▁कार	-9.3671
▁पुन	-9.36781
▁उत	-9.36804
▁विस	-9.36815
▁वासुदेव	-9.36823
▁सिष्य	-9.36971
सब्दः	-9.36988
▁कथा	-9.37032
स्रुत	-9.37052
ात्त	-9.37077
पत्र	-9.37165
कु	-9.37182
पाप	-9.3721
▁सीत	-9.37399
▁न्याय	-9.37502
म्ब	-9.37531
▁जप	-9.37642
▁यावद्	-9.37682
▁उभय	-9.37691
ित्व	-9.37712
तत्र	-9.37765
▁इन्द्रिय	-9.37837
▁तिष्ठ	-9.37867
▁तप	-9.37928
▁नारद	-9.38032
पञ्च	-9.38045
दिस	-9.38106
▁चर	-9.38128
▁स्मृतः	-9.38307
भुज	-9.38393
जन्म	-9.38408
व्या	-9.38439
▁इत्यत्र	-9.38451
▁नान्य	-9.38467
▁वर्तमान	-9.38473
व्यक्त	-9.38531
▁योऽ	-9.38536
विरुद्ध	-9.38579
▁जगाम	-9.38664
▁द्रोण	-9.38712
प्रधान	-9.3878
सुत	-9.38924
ाधिक	-9.38974
नो	-9.39136
▁चित्तं	-9.39139
ादीनि	-9.39156
चन्द्र	-9.39171
▁हे	-9.39227
▁कृता	-9.39273
▁स्रवण	-9.39295
▁द्वय	-9.39335
▁मानुष	-9.39416
धातु	-9.39558
घट	-9.39563
ादीनाम	-9.39608
▁राज्य	-9.39702
ान्वय	-9.39704
▁वृत्ति	-9.39735
ोऽत्र	-9.39758
ादेः	-9.39814
ोऽहं	-9.39918
तं	-9.39921
▁सुखं	-9.40112
विकार	-9.40159
सन्	-9.40194
▁भवत्य	-9.40318
वेग	-9.40346
▁किन्तु	-9.40413
▁पट	-9.40617
स्पर्स	-9.40668
वर्ग	-9.40685
▁यद्यपि	-9.40685
▁कुलपुत्र	-9.40739
▁संप्र	-9.4082
▁देवि	-9.40831
▁विरुद्ध	-9.40843
▁कि	-9.40844
▁प्रवृत्त	-9.40868
ास्रम	-9.40882
ैरपि	-9.40945
▁दिन	-9.4103
▁रा	-9.41063
▁कस्चित्	-9.41112
यन्त	-9.41159
ोच्यते	-9.41171
▁विध	-9.41223
▁सर्प	-9.41394
▁मयि	-9.41404
लि	-9.4149
▁मध्यम	-9.416
हीन	-9.41621
▁लौकिक	-9.41686
▁ययौ	-9.41717
▁दृस्य	-9.41787
मत	-9.41849
स्थित	-9.41874
▁परमं	-9.41887
▁द्वार	-9.41909
▁स्नेह	-9.41918
▁षोडस	-9.41953
▁बद्ध	-9.41984
▁पत	-9.4209
▁वः	-9.42094
घात	-9.42267
मित	-9.42319
समा	-9.42359
मत्र	-9.42366
▁गृहीत	-9.42388
ध्यान	-9.42623
नेक	-9.42642
ीर	-9.42655
नव	-9.42657
▁एवमेव	-9.42811
वज्र	-9.42813
▁सक्त	-9.4282
ाक्षर	-9.4286
हृदय	-9.42921
▁चास्य	-9.42971
ुत्तर	-9.43017
▁किञ्च	-9.43023
▁ब्रह्मा	-9.43024
▁ताव	-9.43067
▁भद्र	-9.43148
▁अन्त	-9.43151
▁सून्यता	-9.43156
▁केस	-9.43367
िदं	-9.43378
▁कर्माणि	-9.43608
दिति	-9.43657
▁घन	-9.43672
पूर्ण	-9.43684
ह्य	-9.4375
▁बोध	-9.43778
▁दद	-9.43806
▁ततस्त	-9.4392
िणी	-9.43927
ोद	-9.43971
▁समर्थ	-9.43977
ल्ल	-9.43982
▁हीन	-9.43997
▁भार्या	-9.44023
विसेषण	-9.44023
तल	-9.44082
▁घृत	-9.44098
▁आदित्य	-9.44152
▁युज्यते	-9.44155
▁पञ्चम	-9.44179
गति	-9.44191
▁केवलं	-9.44242
भावः	-9.44294
▁पार	-9.44308
▁प्राह	-9.44412
▁इयं	-9.44421
▁स्रेष्ठ	-9.44453
▁मत्	-9.44477
▁एतद	-9.446
ोदक	-9.44604
▁गन्धर्व	-9.4466
विधान	-9.44731
हा	-9.45038
▁चकार	-9.4506
रे	-9.45071
▁निरोध	-9.45124
▁महता	-9.45163
▁सार	-9.45313
ौघ	-9.45369
ेषां	-9.45386
स्चापि	-9.45486
ोर	-9.45509
▁परम्	-9.45542
▁इदम	-9.45583
दु	-9.45607
▁स्कन्ध	-9.45658
ोपदेस	-9.45726
▁अनेक	-9.45817
ाभ्याम	-9.45825
मणि	-9.45849
▁ददर्स	-9.45867
▁क्रमेण	-9.45898
▁ज्ञात्वा	-9.45919
ादिकं	-9.45923
कृत्य	-9.45995
▁वो	-9.46071
यितुं	-9.46102
▁वस्त्र	-9.46128
▁सत्रु	-9.46331
पदं	-9.46361
याः	-9.46386
ाना	-9.46408
ोदर	-9.4658
मे	-9.46584
▁गा	-9.46679
गृहीत	-9.46685
मादाय	-9.46793
▁वापि	-9.46878
▁इष्ट	-9.46881
▁सहसा	-9.46902
▁अहो	-9.46944
ेनापि	-9.47017
सदृस	-9.47042
मेत	-9.47125
▁ईस्वर	-9.4713
ोपाय	-9.47192
्यत	-9.47208
पत्य	-9.47219
▁सागर	-9.47305
निरोध	-9.47397
सून्य	-9.47451
ल्	-9.47513
्म	-9.47517
▁विकार	-9.47541
▁सन्ति	-9.47546
▁देवानां	-9.47548
तस्य	-9.47558
निस्चय	-9.47567
▁दुष्ट	-9.47703
▁स्वर	-9.47708
न्वय	-9.4776
▁षट्	-9.47773
▁कान्त	-9.47803
▁प्रयोजन	-9.47831
प्रामाण्य	-9.47842
पान	-9.4786
ीव	-9.47889
▁दृष्टि	-9.47916
त्वादि	-9.47927
वो	-9.47969
▁ऋषि	-9.4797
ामृत	-9.47974
सामर्थ्य	-9.48011
▁स्थिर	-9.4802
गम	-9.48111
ोद्	-9.48151
ापेक्ष	-9.48156
▁सर्वदा	-9.48272
▁वृत्त	-9.48318
रव	-9.48413
▁धातु	-9.48547
▁दुर	-9.4858
पर्य	-9.48595
र्द	-9.48601
▁स्तन	-9.48678
परा	-9.48681
▁सस्त्र	-9.4876
▁तस्यैव	-9.48789
▁तनु	-9.48902
▁सैल	-9.48927
भ्र	-9.4893
▁हर्ष	-9.48977
गतं	-9.49069
▁लक्ष्मण	-9.49146
न्व	-9.49181
▁प्रवर्तते	-9.49184
▁पाण्डव	-9.49624
▁वरुण	-9.49677
▁भुज	-9.49734
ाभिधान	-9.49851
ोभय	-9.49934
स्रवण	-9.49952
▁तेऽ	-9.50045
निष्ठ	-9.50111
ोक्तं	-9.5026
गम्य	-9.50331
ात्मानं	-9.50438
▁राघव	-9.50471
संज्ञ	-9.50506
भङ्ग	-9.5056
गता	-9.50614
▁कथयति	-9.50621
▁इमे	-9.50668
ैत	-9.50681
नाद	-9.50739
लब्ध	-9.50861
था	-9.50876
संघ	-9.50897
ाणाम्	-9.50898
युग	-9.50907
▁ज्येष्ठ	-9.50981
▁जित	-9.51058
▁गङ्गा	-9.51074
ाधिकार	-9.51172
मानं	-9.51224
▁युद्ध	-9.51256
▁एतेन	-9.51281
णीय	-9.5137
▁दानव	-9.51492
▁मार	-9.51515
पास	-9.51549
मात्म	-9.51593
क्षर	-9.51676
नेत्र	-9.51694
▁रति	-9.51697
▁यतो	-9.51854
▁एतद्	-9.5186
▁पुराण	-9.51878
प्रसाद	-9.51892
ग्राम	-9.51909
मिन्द्र	-9.51977
तीत्य	-9.51998
▁राज्ञा	-9.52031
ाचार	-9.52033
▁गति	-9.52052
▁प्रीत	-9.52217
▁स्थितः	-9.5223
▁ग्रहण	-9.52322
भावेन	-9.5234
ेना	-9.5248
▁संबन्ध	-9.52513
▁प्राप्ते	-9.52539
▁वाम	-9.52541
ार्थम्	-9.52544
▁विचित्र	-9.52582
▁कुसुम	-9.52712
ान्स	-9.52755
▁येषां	-9.52784
▁वाक्यं	-9.52813
▁मिथ्या	-9.52969
लं	-9.53022
▁कला	-9.53104
▁नन्व	-9.53108
▁दन्त	-9.53148
▁कालेन	-9.53196
▁भवान्	-9.53248
रण	-9.53631
सम्भव	-9.5374
वति	-9.53744
ार्थे	-9.5379
ोऽसौ	-9.53799
ादिना	-9.53819
द्व	-9.53826
ाहार	-9.53898
▁ण	-9.53954
▁उत्तम	-9.5396
ेष्ट	-9.54027
यान	-9.54138
धिक	-9.54141
स्चेति	-9.5416
न्यथा	-9.54179
▁अयम	-9.54361
म्च	-9.54377
▁दानि	-9.54392
▁सर्वथा	-9.54426
भावना	-9.54496
▁अह	-9.54568
ुद्	-9.54574
धी	-9.54586
▁व्यक्त	-9.54616
▁सक्य	-9.54715
▁अस	-9.54729
मुत्तमम्	-9.54737
विस	-9.54768
ादय	-9.54771
कृतं	-9.54776
्यर्थ	-9.54787
नः	-9.54804
ाधि	-9.54824
▁भो	-9.54835
▁दुर्योधन	-9.54869
तद	-9.54903
ोऽस्य	-9.54919
▁दीप	-9.54949
ोत्पत्ति	-9.54949
भवति	-9.55025
ायतन	-9.55056
ल्प	-9.55059
नाय	-9.5507
िनि	-9.55076
सित	-9.55091
▁ग्राह्य	-9.55098
ात्मनि	-9.55131
मांस	-9.55155
▁मत्त	-9.55165
▁वसु	-9.55189
क्लेस	-9.55193
द्रव	-9.55261
▁सर्वाणि	-9.55301
▁सेषः	-9.55311
▁लभते	-9.55593
च्युत	-9.55619
ष्ठ	-9.55632
वंस	-9.55683
दिन	-9.55782
बाहु	-9.55797
ाद्वा	-9.55837
▁कुत	-9.55839
▁वचः	-9.55859
कृता	-9.56006
ोत्पाद	-9.56108
नय	-9.56145
बद्ध	-9.56163
तद्	-9.56244
▁तम्	-9.56277
युत	-9.56339
जान	-9.5639
▁तिष्ठति	-9.56396
रात्र	-9.56397
▁हित	-9.56401
▁विविध	-9.56414
▁प्रतिषेध	-9.56418
माना	-9.56453
क्रिय	-9.56559
▁मेघ	-9.56595
महं	-9.56782
▁चेद	-9.56828
ेस	-9.56862
वत	-9.5689
▁प्रेत	-9.56901
त्थ	-9.56902
▁स्यादिति	-9.56919
ीभूत	-9.5694
ोद्भव	-9.56948
▁तेनैव	-9.56962
ाद्या	-9.56966
▁मु	-9.56976
नयन	-9.5698
रक्त	-9.56984
▁व्यभिचार	-9.57063
ज्य	-9.57095
▁कस्मात्	-9.5717
▁भरत	-9.57351
ोऽनु	-9.57368
▁प्रथमं	-9.57372
ःऽ	-9.57378
स्त्री	-9.57388
ानुप	-9.57393
ोऽयम	-9.57422
▁धर्मा	-9.57452
त्सु	-9.57469
▁यज	-9.57476
▁नरक	-9.57558
▁समं	-9.57558
चार	-9.57568
योग्य	-9.5758
जं	-9.5766
▁वह्नि	-9.57726
▁युग	-9.57741
स्री	-9.57808
▁ई	-9.57841
▁पृथक्	-9.5785
योगेन	-9.57931
िकः	-9.5794
दर्सनात्	-9.58039
सद	-9.58125
▁गृहीत्वा	-9.58127
रुप	-9.58202
▁तावद्	-9.58228
▁हा	-9.58241
▁भूय	-9.58249
▁विवेक	-9.58274
वह	-9.58377
ण्	-9.58418
येद्	-9.58493
▁यान्ति	-9.58526
▁त्रय	-9.58584
▁भवतीति	-9.58617
▁कमल	-9.58654
▁संवत्सर	-9.58797
ादपि	-9.58831
▁स्थूल	-9.58868
ट्	-9.58902
▁इत्युक्त्वा	-9.58939
हत	-9.59002
म्भ	-9.59182
▁अन्यत्र	-9.59183
धार	-9.59209
स्ततः	-9.59264
▁भिक्षु	-9.59359
नन्त	-9.59364
▁जिन	-9.59382
घन	-9.59383
क्षत	-9.59411
तरं	-9.59413
▁रूपेण	-9.59419
▁क्ष	-9.59428
▁संभव	-9.59466
▁गता	-9.5948
िम	-9.59493
▁यानि	-9.595
द्रुम	-9.59543
ीस्वर	-9.59603
जय	-9.59635
तन्त्र	-9.59724
कृत्	-9.59742
वयव	-9.59792
▁यदुत	-9.59794
▁स्था	-9.59804
▁पति	-9.59862
त्वमिति	-9.59973
ोपम	-9.59986
स्तथैव	-9.6
▁क्षीर	-9.60019
▁यन्	-9.60022
▁लाभ	-9.60186
पर्यन्त	-9.60203
मित्याह	-9.60205
▁हिरण्य	-9.60222
▁सित	-9.6023
▁वाच	-9.60255
▁वैसंपायन	-9.60262
यामि	-9.6033
▁ऊर्ध्व	-9.60343
▁स्रद्धा	-9.60358
नियत	-9.60367
ार्ह	-9.60373
▁सर्वस्य	-9.60479
र्वि	-9.60496
▁भज	-9.60522
▁वास	-9.60539
▁सततं	-9.60848
▁मात्र	-9.60929
भक्त	-9.60958
ैषा	-9.60958
▁तीर्थ	-9.60969
▁दक्षिणा	-9.60981
पद्म	-9.61196
ानीति	-9.61303
मभ्य	-9.61358
▁प्रवृत्ति	-9.61393
▁अर्ध	-9.61405
▁अज	-9.61428
दक्षिण	-9.61507
र्ण	-9.61515
▁पुरुषः	-9.61562
▁प्रभो	-9.6161
चरित	-9.61645
ञ	-9.61654
▁परमार्थ	-9.61655
▁सुक्र	-9.617
ीत	-9.61714
▁कारणं	-9.61743
ांसि	-9.61749
पिण्ड	-9.61758
करोति	-9.61803
कोटि	-9.61825
स्येव	-9.61865
सुद्ध	-9.61945
िकं	-9.61963
िष्यते	-9.61986
▁स्रावक	-9.62041
▁मूढ	-9.62078
ध्व	-9.621
नात्	-9.62153
▁कुरुते	-9.62194
मिस्र	-9.62195
रोग	-9.62203
▁प्रस्न	-9.62209
▁बाहु	-9.6222
रो	-9.62256
त्या	-9.62339
▁केसव	-9.6234
च्छेद	-9.62424
▁माता	-9.62455
त्वान्न	-9.62474
▁कोप	-9.62516
दृष्टि	-9.62527
द्विज	-9.62568
देवता	-9.62665
▁नात्र	-9.62685
द्वीप	-9.62698
प्	-9.62844
▁दूत	-9.62861
त्यन्त	-9.62865
भूता	-9.62949
▁भुवि	-9.63105
दार	-9.6312
▁वृष	-9.63169
कल	-9.63219
▁स्वयम	-9.63224
ानन	-9.63284
णे	-9.63312
▁हेतुः	-9.63348
▁ष	-9.63394
▁इत्यत	-9.63398
ात्मनो	-9.63457
मस्य	-9.63524
ताम	-9.63636
ाधार	-9.6367
हास	-9.63703
▁सम्भव	-9.63811
बहु	-9.63815
ोपादान	-9.63833
▁अग्ने	-9.63837
ास्त्र	-9.63862
▁नेत्र	-9.63921
▁मरण	-9.6397
र्ह	-9.63999
▁पास	-9.64052
दुर्	-9.6409
्यन्त	-9.64109
कण्ठ	-9.6413
प्रसङ्ग	-9.64141
पात्र	-9.64154
धूम	-9.64285
कृष्ण	-9.64346
प्रतिषेध	-9.64405
▁विहित	-9.64463
मप	-9.64468
▁जीवित	-9.64559
मना	-9.64626
गमन	-9.64676
्यादि	-9.64734
नन्द	-9.64765
ाख्या	-9.64785
▁स्थिता	-9.64806
ैर्न	-9.64832
▁सोऽपि	-9.64996
िन्द्रिय	-9.65026
▁मद्	-9.65064
▁सत्व	-9.65069
ैनं	-9.65085
▁सर्वसत्त्व	-9.65089
▁नष्ट	-9.6511
▁वने	-9.65224
▁समय	-9.65321
जन्य	-9.65334
कैः	-9.65363
स्रुति	-9.65375
रति	-9.6546
▁दास	-9.65467
▁मत	-9.65489
▁घ	-9.65509
वक्त्र	-9.6552
▁जगद	-9.6555
▁स्लोक	-9.65551
म्बु	-9.65709
▁दक्ष	-9.65711
मृग	-9.65874
▁निवृत्त	-9.65879
ावृत	-9.65978
▁मांस	-9.65979
▁विधीयते	-9.66052
राम	-9.66081
▁नहि	-9.66104
▁स्र	-9.66108
ङ	-9.6611
िण	-9.66129
▁विषम	-9.66132
ष्टा	-9.66208
न्या	-9.66209
▁काक	-9.66357
▁हय	-9.66475
▁ध्रुव	-9.66478
▁ऽअ	-9.66483
▁वह	-9.66552
▁यस्मात्	-9.66563
वात	-9.66565
सङ्ग	-9.66593
▁कुस	-9.66599
प्रभ	-9.66613
िणः	-9.66624
र्ष	-9.66677
▁परिणाम	-9.66698
▁पात	-9.66743
▁समरे	-9.66769
▁संस्कृत	-9.66773
▁कस्चिद	-9.6686
▁व्यास	-9.66929
▁स्वयमेव	-9.66986
वित्	-9.67019
▁विचार	-9.67037
ग्राह	-9.67129
पुनः	-9.67263
यत	-9.67264
▁मन्यते	-9.67304
▁रण	-9.67345
ालङ्कार	-9.6736
तार	-9.67384
▁कर्तव्य	-9.67423
▁स्रोत्र	-9.67481
कारक	-9.67493
▁षड्	-9.67502
समर्थ	-9.67526
जाति	-9.67549
हो	-9.67554
▁सैव	-9.67592
▁प्रभुः	-9.67868
द्वितीय	-9.67942
▁मानस	-9.67952
भेदेन	-9.67971
▁मण्डल	-9.68056
त्याग	-9.68268
विचार	-9.68274
▁प्रकार	-9.683
िनां	-9.68603
▁षष्ठ	-9.68623
▁तिल	-9.68648
▁भूतानि	-9.68651
ायाम	-9.68694
▁हृदि	-9.68745
▁जान	-9.68771
ावरण	-9.68806
▁वानर	-9.68815
विनास	-9.68887
▁पस्चात्	-9.68916
▁द्वेष	-9.68944
बाल	-9.68951
▁स्राद्ध	-9.68976
ुत्	-9.69004
दल	-9.69049
▁भविष्यन्ति	-9.69117
िते	-9.6912
▁सर्वलोक	-9.69136
जित	-9.69162
सप्त	-9.6927
▁क्षत्रिय	-9.6931
म्ऽ	-9.6934
तीर्थ	-9.69358
वाच्य	-9.69435
▁नृ	-9.69463
ेतर	-9.69491
▁कर्ता	-9.69526
▁अनन्त	-9.69535
ासुर	-9.69548
▁संघ	-9.69566
तथा	-9.69659
मत्	-9.69663
तुः	-9.69664
दृस	-9.69679
सब्दस्य	-9.69688
मुद्	-9.69735
▁तृण	-9.69739
▁यस्तु	-9.69841
▁ददाति	-9.69887
▁चेन्न	-9.6991
ाऽ	-9.69913
▁दानं	-9.70006
▁महासत्त्वस्य	-9.70027
ऽइति	-9.70027
▁पदं	-9.70057
ाद्वि	-9.70103
▁चक्रे	-9.70161
साम्य	-9.70183
भ्रम	-9.70187
▁धारय	-9.70208
प्रसिद्ध	-9.70217
पुट	-9.70229
यु	-9.7024
▁याग	-9.70256
त्वमेव	-9.70307
▁अधि	-9.70339
▁नरः	-9.70362
▁अभाव	-9.70428
▁विपाक	-9.70556
ेतद	-9.70558
धारण	-9.70631
रित्य	-9.707
विद	-9.70841
ामहे	-9.70851
▁नाथ	-9.7095
▁धर्मो	-9.71063
▁यत्न	-9.71253
▁प्रिया	-9.71317
▁सिध्यति	-9.7134
ाभ्यास	-9.71404
िष	-9.71433
भार	-9.71438
▁भुवन	-9.71451
ेष्वपि	-9.71458
ान्तरे	-9.71472
▁नोपलभ्यते	-9.71482
▁अभ्य	-9.71556
▁कदा	-9.71594
▁महान्	-9.7169
र्भवति	-9.71739
ज्	-9.71741
िन्द्र	-9.71767
ानपि	-9.71771
स्मृति	-9.71807
▁पार्स्व	-9.71821
र्ज	-9.71838
▁प्रामाण्य	-9.72055
ाम्य	-9.72159
▁यद्वा	-9.72167
▁साम	-9.72192
▁व्याप्ति	-9.72202
▁मृदु	-9.72207
ानेक	-9.72254
पर्वत	-9.72337
▁मधुर	-9.72363
▁उक्तं	-9.72443
▁मुने	-9.7252
▁सक्यते	-9.72533
द्वार	-9.72586
समाधि	-9.7259
ठ	-9.72594
▁स्निग्ध	-9.72609
▁काञ्चन	-9.72644
किं	-9.72667
ादेर	-9.72686
▁सर्वज्ञ	-9.72689
मन्व	-9.72738
▁काष्ठ	-9.72769
ाम्बु	-9.72824
▁तस्याः	-9.72887
▁भगवान	-9.72933
▁सिद्धि	-9.72949
परिमाण	-9.72951
▁सर्ग	-9.73026
▁सुक	-9.73041
▁चात्र	-9.7315
▁स्रूयते	-9.73174
▁स्थिति	-9.73176
गीत	-9.7319
▁धीर	-9.73244
ानुभव	-9.73267
ितुम्	-9.73288
▁विजय	-9.73309
सुभ	-9.73321
ित्यर्थः	-9.73345
▁धृत	-9.7335
ैरिव	-9.73428
▁पृच्छ	-9.73452
ेते	-9.73482
▁निस्चय	-9.73549
▁मल	-9.73551
▁विमल	-9.73558
▁वंस	-9.73598
▁तत्रापि	-9.73724
्याः	-9.73767
▁सौ	-9.7383
▁प्रतिज्ञा	-9.73888
वन्त	-9.73934
ाप्त	-9.73942
दूर	-9.73968
▁भवेद्	-9.73975
वृत	-9.73998
▁दम	-9.74012
मार	-9.74037
मेघ	-9.7407
▁इत्येवं	-9.74098
योजन	-9.74109
▁दार	-9.74254
▁अथवा	-9.74287
▁जड	-9.74372
भूय	-9.74392
▁सामर्थ्य	-9.74439
▁इत्युक्त	-9.74444
क्ष्य	-9.74522
ुत	-9.74542
ासौ	-9.746
▁व्यापार	-9.7466
▁दुःखं	-9.74667
▁समास	-9.74726
खण्ड	-9.74815
▁सुप्त	-9.74936
पाय	-9.74996
▁प्रमाणं	-9.74999
▁लघु	-9.75006
सोक	-9.75039
▁यस्मिन्	-9.7504
▁पतित	-9.75053
▁कुम्भ	-9.75058
नील	-9.75121
▁कवि	-9.7516
▁हत्वा	-9.75164
िष्ट	-9.75208
स्म	-9.7523
▁होम	-9.75261
मनो	-9.75309
▁क्षम	-9.75322
▁भवता	-9.75445
▁कल्पित	-9.7556
▁तर	-9.75562
▁तस्मान्न	-9.75574
तनु	-9.75593
▁इत्युच्यते	-9.7563
▁क्र	-9.75662
▁महादेव	-9.75681
▁वाचा	-9.75784
स्रेष्ठ	-9.75797
▁सौम्य	-9.75805
विहित	-9.75835
▁तार	-9.75844
▁ऊ	-9.75849
कारः	-9.75917
परिग्रह	-9.76064
प्रयोजन	-9.76107
भृत	-9.76174
मुद	-9.76217
▁प्रसन्न	-9.7634
ैर्वि	-9.76369
ात्पर	-9.76431
वस्त्र	-9.76471
ेषा	-9.76485
▁तृष्णा	-9.76589
धिकरण	-9.76593
▁पूर्वोक्त	-9.76607
मर	-9.76684
▁गगन	-9.7671
स्चा	-9.76871
भा	-9.76917
निबन्धन	-9.76967
▁पृष्ठ	-9.77023
▁वक्तव्यः	-9.77026
▁गीत	-9.77132
▁अन्तर	-9.77176
▁स्नान	-9.77201
लोप	-9.77206
करो	-9.77306
विष्णु	-9.77352
स्मिन्न	-9.77408
▁राज्यं	-9.77412
न्यत्र	-9.77489
▁त्यज	-9.77493
घोष	-9.77516
▁निर्वाण	-9.77546
मुत्तर	-9.77612
▁महात्मनः	-9.77638
▁योनि	-9.77652
▁सम्यक्संबुद्ध	-9.77702
▁निः	-9.77738
चरण	-9.7775
प्रयुक्त	-9.77778
भावात्	-9.77779
▁गौतम	-9.77792
तय	-9.77831
दृस्य	-9.77864
▁तपसा	-9.7788
रत	-9.77882
▁कृतम्	-9.77883
▁इम	-9.77975
धर्मा	-9.78013
▁क्रीड	-9.78032
▁पितामह	-9.7805
▁भूमौ	-9.78056
मोक्ष	-9.78147
▁तद्व	-9.78152
मन्त	-9.78205
▁कण्ठ	-9.78239
▁पत्र	-9.78257
भूतं	-9.78275
सिद्धिः	-9.78303
▁अनित्य	-9.78312
▁त्वम	-9.78333
सागर	-9.7839
▁पुरुषो	-9.78394
▁हन्त	-9.78518
▁आनन्द	-9.78561
▁कास्यप	-9.78564
श्च	-9.7859
▁माधव	-9.78618
सति	-9.78624
▁मनसि	-9.78662
▁वेति	-9.78692
ैतद	-9.78723
पतिः	-9.78725
द्वयं	-9.78753
ैते	-9.78769
प्रभा	-9.78792
▁स्थित्वा	-9.78794
मेकं	-9.78846
▁त्यक्त्वा	-9.78924
▁दग्ध	-9.78937
▁अल्प	-9.78938
ार्त	-9.78956
▁विसुद्ध	-9.79045
▁सदृस	-9.7905
तृ	-9.79082
▁तपो	-9.79129
सद्	-9.79179
▁भस्म	-9.79213
▁मर्त्य	-9.79279
ाण	-9.79308
योनि	-9.7941
▁घोर	-9.79453
ुभय	-9.79455
▁अन्ये	-9.79456
केस	-9.7946
िष्ठ	-9.79473
माल	-9.79495
ग्राह्य	-9.79543
▁राजेन्द्र	-9.79552
लता	-9.79642
स्थं	-9.79653
▁भावना	-9.79655
ज्ञात	-9.79688
▁यान	-9.79703
▁चिद्	-9.79756
विवेक	-9.79768
ास्तथा	-9.79782
▁प्राग	-9.79842
चेतन	-9.79845
▁दिवि	-9.79936
▁तन्त्र	-9.7997
▁पाणि	-9.79988
ाञ्	-9.80023
सहस्राणि	-9.80058
धिकार	-9.80066
▁भा	-9.80071
प्रसङ्गः	-9.80084
्यमाण	-9.80184
पक्षे	-9.802
िरे	-9.80234
ोऽन्य	-9.80306
त्यर्थ	-9.80333
▁वाग्	-9.80465
ालय	-9.80521
ाम्बर	-9.80523
▁वाक्	-9.80618
लक्षणा	-9.8062
समास	-9.80658
मुत्	-9.80719
▁वक्त्र	-9.80751
स्तथागत	-9.80844
▁प्रभाव	-9.80848
▁पात्र	-9.80892
▁बन्धु	-9.80893
▁प्रवेस	-9.80896
द्भिः	-9.80967
सृज	-9.80999
पूर	-9.81043
दाह	-9.81075
र्क	-9.81134
सूर्य	-9.81143
▁भीमसेन	-9.8117
कत्व	-9.81187
▁आचार्य	-9.81218
िके	-9.81234
तीव	-9.81291
▁यव	-9.81357
▁एवेति	-9.81391
▁भूयो	-9.81428
ात्प्र	-9.81526
सैन्य	-9.81527
▁स्याम	-9.81572
ास्रित	-9.81632
सब्दो	-9.81676
▁अष्ट	-9.81691
▁इत्येव	-9.81727
पाणि	-9.81777
ादिक	-9.81812
▁धर्मः	-9.81831
क्षेप	-9.81839
▁नगर	-9.81907
बोधिसत्त्व	-9.81921
्र	-9.81921
्न	-9.81923
ासीत्	-9.81949
▁सरणं	-9.81963
दीर्घ	-9.8203
कुसुम	-9.8207
▁विभाग	-9.82073
ातिसय	-9.82076
्ये	-9.82271
▁परमेस्वर	-9.82289
स्रव	-9.82292
▁वाज	-9.82321
▁कृत्य	-9.8233
ार्क	-9.82331
▁पुण्यं	-9.82348
▁बोधिसत्त्वेन	-9.8239
संस्कृत	-9.82426
▁रोग	-9.82458
ैस्तु	-9.82483
भावे	-9.82495
▁पूजा	-9.82596
▁सूल	-9.826
▁ददौ	-9.82627
क्षेत्र	-9.82629
▁सङ्ग	-9.8266
▁दीप्त	-9.82811
▁इत्येत	-9.82824
▁विविक्त	-9.82847
पार	-9.82876
▁केचित्	-9.82882
मानः	-9.82895
▁ऋत	-9.82904
प्त	-9.82923
ादिव	-9.82935
▁सिद्धान्त	-9.82938
ढ	-9.82977
ारि	-9.82983
▁भाष	-9.8299
▁तदपि	-9.83019
▁चेतन	-9.83041
ोऽभि	-9.83046
ान्तं	-9.83089
ेवं	-9.83092
▁भक्त्या	-9.83173
▁पुत्रो	-9.83266
माया	-9.83271
मुवाच	-9.83284
▁लक्ष	-9.83297
▁दिस	-9.83437
▁गम्यते	-9.835
र्म	-9.83609
▁भोजन	-9.83611
▁मत्स्य	-9.8362
लक्षणं	-9.83696
▁पण्डित	-9.83719
▁अप्य	-9.83731
ोऽभवत्	-9.83732
▁जरा	-9.83732
ावर्त	-9.83896
▁दद्यात्	-9.83933
▁प्राक्	-9.83987
साधारण	-9.84061
▁सारिपुत्र	-9.8407
▁कतम	-9.84083
सृङ्ग	-9.84117
▁स्वयम्	-9.84121
▁व्याख्यात	-9.84142
न्तीति	-9.84219
वदिति	-9.84227
ीयते	-9.84251
▁चत्वारि	-9.84266
▁दध	-9.84327
स्याप्य	-9.84338
ाधीन	-9.84356
सून्यता	-9.84374
▁तदर्थ	-9.84445
स्न	-9.84454
ेभ्य	-9.84455
▁गृहे	-9.84549
▁देवो	-9.8455
यम्	-9.8461
▁समवाय	-9.84617
ाङ्क	-9.8466
घोर	-9.84714
▁कृत्स्न	-9.84722
्प	-9.84785
▁बाधक	-9.84816
▁एता	-9.84844
वचनं	-9.84856
▁भवतः	-9.84918
▁ध्वज	-9.84943
▁कर्तु	-9.8498
▁सिला	-9.85023
▁अमृत	-9.85035
▁साधारण	-9.85065
कर्ष	-9.85083
▁त्वयि	-9.85121
▁विस्तरेण	-9.85186
ालोक	-9.85188
तेन	-9.85252
ैस्वर्य	-9.85258
▁त्रैलोक्य	-9.85259
साम	-9.85352
म्भवति	-9.85353
निर्देस	-9.85451
▁तयोः	-9.85473
▁याव	-9.85501
भूत्	-9.85572
▁त्याग	-9.85688
▁अस्तु	-9.85766
▁खड्ग	-9.8582
वन्	-9.85822
▁पावक	-9.85825
▁सर्वतः	-9.85855
▁व्यतिरेक	-9.85902
सान्त	-9.85907
▁विज्ञानं	-9.85978
▁सर्वधर्म	-9.85984
प्रवृत्त	-9.86037
भर	-9.86038
ात्मन	-9.86093
ुच्यते	-9.86152
▁कनक	-9.86182
▁प्राय	-9.86188
▁आद्य	-9.86211
त्वेऽपि	-9.8634
न्याय	-9.86369
ज्ञा	-9.86418
▁तस्यां	-9.8642
▁वसिष्ठ	-9.86485
ावपि	-9.86524
स्त्वया	-9.86636
▁महासत्त्वः	-9.86641
▁विपरीत	-9.86704
▁सखी	-9.86707
▁नन्द	-9.86709
▁इतर	-9.86718
▁सेना	-9.8672
माप	-9.86753
कौ	-9.86755
▁स्मृतम्	-9.86798
मासाद्य	-9.86835
▁क्रतु	-9.86841
▁कारक	-9.86887
▁कोटि	-9.8694
▁युक्तं	-9.86953
▁वक्तव्य	-9.86964
ोचित	-9.87009
▁तैः	-9.87035
मित्यादि	-9.87038
स्मि	-9.87112
▁ट	-9.87117
▁पच	-9.87123
स्ततो	-9.8717
ाधिप	-9.87198
▁वाद	-9.87245
▁खर	-9.87253
▁अग्र	-9.87272
यदि	-9.87298
पु	-9.87304
त्रा	-9.87328
िष्यामि	-9.87337
समय	-9.87356
▁निहत	-9.87399
▁कस्चिद्	-9.87427
▁सृज	-9.87447
▁मन्यसे	-9.87453
ाभ	-9.87512
▁यत्तु	-9.87522
प्रसङ्गात्	-9.87568
▁भगवतः	-9.87623
▁गते	-9.87682
▁पुनरपरं	-9.87755
र्थे	-9.87765
▁कुर्वन्ति	-9.87797
ेन्दु	-9.87858
ाख्यं	-9.879
संसय	-9.87903
स्थिति	-9.87988
▁पंच	-9.8804
ऽअ	-9.88048
प्रवृत्ति	-9.88094
▁विमान	-9.88117
▁लक्ष्मी	-9.88172
णम्	-9.88206
भद्र	-9.8824
▁पुरुषस्य	-9.88246
▁भविष्य	-9.88256
▁सि	-9.88285
ेत्याह	-9.88291
▁महासत्त्व	-9.88341
▁वरं	-9.88351
तस्	-9.88414
पल	-9.88418
ध्वनि	-9.88419
ाभावे	-9.88423
▁बोधिसत्व	-9.88529
▁हार	-9.88561
युक्तं	-9.88606
कथा	-9.88641
ानल	-9.88654
कुम्भ	-9.88734
▁लक्ष्य	-9.88795
प्रवेस	-9.88802
ोत्पन्न	-9.88828
▁कुतो	-9.88829
▁समन्ततः	-9.88878
▁त्वत्	-9.88956
स्तेषां	-9.8897
▁कृच्छ्र	-9.89048
▁नयन	-9.89053
▁दिवस	-9.8906
▁पा	-9.89067
िद	-9.89071
कृति	-9.89085
वी	-9.89109
▁खण्ड	-9.89211
▁भगवतो	-9.89237
▁विवक्षित	-9.89273
परे	-9.89274
▁विहार	-9.89355
पीत	-9.89379
▁लोह	-9.8938
बाण	-9.89396
▁जाता	-9.89426
विहार	-9.89427
▁हिम	-9.8949
गुप्त	-9.89495
▁भिक्षवः	-9.89536
▁मन्ये	-9.89581
समान	-9.89623
▁रात्रि	-9.8963
▁साक्षात्	-9.8968
म्न	-9.89694
दिव	-9.89695
मानो	-9.89715
व्रज	-9.89749
▁तत्रा	-9.8976
▁लोभ	-9.89883
िन्	-9.8989
▁सर्वेषु	-9.89896
होम	-9.89907
▁सृङ्ग	-9.89934
ानामपि	-9.89935
करं	-9.89988
भवत्	-9.90081
ाकुल	-9.90092
ायाम्	-9.90094
क्रोध	-9.90104
▁नाम्ना	-9.90117
ली	-9.90179
ामीति	-9.90187
भिधान	-9.90234
▁प्रयोजनम्	-9.90237
▁क्षीण	-9.9025
बन्धन	-9.9028
▁व्यङ्ग्य	-9.90412
▁तपः	-9.90529
प्लव	-9.9054
ध्वं	-9.90543
ादन्य	-9.90561
विरह	-9.90581
ग्रहणम्	-9.90592
ेनेति	-9.90594
निष्	-9.90606
▁पुद्गल	-9.9061
▁प्रपञ्च	-9.90613
परं	-9.90669
▁गोविन्द	-9.90717
▁पूर्वपक्ष	-9.90738
▁स्या	-9.90799
ार्णव	-9.90808
▁जगद्	-9.90826
लक्षणम्	-9.90867
चित्र	-9.90871
ीनाम	-9.90927
▁ताम्र	-9.90951
▁चरण	-9.9097
त्ति	-9.91135
▁आगम	-9.91151
▁गोत्र	-9.91231
▁विगत	-9.9124
यैव	-9.9126
विप्र	-9.91265
र्च	-9.91354
व्याप्ति	-9.91393
▁वित्त	-9.91398
▁निद्रा	-9.91449
प्रभाव	-9.9147
ग्रहणं	-9.91482
भिप्राय	-9.91526
▁भूयः	-9.91526
कोप	-9.91532
▁विपर्यय	-9.91552
▁पादौ	-9.91781
दानं	-9.91795
ार्द्र	-9.91799
प्रथम	-9.91847
▁प्रविस्य	-9.91877
चल	-9.91894
▁स्नात्वा	-9.91897
सद्भाव	-9.91944
▁पूर्ववत्	-9.91958
वदन	-9.91966
▁तच्छ्रुत्वा	-9.91988
व्यतिरिक्त	-9.92007
ुपादान	-9.92043
▁वाच्यम्	-9.9213
स्त्य	-9.92142
▁रवि	-9.92143
▁ज्ञेय	-9.92146
लक्ष	-9.92153
तिष्ठ	-9.9216
▁महाबलः	-9.92169
पूर्वं	-9.92188
क्रान्त	-9.92255
▁सत्त्वा	-9.92275
▁ब्रूहि	-9.92317
ताप	-9.92341
▁नक्षत्र	-9.92354
▁सलिल	-9.92412
ीस	-9.92418
ाज्य	-9.92434
भावो	-9.92461
▁पापं	-9.92485
▁सर्वसः	-9.92576
स्याम	-9.92592
ावभास	-9.9262
▁तोय	-9.92636
नगर	-9.92671
▁बलि	-9.92672
तव	-9.92714
▁संख्या	-9.9275
▁हल	-9.92795
▁पत्नी	-9.92822
ीयं	-9.92891
ाचल	-9.92909
▁परस्य	-9.92941
▁इय	-9.92983
ात्मज	-9.93045
पस्य	-9.93045
विसुद्ध	-9.93066
मिदम	-9.93163
स्मृत	-9.93187
भी	-9.93222
▁समाप्त	-9.93233
▁विदुः	-9.93262
ापर	-9.93316
▁साधक	-9.93321
▁षड	-9.93336
▁भवतु	-9.93393
▁कालं	-9.93424
रं	-9.93534
▁सुगत	-9.93545
▁स्युः	-9.93589
ास्मि	-9.93598
पट	-9.93607
▁जिह्वा	-9.93625
▁संजय	-9.93625
▁विधिना	-9.93626
▁स्रव	-9.93633
▁सम्यग्	-9.93668
ून	-9.93679
ैरेव	-9.93686
▁सुचि	-9.93725
▁कथय	-9.93727
मनुष्य	-9.93737
▁विद्य	-9.93762
ान्तरं	-9.93801
विध्य	-9.93805
ेणैव	-9.93831
रुण	-9.93834
▁पान	-9.93888
कूट	-9.93892
मानुष	-9.93895
▁मुक्ति	-9.93902
ञ्जन	-9.93913
कल्पना	-9.93949
▁ग्रन्थ	-9.93955
वृद्धि	-9.9399
कृ	-9.93997
▁भदन्त	-9.94017
▁चिन्ता	-9.94067
ैन	-9.94067
▁हरिः	-9.94068
भावित	-9.94149
ीकृत्य	-9.94284
▁साम्य	-9.94286
▁राज्ञो	-9.94287
कन्या	-9.94296
क्राम	-9.94354
सीति	-9.94369
ास्चैव	-9.94371
▁तेजो	-9.94373
▁राजानं	-9.94408
मद्य	-9.94434
▁स्मृत	-9.94482
तौ	-9.94512
▁मातृ	-9.94543
▁इमं	-9.94553
निर	-9.94604
▁बलं	-9.94611
▁विसेषः	-9.94633
▁तदेवं	-9.94635
सर्ग	-9.94637
▁फलम्	-9.94673
दीप	-9.9469
ादेर्	-9.94705
जः	-9.94717
ाविति	-9.94787
▁कर्मणि	-9.94789
पते	-9.94953
तोऽपि	-9.95018
ोऽर्थ	-9.95019
ध्याय	-9.95027
परिहार	-9.9506
▁कल्याण	-9.95072
▁उत्पाद	-9.95088
▁सान्ति	-9.9512
नम	-9.95177
▁रात्रौ	-9.95185
ूर	-9.95187
दुर	-9.95253
▁किञ्चिद	-9.95256
तेऽ	-9.9534
▁सभा	-9.95404
भोजन	-9.95426
▁सब्दः	-9.95442
▁धृतराष्ट्र	-9.95505
प्राप्ति	-9.95537
▁यजमान	-9.95542
ोऽध्यायः	-9.95554
▁धी	-9.95574
ैक्य	-9.95669
▁यस्माद	-9.95693
▁विनय	-9.95726
▁कौ	-9.9574
क्रमेण	-9.95764
▁समाधिः	-9.95805
▁सुता	-9.95828
▁व्यसन	-9.9589
▁अक्ष	-9.95912
▁अयम्	-9.95944
चय	-9.95956
जनन	-9.95958
ात्तु	-9.9596
▁तीक्ष्ण	-9.95979
▁यात	-9.95984
▁याम	-9.96003
्येत	-9.96029
जि	-9.96045
ाभरण	-9.96086
वृष	-9.96101
माला	-9.96151
ाविव	-9.96167
▁मुहूर्त	-9.96199
िष्यन्ति	-9.96201
▁अन्न	-9.96215
▁द्रव	-9.96223
▁प्रोक्ता	-9.96252
▁ह्रस्व	-9.96258
ावस्था	-9.96275
सञ्ज्ञा	-9.96277
▁कीर्ति	-9.96379
▁वेदितव्या	-9.96485
नादि	-9.9651
रुह	-9.96571
▁उदक	-9.96675
▁रावण	-9.9672
▁कर्तृ	-9.96885
क्षु	-9.96886
▁त्रीणि	-9.96894
▁ताम	-9.96948
ब्	-9.96949
तीत	-9.96972
पाक	-9.97004
त्त्व	-9.9704
लोचन	-9.97087
ज्वर	-9.97111
▁ऋ	-9.97124
ाधिकरण	-9.97156
▁आप	-9.9731
▁सृष्टि	-9.97318
हेतुः	-9.97377
▁गृह्यते	-9.97412
वेद्य	-9.97461
▁रजत	-9.97482
▁चेत	-9.9753
भाष	-9.97533
▁चतुर	-9.97623
▁पाक	-9.97639
▁राज्ञः	-9.97649
प्रकृति	-9.97715
ाक्षेप	-9.97731
पृष्ठ	-9.97753
▁अन्योन्य	-9.97773
▁मङ्गल	-9.97775
स्चित्त	-9.97797
▁गदा	-9.9782
गज	-9.97869
▁क्रूर	-9.97923
▁यन्न	-9.97946
▁सप्तम	-9.97953
▁तासां	-9.97982
कृते	-9.98041
▁गतिः	-9.98063
▁अस्म	-9.98089
▁चारु	-9.98092
▁द्रुत	-9.98172
▁साप	-9.98179
▁वर्त	-9.98275
पृच्छ	-9.98436
ांसु	-9.98465
▁देय	-9.98471
वर्जित	-9.98474
िष्य	-9.98479
▁प्रजाः	-9.98484
व्यय	-9.98531
▁व्योम	-9.98551
▁तत्प्र	-9.98562
▁सूत्रे	-9.98633
चित्	-9.98671
ायुष	-9.98716
▁चन्दन	-9.98718
▁ज्ञ	-9.98719
▁जग	-9.98744
मूर्त	-9.98747
कान्त	-9.98771
▁निसा	-9.98776
्यम्	-9.9882
▁भिक्षवो	-9.98822
लीन	-9.98855
▁महासत्त्वेन	-9.98871
स्यते	-9.98905
▁चिन्तय	-9.98907
मती	-9.98913
▁सादृस्य	-9.98922
▁दधि	-9.98993
▁नूनं	-9.99019
▁बहुल	-9.9903
गच्छ	-9.99057
चिन्त्य	-9.99078
▁चैक	-9.99089
▁एकैक	-9.99103
ल्य	-9.99104
▁प्राप	-9.99124
▁तमेव	-9.99132
▁तथाच	-9.99136
ॄ	-9.99265
▁ध्वनि	-9.99299
भवन	-9.993
मुक्तं	-9.99308
▁चाप्य	-9.99308
▁रज	-9.99327
▁देवदत्त	-9.9933
ुं	-9.99405
▁अथा	-9.99413
▁आद	-9.99435
च्य	-9.9944
त्वात	-9.99445
िनाम्	-9.99446
▁दिसि	-9.99473
▁सर्वभूत	-9.99475
▁प्रविष्ट	-9.99503
▁स्पष्ट	-9.99587
▁वच	-9.99596
दो	-9.99629
▁प्रणम्य	-9.99636
▁ऐ	-9.99678
▁औ	-9.99678
ायै	-9.99686
सूत	-9.99711
संपन्न	-9.99721
▁राष्ट्र	-9.99776
▁दिवा	-9.99797
विग्रह	-9.99934
रुवाच	-9.99979
▁रौद्र	-9.99993
▁वारि	-10.0001
▁मारुत	-10.0009
▁वैस्य	-10.0009
▁सुभा	-10.0011
▁पृथु	-10.0012
▁धर्मेण	-10.0013
▁प्रसङ्ग	-10.0015
▁पते	-10.0022
ार्थम	-10.0026
▁इत्थं	-10.0027
सृष्ट	-10.0029
▁स्थितम्	-10.0034
▁भुक्त	-10.0034
▁दिव्यं	-10.0043
▁निषेध	-10.0043
न्यस्य	-10.0046
▁इमा	-10.0047
▁चल	-10.0047
धाव	-10.0047
ान्प्र	-10.0051
▁स्मृताः	-10.0056
▁कृतः	-10.0058
ेच्छ	-10.006
ीयमान	-10.0064
▁नायक	-10.0066
िमा	-10.0066
भिहित	-10.0067
षि	-10.0068
▁युव	-10.0069
▁नास्तीति	-10.0074
भ्यास	-10.0075
ित्यादि	-10.0079
▁सैन्य	-10.0082
▁विस्मय	-10.0085
लङ्कार	-10.0086
सर्प	-10.0089
निषेध	-10.009
देसे	-10.0094
बोधि	-10.0102
▁हृत	-10.0104
वृ	-10.0105
निवृत्ति	-10.011
▁लवण	-10.0113
▁रम	-10.0113
सिंह	-10.0115
गात्र	-10.0116
नया	-10.0117
मेष	-10.0124
ुष	-10.013
▁कार्या	-10.0132
लेप	-10.0142
▁चान्य	-10.0142
▁सिद्धम्	-10.0143
ैर्वा	-10.0143
▁कारणम्	-10.0145
चर्या	-10.0154
▁विभाव	-10.016
पीति	-10.0161
प्रकरण	-10.0162
ोवाच	-10.0167
ुक	-10.0168
ीष	-10.017
▁सिरो	-10.0182
▁कारयेत्	-10.0186
▁पस्यामि	-10.0191
ातिति	-10.0192
▁भगवन्तं	-10.0197
विविक्त	-10.0199
▁सीघ्र	-10.0202
भवेत्	-10.0205
▁जातु	-10.021
दी	-10.0216
▁व्याप्त	-10.0218
▁कंस	-10.0223
▁सत्त्वानां	-10.0225
▁इच्छ	-10.0228
ग्ने	-10.0228
ष्ण	-10.0231
संख्या	-10.0232
हम	-10.0233
लक्ष्य	-10.0235
▁किञ्चित्	-10.0236
हेतुक	-10.0238
▁स्वतन्त्र	-10.024
▁विधिः	-10.0242
ोदित	-10.0245
वर्त्त	-10.0256
▁योग्य	-10.0257
ल्लोक	-10.0258
कारेण	-10.0258
ग्रन्थ	-10.0258
▁भर	-10.0261
▁घोष	-10.0262
गोत्र	-10.0262
विष्ट	-10.0264
▁पित्त	-10.0265
सू	-10.0267
व्यूह	-10.0274
ात्मकं	-10.0275
▁छन्द	-10.0286
ूष	-10.0287
संसार	-10.0291
धान	-10.0294
परिणाम	-10.0294
मब्रवीत्	-10.0298
▁क्षत्र	-10.0298
▁चेद्	-10.0302
निवृत्त	-10.0303
▁तत्सर्वं	-10.0305
▁विद्धि	-10.0306
▁उत्पन्न	-10.0318
▁ड	-10.0319
कालं	-10.0321
▁हृदयं	-10.0325
▁क्रमात्	-10.0329
पतित	-10.0329
▁संस	-10.033
न्यास	-10.0332
च्छ्र	-10.0335
नुप	-10.0335
▁तस्मिन्न	-10.0336
▁स्वस्ति	-10.0337
ुत्पत्ति	-10.0338
पाठ	-10.0341
▁भयं	-10.0346
▁पल	-10.0346
▁लोकस्य	-10.035
सिष्य	-10.0351
नर	-10.0352
▁माम	-10.036
▁वार	-10.0366
दुष्ट	-10.0367
▁तुष्ट	-10.0371
सिव	-10.0372
▁ताः	-10.0377
▁संभवति	-10.0378
कान्	-10.0378
प्लुत	-10.0383
▁एषः	-10.0392
▁हृष्ट	-10.0395
▁विसेषतः	-10.0395
ीन्	-10.0398
▁गरुड	-10.0398
नुभव	-10.0401
मयी	-10.0406
ेतु	-10.0409
▁मूर्ति	-10.0418
हृत	-10.0421
▁सतं	-10.0431
मरण	-10.0434
▁सद्धर्म	-10.0434
णो	-10.0437
विस्व	-10.0441
▁चरन्	-10.0443
▁मदन	-10.0449
▁चतुर्दस	-10.0452
विपाक	-10.0457
तायां	-10.0462
▁पस्यन्ति	-10.0463
यद्	-10.0465
▁पवित्र	-10.0468
र्यथा	-10.047
क्ति	-10.0474
▁प्राग्	-10.0475
▁दृष्टा	-10.0477
▁पृष्ट	-10.0478
▁तान	-10.0481
भयं	-10.0482
▁आस्रय	-10.0483
▁प्रतीयते	-10.0484
▁सङ्क	-10.0485
▁स्थानं	-10.0491
▁कृस	-10.0495
▁स्वार्थ	-10.0499
▁प्रभव	-10.0499
▁संकल्प	-10.051
की	-10.0514
्येव	-10.0514
चिर	-10.0516
विधिः	-10.0517
दास	-10.052
▁भार	-10.0528
▁यया	-10.0531
मात्मानं	-10.054
िको	-10.0547
▁कर्तव्यं	-10.0555
मिष्ट	-10.0555
यिष्यति	-10.0556
▁क्षेम	-10.0556
िल	-10.0569
भास	-10.0573
▁भृत्य	-10.0576
▁सती	-10.0578
▁सीता	-10.0594
्यु	-10.0595
लोभ	-10.0601
▁चूर्ण	-10.0601
नायक	-10.0602
ार्जुन	-10.0603
▁एको	-10.0604
ष्य	-10.0609
ब्द	-10.061
▁पुरुषं	-10.061
▁असौ	-10.0613
तुर्	-10.0617
धः	-10.0621
▁तीव्र	-10.0627
▁जर	-10.063
▁द्विधा	-10.063
मस	-10.0636
गिर	-10.0636
पद्यत	-10.0642
वच्च	-10.0645
कथन	-10.0647
▁प्रतिषेधः	-10.0651
ादाव	-10.0654
▁वेग	-10.0658
▁मुञ्च	-10.066
▁धान्य	-10.066
गतो	-10.0661
▁प्रेम	-10.0662
वादी	-10.0663
▁प्रोक्तं	-10.0666
▁भूतानां	-10.0667
गृह्य	-10.0669
▁सरैः	-10.0674
▁दि	-10.0674
प्रकृत	-10.0679
त्रापि	-10.0679
ान्येव	-10.0681
▁अस्मिन्	-10.0689
द्वेष	-10.0691
▁वाग	-10.0693
हम्	-10.0693
▁युद्धे	-10.0697
▁तयोर्	-10.0701
वेष	-10.0701
▁तत्किं	-10.0702
▁सखि	-10.0702
सोम	-10.0702
▁पुनस्त	-10.0703
▁सम्प्र	-10.0708
▁क्षिप्रं	-10.0709
▁व्याधि	-10.071
▁विभक्त	-10.0711
सङ्क	-10.0716
स्रिय	-10.0718
रासि	-10.0718
ण्य	-10.0719
राज्य	-10.072
▁भग	-10.0725
▁तर्क	-10.0725
▁भवे	-10.0726
भाष्य	-10.0731
▁सिरसा	-10.0739
ापत्ति	-10.0739
▁त्य	-10.0746
ोर्ध्व	-10.0748
▁बन्धन	-10.0753
▁निस्चित	-10.0759
▁रु	-10.0765
विद्ध	-10.0769
▁दृस	-10.0771
गु	-10.0772
पार्स्व	-10.0772
क्षीर	-10.0773
ाकृति	-10.0775
संवर	-10.0777
▁ब्रह्मण	-10.0782
मन्द	-10.0787
विषयत्व	-10.0788
ेयुः	-10.0788
▁वृत्र	-10.0789
कृत्वा	-10.079
ादीन्	-10.0793
द्विष	-10.0793
▁कुर्याद्	-10.0794
▁त्यक्त	-10.0796
ैतद्	-10.0796
निर्णय	-10.0803
▁जीर्ण	-10.0806
स्मात्	-10.0808
▁बोधिसत्त्वानां	-10.0809
▁उपाय	-10.0811
साधक	-10.0812
▁दुर्ग	-10.0815
▁प्राकृत	-10.0815
दृष्टान्त	-10.0817
▁ब्रह्मणो	-10.0818
ध्र	-10.0821
प्रमेय	-10.0827
▁दुर्लभ	-10.0833
भुव	-10.0835
▁वाक्यार्थ	-10.0839
व्यभिचार	-10.0843
ौषध	-10.0843
▁लीला	-10.0849
मात्मनः	-10.085
ेतत्	-10.085
▁विन	-10.0855
▁अविद्या	-10.0856
▁नाभि	-10.0856
विपर्यय	-10.0858
▁सत्ता	-10.0861
व्यपदेस	-10.0863
ेरन्	-10.0869
▁क्वचिद	-10.0873
्युप	-10.0873
ीकरण	-10.0876
▁तेजसा	-10.0884
▁जनक	-10.0885
स्मा	-10.0885
▁दृस्यन्ते	-10.0887
कास	-10.0889
ट्ट	-10.089
▁अन्तर्	-10.0893
▁पस्चाद	-10.0898
मते	-10.09
▁पथि	-10.0901
▁देवस्य	-10.0902
▁युक्ता	-10.0906
▁तदभाव	-10.0907
▁वदन्ति	-10.091
रुद्र	-10.0911
वता	-10.0912
ितव्यं	-10.0913
तेति	-10.0913
संख्य	-10.0913
▁निर्दिष्ट	-10.0918
▁यौवन	-10.092
स्तम	-10.0921
मर्हति	-10.0924
पच	-10.0927
णः	-10.0931
ून्	-10.0934
वाहन	-10.0935
दध	-10.0937
ावेव	-10.0942
▁दूषण	-10.0943
▁प्राज्ञ	-10.0949
▁प्रस	-10.0951
▁इमां	-10.0954
माय	-10.0957
ष्	-10.096
▁कस्यचित्	-10.0962
ागत	-10.0966
रोध	-10.0968
्येन	-10.0968
▁कर्तुं	-10.0978
डि	-10.0978
▁अत्यन्त	-10.0984
▁दिव	-10.0987
स्नेह	-10.0988
▁महाभाग	-10.0988
▁राजपुत्र	-10.0989
निर्मित	-10.099
जे	-10.0991
यन्ती	-10.1001
ान्वि	-10.1001
▁परे	-10.1007
यद	-10.1012
▁सब्दस्य	-10.1013
▁सर्वान्	-10.1014
ैतत्	-10.1019
▁प्रलय	-10.1019
ोपरि	-10.1019
▁सक्यं	-10.1021
र्त	-10.1022
▁द्वितीया	-10.1023
▁सिक्षते	-10.1026
▁गम्भीर	-10.1026
ाध्याय	-10.103
मुद्रा	-10.1031
▁बुद्ध्या	-10.1034
मेतद	-10.1034
▁देव्या	-10.1036
▁पूजय	-10.1037
मङ्ग	-10.1039
स्मै	-10.1045
रस्मि	-10.1046
धो	-10.1049
▁भगवन्न	-10.105
द्भिर्	-10.1051
▁वृद्धि	-10.1052
▁व्यव	-10.1066
▁नख	-10.1071
सकल	-10.1071
ग्राहक	-10.1072
कल्पन	-10.1073
साव	-10.1074
चूर्ण	-10.1075
▁भग्न	-10.1075
▁किंचित्	-10.1077
▁विमोक्ष	-10.1078
▁ब्रह्मणः	-10.1079
ेच्छा	-10.1082
▁तस्मा	-10.1083
▁जानाति	-10.1086
द्वा	-10.1087
▁दह	-10.1095
▁स्तोम	-10.1096
र्हि	-10.1096
तप्त	-10.1099
▁विनि	-10.11
व्यतिरेक	-10.1101
▁इदानीं	-10.1103
यै	-10.1106
▁प्रतिष्ठा	-10.1106
▁कम्प	-10.1107
मधुर	-10.1109
टि	-10.1111
▁भूत्	-10.1112
ीन्द्र	-10.1113
सत्ता	-10.1114
कट	-10.1116
ुत्तम	-10.1117
तुर	-10.1119
्त	-10.1122
ेऽस्मिन्	-10.1125
▁पिब	-10.1127
▁विस्वा	-10.1127
गन्धर्व	-10.1133
▁दृष्टं	-10.1138
▁दर्सित	-10.1139
वने	-10.114
▁मातर	-10.114
▁द्रुम	-10.114
वेदन	-10.114
ादेस	-10.1142
▁मात्रा	-10.1142
▁ब्रह्मणा	-10.1147
स्रम	-10.1148
▁पाल	-10.115
▁जा	-10.1155
▁न्य	-10.1156
▁नाव	-10.1156
वर्त	-10.1163
दे	-10.1164
▁यथोक्त	-10.1169
कर्मणि	-10.1172
▁प्रतीति	-10.1172
▁भवेद	-10.1172
▁पुष्कर	-10.1173
▁कोस	-10.1174
▁पर्याय	-10.1177
▁लोहित	-10.1186
मुपा	-10.1188
ादाय	-10.1189
यन्त्र	-10.1191
▁युक्तम्	-10.1192
ाज्ञा	-10.1193
▁प्रयत्न	-10.1193
▁बह्व	-10.1197
▁पृथिव्या	-10.1198
ज्ञेय	-10.1199
कर्तव्य	-10.1199
▁आस	-10.1203
स्लेष	-10.1204
▁सोभन	-10.1206
▁गिर	-10.1208
कला	-10.1209
ोक्तम्	-10.121
▁एकादस	-10.1212
▁प्रयुक्त	-10.1213
भेदः	-10.1213
भीत	-10.1216
मित्यत	-10.122
ाङ्कुर	-10.1222
▁लभ	-10.1225
मधु	-10.1228
च्छब्द	-10.123
▁गमन	-10.1241
म्बर	-10.1245
▁ज्वर	-10.1246
▁ताल	-10.1252
▁सख्य	-10.1253
▁धाम	-10.1253
संसर्ग	-10.1254
▁प्रमाद	-10.1263
▁पूर	-10.1265
▁पौर	-10.1267
▁बत	-10.1268
▁नान्यत्र	-10.127
▁पाठ	-10.127
ोपपत्ति	-10.1271
सत्व	-10.1272
ेयम्	-10.1272
मूर्ति	-10.1274
लु	-10.1278
भिस्	-10.1279
कुमार	-10.1285
▁स्थाने	-10.1287
▁ज्ञायते	-10.1287
भज	-10.129
▁स्वेद	-10.129
▁गौर	-10.129
ुत्पाद	-10.1291
षा	-10.1294
▁समयेन	-10.1304
▁एवम्	-10.1304
▁सास्वत	-10.1307
र्षभ	-10.1308
▁विभो	-10.1311
▁गुणा	-10.1315
ुपाय	-10.1316
▁दर्सय	-10.1319
▁स्वा	-10.1321
▁पुत्रं	-10.1322
ोऽन	-10.1331
लोके	-10.1338
भूषण	-10.1339
दिव्य	-10.1346
वसा	-10.1354
पय	-10.1354
ाभिमान	-10.1357
ान्यपि	-10.1358
▁विवाद	-10.1361
गिरि	-10.1361
युद्ध	-10.1361
दं	-10.1362
स्यास्य	-10.1363
▁प्रदीप	-10.1365
▁स्वर्ण	-10.1368
नख	-10.1373
▁सुहृद	-10.1375
▁वक्ष्यमाण	-10.1376
▁यदुक्तं	-10.1383
हर्ष	-10.1389
गृहे	-10.1391
▁सम्बन्धः	-10.1393
ाग्रे	-10.1393
निभ	-10.1394
वच	-10.1406
▁उपलभ्यते	-10.1409
▁क्षिति	-10.1409
मङ्गल	-10.1409
▁कृ	-10.1413
कोस	-10.1417
▁नारी	-10.1418
▁प्रज्ञायन्ते	-10.1421
▁विद	-10.1422
▁गताः	-10.1431
हङ्कार	-10.1435
दीप्त	-10.1436
▁मैत्रेय	-10.1439
▁धर	-10.1442
तैव	-10.1442
ेस्वरः	-10.1443
▁अन्व	-10.1447
ूनां	-10.145
भ्रान्त	-10.1453
▁पञ्चदस	-10.1455
पूर्वक	-10.1455
▁रत	-10.1455
मन्तरेण	-10.1464
ान्यथा	-10.1473
▁धर्मस्य	-10.1475
▁प्रोक्त	-10.1476
▁प्रदेस	-10.1479
▁लक्षणं	-10.1481
धे	-10.1482
ले	-10.1482
▁तात्पर्य	-10.1485
▁लु	-10.1485
दर्सनं	-10.149
समुद्र	-10.1491
▁कदाचित्	-10.1506
पी	-10.1508
घ्र	-10.151
म्प्र	-10.1516
▁प्रज्ञ	-10.1518
प्रतिषेधः	-10.152
▁पवन	-10.1521
▁भगवन्त	-10.1527
▁वरः	-10.1529
िणो	-10.1529
▁देसे	-10.153
न्ता	-10.1531
▁सरस्वती	-10.1531
ान्तः	-10.1534
प्रद	-10.1535
ापेक्षया	-10.1538
▁वयम्	-10.1546
▁द्रष्टव्यम्	-10.1546
▁सरीरं	-10.155
▁भूरि	-10.1553
गच्छति	-10.1554
स्चतुर्	-10.1554
यत्य	-10.1555
विषये	-10.1556
स्थाने	-10.1558
वाप	-10.1566
मिमं	-10.1568
वत्स	-10.1569
सरण	-10.1574
▁समुदाय	-10.1575
णु	-10.1578
सदा	-10.1579
जनक	-10.1584
वायु	-10.1591
▁स्पृस	-10.1593
स्तथ	-10.1596
ास्वाद	-10.1597
वाच	-10.16
मेतद्	-10.1601
ीन	-10.1601
▁यदु	-10.1602
▁भीत	-10.1604
ावतार	-10.1605
▁वासना	-10.1606
▁विवाह	-10.1619
ोदाहरण	-10.1625
ाङ्गुल	-10.163
▁तृतीया	-10.1632
र्नाम	-10.1633
हेतुत्व	-10.1636
▁पुट	-10.1637
▁विद्याधर	-10.164
कथ	-10.1642
पन	-10.1643
ानेव	-10.1644
▁योगी	-10.1644
बलेन	-10.165
ाभिमुख	-10.1651
ोरु	-10.1651
पर्ण	-10.1654
पदे	-10.1657
▁महासत्त्वो	-10.166
ान्वित	-10.166
ष्टु	-10.1661
▁वीर्यवान्	-10.1662
ामः	-10.1673
▁तत्स	-10.1675
▁युधि	-10.1679
माप्नोति	-10.168
क्य	-10.1689
ेक्षण	-10.1691
दह	-10.1691
▁मति	-10.1694
न्निव	-10.1703
▁स्थितो	-10.1705
▁इत्यादिना	-10.1705
▁चिरं	-10.1706
िकाः	-10.1708
स्फुट	-10.1708
▁प्रथमा	-10.1712
मुनि	-10.1712
▁वर्ग	-10.1713
▁तत्त	-10.1714
▁रामः	-10.1716
तीत्यर्थः	-10.1716
▁भवन्त	-10.1717
सैल	-10.1718
▁प्रणय	-10.1721
▁कथित	-10.1723
लिप्त	-10.1724
सहित	-10.1725
▁सन्न	-10.1729
ाभ्र	-10.1731
▁भाष्य	-10.1735
सेव	-10.1736
पेक्ष	-10.1736
रूढ	-10.1738
▁नृपः	-10.1741
ुवाच	-10.1742
▁सांख्य	-10.1742
▁सिक्षा	-10.1746
▁विक्रम	-10.1747
रिष्ट	-10.1753
▁ब्रूमः	-10.1759
▁नाति	-10.1761
▁युक्तः	-10.1763
योध	-10.1763
▁तैल	-10.1764
▁विदित	-10.1767
स्तन	-10.1768
न्तर्	-10.1771
ोऽग्नि	-10.1777
▁क्रिय	-10.1779
क्षित	-10.178
ीर्	-10.1781
▁घ्राण	-10.1782
िच्छ	-10.1783
▁सुकृत	-10.1786
▁पदम्	-10.1786
▁मत्वा	-10.179
दधाति	-10.1792
ार्था	-10.1793
▁कपि	-10.1794
▁क्षुद्र	-10.1795
बाह्य	-10.1796
▁क्रुद्ध	-10.1801
▁महात्मना	-10.1806
▁पठ	-10.1807
मेवं	-10.1809
ान्तिक	-10.181
▁यथैव	-10.1811
करः	-10.1811
नैव	-10.1817
▁सोच	-10.1819
ोत्सव	-10.1821
ातीत	-10.1823
पूजा	-10.1827
▁कौन्तेय	-10.1827
▁अर्थः	-10.1827
▁महाबाहो	-10.1829
यात्	-10.1832
ैकदेस	-10.1834
▁प्रण	-10.1841
▁वदन	-10.1846
▁ङ	-10.1855
पे	-10.1857
न्ये	-10.186
▁सर्वम	-10.1861
स्चन्द्र	-10.1862
तन	-10.1875
जातीय	-10.1876
▁स्मित	-10.1878
तथता	-10.1879
सृ	-10.188
▁देवं	-10.1884
येद	-10.189
ीया	-10.1893
▁कुर्या	-10.1897
▁संस्थित	-10.1899
ोऽहम	-10.19
तरा	-10.1902
प्रतिभास	-10.1906
बिम्ब	-10.1909
सन्त	-10.1909
▁कथ्यते	-10.1913
ैस्तथा	-10.1915
प्स	-10.1916
प्राय	-10.1921
▁चक्षुर	-10.1923
मानस	-10.1926
र्थं	-10.1927
वाक्यं	-10.1928
▁वर्ध	-10.193
▁विहरति	-10.1934
वचनम्	-10.1943
▁स्रम	-10.1947
विचित्र	-10.1952
गामिन	-10.1952
ादिभिर्	-10.1953
संग्रह	-10.1954
ानिल	-10.196
▁बोधिसत्त्वा	-10.196
▁दा	-10.1965
स्रु	-10.1966
सय	-10.1966
मया	-10.1969
▁दाह	-10.1972
▁बुद्धा	-10.1972
▁व्यक्ति	-10.1973
▁विभाषा	-10.1973
▁कथितं	-10.1974
स्यति	-10.1975
▁महद्	-10.1976
पुनर	-10.1977
▁पूज्य	-10.1979
ड्	-10.1982
कृष्ट	-10.1983
स्थानं	-10.1983
वत्त्व	-10.1984
▁स्तम्भ	-10.1988
दर्सनम्	-10.1988
▁नराधिप	-10.1989
▁क्षान्ति	-10.1991
▁सिरः	-10.1993
वल	-10.1999
▁सिष्ट	-10.1999
विधौ	-10.1999
विस्तर	-10.1999
▁असि	-10.2
सहाय	-10.2002
▁स्थितं	-10.2005
िकां	-10.2006
▁महायान	-10.2007
ाधिष्ठान	-10.2007
ाच्छ	-10.2008
संयुक्त	-10.201
वस्थित	-10.201
▁सब्दार्थ	-10.201
भक्ति	-10.2016
च्छा	-10.2018
स्मरण	-10.2019
विभक्त	-10.2019
▁ऽय	-10.202
फ	-10.2028
निधि	-10.2029
▁देवः	-10.203
स्तीति	-10.2031
रूपस्य	-10.2037
▁पदे	-10.2038
▁स्रीमान्	-10.204
▁तप्त	-10.205
▁वेदान्त	-10.205
ाभिः	-10.2051
टक	-10.2054
परित्याग	-10.2055
वचः	-10.2059
▁स्रुतिः	-10.2065
कल्पित	-10.2065
सां	-10.2072
▁भाति	-10.2073
कारणं	-10.2074
▁वसन्त	-10.2075
▁तथाहि	-10.2075
▁रामो	-10.2081
▁सूक्त	-10.2082
▁विकल्पयिष्यन्ति	-10.2084
नाम्	-10.2085
▁पितरं	-10.2085
धरा	-10.2089
युक्ता	-10.2094
ुक्तं	-10.21
▁भूम	-10.2101
▁हुत	-10.2102
▁नोपैति	-10.2103
▁छाया	-10.2106
प्रदान	-10.2106
▁मुखं	-10.211
▁समन्त	-10.2114
▁पिसाच	-10.2116
▁प्रायस्चित्त	-10.2116
▁सुद्धि	-10.2117
मास्रित्य	-10.2119
▁चीवर	-10.212
▁पस्चाद्	-10.2121
▁रिपु	-10.2122
सूक्ष्म	-10.2123
मुक्तम्	-10.2123
विनय	-10.2124
ारोप	-10.2125
बन्धु	-10.2126
भिमत	-10.2126
▁भुव	-10.2127
राक्षस	-10.213
▁विहर	-10.2134
▁देवेस	-10.2134
तिसय	-10.2135
▁तयोर	-10.2136
जीवित	-10.2138
तस्त	-10.2138
कम	-10.2147
दद	-10.2152
▁अल	-10.2159
▁धार	-10.2162
स्तम्भ	-10.2164
ारुण	-10.2165
र्या	-10.2165
▁अना	-10.2168
ेष्वेव	-10.2175
दः	-10.2175
▁संकर	-10.2177
मसि	-10.2181
▁गाथा	-10.2183
▁भ्रान्त	-10.2187
▁आसन	-10.2187
प्रत्ययो	-10.2204
ासा	-10.2205
▁क्वचिद्	-10.2206
मुक्त्वा	-10.2206
▁हन्ति	-10.2206
गोप	-10.2206
ोष्ण	-10.2213
ानन्त	-10.2214
ाभ्याम्	-10.2214
▁सुखदुःख	-10.2215
▁धनं	-10.2216
▁तदुप	-10.2219
▁दिव्या	-10.2221
▁विषये	-10.2222
▁नोप	-10.2223
▁कुर्वीत	-10.2225
मेवेति	-10.2226
वभास	-10.2229
▁करुण	-10.223
▁नमोऽस्तु	-10.223
प्रा	-10.2232
▁तद्वि	-10.2233
ताया	-10.2236
ासो	-10.2237
▁निवेस	-10.2239
िणा	-10.2245
स्राव	-10.2245
▁पृथग्	-10.2245
▁दारुण	-10.2247
लम्ब	-10.2247
कर्मणा	-10.2248
▁सम्यग	-10.2252
▁पुरः	-10.2252
▁भगवत	-10.2253
ास्पद	-10.2254
▁प्रमा	-10.2255
▁युक्ति	-10.2256
पत्त्र	-10.2256
▁नरेन्द्र	-10.2258
▁इत्यनेन	-10.226
स्मर	-10.2263
यमान	-10.2267
नुग्रह	-10.2272
ायन	-10.228
▁विहाय	-10.2282
प्रभव	-10.2283
▁भास	-10.2283
याग	-10.2286
मास्थाय	-10.2291
वस्था	-10.2293
क्षिप्त	-10.2295
▁मुक्ता	-10.2297
क्रियते	-10.2303
▁दसम	-10.2303
▁भरतर्षभ	-10.2312
▁द्वन्द्व	-10.2315
▁क्षमा	-10.2317
मुपादाय	-10.232
▁भुक्त्वा	-10.2323
विसेषेण	-10.2324
▁यत्त	-10.2326
द्वादस	-10.233
▁वक्ष्यति	-10.2332
▁विधान	-10.2337
प्रतीति	-10.234
▁सद्यः	-10.2347
त्रयं	-10.2352
▁भिक्षुणी	-10.2359
▁उच्च	-10.2359
गते	-10.2362
▁स्मृता	-10.2362
ानन्तरं	-10.2366
▁योजन	-10.2372
▁नमस्ते	-10.238
िकया	-10.238
तृतीय	-10.2383
भिक्षु	-10.2384
ार्थो	-10.2385
▁महेन्द्र	-10.2385
▁प्रत्येकं	-10.2391
▁बहिर्	-10.2391
पर्याय	-10.2398
ेयम	-10.2399
▁आकार	-10.24
ाध्य	-10.2404
▁बुध	-10.2408
▁स्थविर	-10.2409
▁साखा	-10.241
ाहि	-10.241
▁लता	-10.2412
▁कास	-10.2413
▁वक्ष्यामि	-10.2414
द्द	-10.2414
▁प्रवक्ष्यामि	-10.2417
▁पितर	-10.2419
▁तद्यथापि	-10.2422
▁दुः	-10.2422
ेतद्	-10.2426
▁सासन	-10.2429
▁त्रयोदस	-10.243
निमित्तं	-10.2431
▁विपुल	-10.2434
ारूढ	-10.2434
▁स्वाध्याय	-10.2436
▁सुग्रीव	-10.2436
▁विद्वान्	-10.2437
स्चित्र	-10.2438
हरि	-10.2444
▁दत्तं	-10.2444
ीदृस	-10.2446
▁जघान	-10.2448
ोत्पल	-10.2449
▁तद्वत्	-10.245
ञ्छारद्वतीपुत्र	-10.2454
गव	-10.2459
▁पुनरेव	-10.246
हरण	-10.2463
लय	-10.2465
▁सृङ्गार	-10.2467
ज्ञानस्य	-10.2467
▁कल्पना	-10.2472
▁द्वीप	-10.2473
▁चन	-10.2475
▁ब्राह्मणा	-10.2476
▁सेव	-10.248
▁द्र	-10.2485
वेध	-10.2485
▁जनाः	-10.2486
ादन	-10.2487
सस्त्र	-10.2487
ोपमा	-10.2487
वेस	-10.2488
▁प्रभा	-10.2489
ादिभ्यः	-10.249
▁आत्मानं	-10.249
▁प्रिये	-10.2492
▁गात्र	-10.2496
र्जुन	-10.2507
रय	-10.2508
भु	-10.2508
परत्व	-10.2508
ान्व	-10.2509
▁चक्षुषा	-10.2509
▁व्यापक	-10.251
रुत	-10.2514
▁विधेय	-10.2514
प्राप्य	-10.252
▁प्रासाद	-10.2521
▁भास्कर	-10.2524
▁द्वितीयं	-10.2526
ाख्यात	-10.2529
▁चक्षुष	-10.253
मर्द	-10.2531
भुक्त	-10.2534
वादः	-10.2537
▁स्रोत	-10.2537
मधि	-10.2539
सीत	-10.254
▁अवि	-10.254
निपात	-10.254
▁व्याघ्र	-10.2541
▁सिर	-10.2542
राजा	-10.2544
▁सिक्ष	-10.2545
ैवं	-10.2546
▁सृष्ट	-10.2546
▁धर्मराज	-10.2548
▁यादृस	-10.2549
मिवा	-10.255
वनं	-10.2552
▁किंचिद	-10.2553
▁निर्मित	-10.2554
भाज	-10.2557
्वि	-10.2559
▁कुर्वन्	-10.2567
▁विस्तरः	-10.2569
िभिर्	-10.257
▁सल्य	-10.2571
ेन्	-10.2572
ान्ध	-10.2573
▁ग्राह	-10.2573
ोऽव	-10.2574
▁सून्या	-10.2575
रू	-10.2576
स्छ	-10.2577
▁परः	-10.2581
▁साक्षि	-10.2583
ोपाधि	-10.2586
जनित	-10.2591
तुल	-10.2595
▁ज्ञेया	-10.2596
▁योजयति	-10.2597
म्य	-10.2599
यन्त्य	-10.2599
दर्स	-10.2599
▁नाहं	-10.2604
▁तदनु	-10.2605
ात्सर्व	-10.2607
प्रभृति	-10.2607
हन्य	-10.2612
▁प्रव्रजित	-10.2614
ग्रे	-10.2616
न्नं	-10.2618
ाष्ट	-10.2621
▁जुहोति	-10.2623
र्षि	-10.2625
लौकिक	-10.2628
▁अस्या	-10.2628
▁विदित्वा	-10.263
▁एतदेव	-10.263
▁दीन	-10.2636
▁स्मरण	-10.2641
णां	-10.2641
▁यूयं	-10.2642
▁मिस्र	-10.2643
वादि	-10.2645
मेति	-10.2645
▁संप्राप्त	-10.2648
ीषु	-10.2649
स्वप्न	-10.265
दय	-10.2651
खिल	-10.2655
▁नीत	-10.2656
ाहुः	-10.2657
▁स्पष्टम्	-10.2659
पल्लव	-10.266
ङ्गुल	-10.266
▁संसर्ग	-10.2665
पीडित	-10.2666
▁द्विष	-10.2666
ृत	-10.2668
▁मनु	-10.2671
▁स्तुत	-10.2688
विक्रम	-10.2688
▁संवृत	-10.2688
▁लोका	-10.2689
च्छन्द	-10.2691
युः	-10.2692
▁विघ्न	-10.2699
▁अर्जुन	-10.2702
▁परार्थ	-10.2702
▁स्नात	-10.2703
▁सद्	-10.2704
ज्जन	-10.2706
▁तथाविध	-10.2711
▁मृद	-10.2712
▁पस्चिम	-10.2712
▁दर्स	-10.2713
▁विग्रह	-10.2714
ोत्थ	-10.2715
▁चक्षुर्	-10.2717
▁विमुक्त	-10.2718
▁मेरु	-10.2718
▁दिग्	-10.2721
▁व्याचष्टे	-10.2722
▁धर्मात्मा	-10.2722
▁चाप	-10.2722
▁भवत	-10.2723
▁षष्ठी	-10.2723
▁महामते	-10.2724
भावन	-10.2724
सूल	-10.2725
क्षम	-10.2728
पत	-10.2729
तप	-10.273
म्वा	-10.2732
चन्दन	-10.2733
स्मिं	-10.2734
ब्रवीद्	-10.2737
▁तैर्	-10.2738
▁कुण्डल	-10.274
ृच	-10.2741
व्याधि	-10.2743
▁मुद्रा	-10.2744
▁प्रियं	-10.2744
क्षि	-10.2748
वसु	-10.2748
केतु	-10.2752
प्रतिष्ठित	-10.276
ग्रीव	-10.2764
राष्ट्र	-10.2767
▁निर्मल	-10.277
▁वृथा	-10.2771
स्यां	-10.2775
तावच्छेदक	-10.2775
कथं	-10.2776
दिवस	-10.2776
गौरव	-10.2776
लो	-10.278
▁पक्व	-10.2784
िकी	-10.2784
▁युवा	-10.2786
▁चतुर्विध	-10.2789
मीस्वर	-10.279
▁भङ्ग	-10.279
▁चण्ड	-10.2791
▁लोकेषु	-10.2792
ाम्यहम्	-10.2795
▁धर्माः	-10.2796
साधु	-10.2797
िन्या	-10.2801
न्यस्त	-10.2803
▁प्रजापति	-10.2805
मू	-10.281
मनन्त	-10.2811
▁कीदृस	-10.2813
ाल्प	-10.2814
▁स्रुतं	-10.2814
र्पित	-10.2817
ायते	-10.2824
▁निर्गुण	-10.2825
▁विंसति	-10.2828
▁षष्टि	-10.2829
यक्ष	-10.2833
▁त्वद्	-10.2834
▁ईदृस	-10.2837
▁छिन्न	-10.2843
▁सुधा	-10.2844
वधारण	-10.2846
▁अंस	-10.2848
▁समाहित	-10.285
स्त्वा	-10.2853
निष्ट	-10.2853
भेदात्	-10.2854
मग्नि	-10.2854
▁गौरव	-10.2855
▁सिद्धे	-10.2855
य्य	-10.2856
योस्च	-10.2858
प्रज्ञ	-10.2859
तीर	-10.286
कम्प	-10.2862
परः	-10.2862
कानि	-10.2862
न्यायेन	-10.2864
▁प्रत्येकबुद्ध	-10.2864
▁सङ्कर	-10.2866
▁यस्या	-10.2868
▁संविद	-10.2868
ैरुप	-10.2869
▁सू	-10.2869
योगात्	-10.2871
▁सहस्रसः	-10.2871
यन्न	-10.2873
रङ्ग	-10.2874
▁गच्छन्ति	-10.2875
▁नामरूप	-10.2876
ास्ता	-10.2879
रण्य	-10.288
▁अनुमान	-10.2885
हु	-10.2888
▁साधय	-10.2892
ाभिप्राय	-10.2903
▁वृषभ	-10.2918
▁गौण	-10.2918
▁सीघ्रं	-10.2923
कारणम्	-10.2923
▁यजेत	-10.2924
ोऽभूत्	-10.2926
सतं	-10.2927
प्रदेस	-10.2933
परिवर्त	-10.2935
▁सुष्क	-10.2937
वीत	-10.2937
मानस्य	-10.2941
मुक्ता	-10.2941
▁हृदये	-10.2942
प्रयत्न	-10.2942
▁प्रमेय	-10.2943
▁दु	-10.2943
पितृ	-10.2944
▁लभ्यते	-10.2945
वतार	-10.2946
▁रोष	-10.295
कारि	-10.2952
▁बहुधा	-10.2953
कारस्य	-10.2953
कारी	-10.2958
▁कर्तृत्व	-10.2966
▁विसेषेण	-10.2966
न्तम	-10.297
ामास	-10.2973
ादित्यर्थः	-10.2976
▁पुत्रा	-10.2977
मिच्छ	-10.2979
ुत्पन्न	-10.2982
ेदिति	-10.2991
▁खल	-10.2991
प्रतिपत्ति	-10.2995
ेऽथ	-10.2995
▁महान	-10.2998
कानां	-10.3004
व्	-10.3004
तर्हि	-10.3005
ान्तरेण	-10.3007
▁ब्राह्म	-10.3008
ाञ्जन	-10.3012
क्व	-10.3013
प्रतिम	-10.3014
िन्य	-10.3014
ादिभिर	-10.3016
च्छिन्न	-10.3019
मृत्यु	-10.3021
ात्मिका	-10.3022
साहस्र	-10.3024
▁सब्देन	-10.3024
ेष्य	-10.3025
▁तमो	-10.3042
▁विरह	-10.3046
▁रामस्य	-10.3047
स्तां	-10.3053
ातुर	-10.3057
▁याच	-10.3059
▁प्रतीत	-10.306
▁प्रज्ञायते	-10.306
र्ग	-10.3063
▁वैराग्य	-10.3064
▁प्रतिष्ठित	-10.3069
▁सम्भवति	-10.3069
▁प्रहाण	-10.3074
▁क्षिप्त	-10.3079
▁जनपद	-10.3084
▁ताप	-10.309
▁कौरव	-10.3095
ष्टि	-10.3096
कर्तृत्व	-10.3103
न्यतम	-10.3103
▁मधुसूदनः	-10.3105
▁साल	-10.3105
▁प्राप्तं	-10.3108
▁सहाय	-10.3109
ोक्ति	-10.3109
▁पुरु	-10.3121
▁पूजित	-10.3122
द्वारेण	-10.3126
रौ	-10.3126
याज	-10.3128
▁स्त्रिया	-10.3128
▁पप्रच्छ	-10.3131
▁विपक्ष	-10.3134
▁प्रविस	-10.3134
▁व्रजेत्	-10.3135
▁एतच्च	-10.3135
संवृत	-10.3136
मध्यम	-10.3136
▁पुरुषार्थ	-10.3137
मयः	-10.3144
▁सब्दो	-10.3145
▁त्रिविध	-10.3146
नृत	-10.315
न्द्र	-10.3152
दिष्ट	-10.3152
मात्रे	-10.3153
ोऽब्रवीत्	-10.3157
ख्य	-10.3159
यज	-10.3159
ामर	-10.316
स्वर्ग	-10.3161
मर्थं	-10.3162
हानि	-10.3169
कुण्डल	-10.3175
▁इष	-10.3177
न्योन्य	-10.3182
▁निष्ठा	-10.3183
तोय	-10.3185
स्पन्द	-10.3186
धृत	-10.3186
▁लय	-10.3188
▁तत्तत्	-10.3192
▁साहस	-10.3196
नुत्पाद	-10.3198
▁वैस्वानर	-10.3199
भीम	-10.3204
▁सुरा	-10.3204
बला	-10.321
▁दैवत	-10.3212
बुध	-10.3212
▁तथेति	-10.3212
रेक	-10.3215
▁तद्रूप	-10.3216
▁अध	-10.3218
▁मूत्र	-10.3222
ोषित	-10.3222
▁पक्षे	-10.3222
ग्रहणे	-10.3225
जर	-10.3229
ान्तक	-10.3231
▁स्येन	-10.3232
वस्यं	-10.3234
▁निषण्ण	-10.3234
▁गोचर	-10.3236
बहुल	-10.3236
▁रामं	-10.3237
▁सरण	-10.3241
दग्ध	-10.3243
▁नृत्य	-10.3244
▁पाञ्चाल	-10.3248
▁चक्षुः	-10.3249
▁संस्कारा	-10.3251
▁राज्ञ	-10.3258
▁राजन्न	-10.3259
प्रपञ्च	-10.326
ोच्च	-10.3266
दाम	-10.3266
कार्यं	-10.3267
समाहित	-10.3274
स्माद्	-10.3274
द्ग	-10.3277
▁उत्पत्ति	-10.3278
▁स्मृत्युपस्थान	-10.3279
▁गृहं	-10.3279
कर्तु	-10.3285
ानुग्रह	-10.3285
प्रतिपादन	-10.3285
▁एन	-10.3287
▁पाताल	-10.3287
▁नीच	-10.3288
▁प्रतिभास	-10.329
▁अन्या	-10.3299
बलं	-10.3299
ानेन	-10.3301
▁रथं	-10.3301
▁इत्यादौ	-10.3304
▁तनय	-10.3306
लव	-10.3308
▁वासव	-10.331
ार्थस्य	-10.3311
ाधर	-10.3313
मत्त	-10.3317
ह्न	-10.3319
▁कपिल	-10.3328
दर्सित	-10.3331
▁स्थल	-10.3332
ताल	-10.3334
▁ऊचुः	-10.3338
न्नि	-10.3339
▁कपाल	-10.334
▁वचनात्	-10.334
▁समुप	-10.3341
भिप्रेत	-10.3341
तिरिक्त	-10.3342
▁कस्यचिद्विगमेन	-10.3343
नामा	-10.3343
ाक्षी	-10.3344
यत्न	-10.3346
लभ्य	-10.3347
▁ब्रह्मन्	-10.3348
▁पाण्डु	-10.3352
▁तेज	-10.3355
▁कुर्याद	-10.3361
द्भिर	-10.3365
ार्थाय	-10.3369
▁सर्वपाप	-10.3371
चा	-10.3371
▁विद्यमान	-10.3373
▁गृह्य	-10.3373
▁त्वद	-10.3374
▁पृथग	-10.3377
विषया	-10.3381
ान्नि	-10.3382
▁वृत	-10.3382
वगम्यते	-10.3384
▁वय	-10.3385
▁धर्माणां	-10.3386
▁कुत्र	-10.3388
▁विस्वे	-10.3393
▁मरु	-10.3393
दित्य	-10.3397
▁एवमुक्त्वा	-10.3397
▁यादव	-10.3398
▁प्रतिपक्ष	-10.3405
यिष्यामि	-10.3405
पेत	-10.3406
ोग्र	-10.3406
ियं	-10.3407
▁जाल	-10.3408
ऽइत्य	-10.341
▁परिमाण	-10.341
▁वनं	-10.3414
काण्ड	-10.3414
▁बान्धव	-10.3416
यथ	-10.3417
▁ज्ञानस्य	-10.3418
क्क	-10.3419
▁भैरव	-10.3419
▁द्विजाः	-10.342
▁परिग्रह	-10.3424
▁यस्त्व	-10.3427
िणि	-10.3429
▁दिसो	-10.343
▁सङ्कल्प	-10.3434
▁सर्वतो	-10.3435
▁गुप्त	-10.3437
▁वक्तुं	-10.3439
मूढ	-10.344
▁कं	-10.3444
जायत	-10.3445
ोपपन्न	-10.3445
▁बहवो	-10.3449
▁किमर्थं	-10.3449
प्रहाण	-10.345
▁पुरो	-10.345
▁त्रिषु	-10.3451
▁लक्षणा	-10.3451
▁सुभे	-10.3452
▁सयन	-10.3452
▁द्वितीये	-10.3457
ेऽहं	-10.3474
िनं	-10.3478
मयो	-10.3478
▁नैष	-10.3478
▁दिसः	-10.3479
वाक्	-10.3482
▁प्राप्ता	-10.3482
स्तत्त्व	-10.3483
ावली	-10.3485
▁एताव	-10.3486
वत्य	-10.3487
मतः	-10.3492
▁देवदेव	-10.3492
▁अन्तः	-10.3493
ष्क	-10.3494
धौ	-10.3495
▁भ्रान्ति	-10.3496
▁पौरुष	-10.3497
▁स्थिताः	-10.3504
▁मनस	-10.3507
दीन	-10.3509
▁सुतः	-10.351
▁पित्रा	-10.3511
निरुद्ध	-10.3512
धीः	-10.3514
ोक्ता	-10.3515
मापन्न	-10.3515
तम्	-10.3519
▁करिष्यति	-10.3522
▁रुधिर	-10.3522
ष्टौ	-10.3524
▁चैतन्य	-10.3526
▁कर्तव्यम्	-10.3526
ततः	-10.353
▁कामं	-10.353
▁हस्ति	-10.3531
ातप	-10.3533
कीर्ति	-10.3535
▁इद	-10.3536
ितानि	-10.3538
▁अवयव	-10.3541
ाह्वय	-10.3543
▁स्तुति	-10.3546
स्थो	-10.3546
तले	-10.3548
▁विज्ञाय	-10.3548
विलास	-10.3549
▁विज्ञात	-10.3551
वधू	-10.3553
लोह	-10.3554
▁अध्य	-10.3554
▁बाला	-10.356
▁परेण	-10.3563
क्लिष्ट	-10.3565
युज्यते	-10.3566
▁न्यास	-10.3568
▁रहित	-10.3569
योरपि	-10.357
▁स्रेय	-10.3571
मुखे	-10.3575
स्वन	-10.3582
▁तस्मान्	-10.3584
तेजस	-10.3586
▁यु	-10.3588
मण	-10.3589
चाल	-10.3593
▁स्वाभाविक	-10.3598
▁वेध	-10.3602
माने	-10.3602
सुचि	-10.3603
▁महद	-10.3603
ासीद्	-10.3607
स्माद	-10.3607
▁निरस्त	-10.3608
▁नास्त्य	-10.3612
▁संविद्यते	-10.3613
▁अभ्यास	-10.362
ृषि	-10.362
परिवार	-10.3622
▁ब्राह्मणो	-10.3623
मही	-10.3623
▁निवृत्ति	-10.3626
▁बाष्प	-10.3628
सिख	-10.3629
रज	-10.3629
▁कट	-10.363
▁स्थिते	-10.3632
समवाय	-10.3635
ानुगत	-10.3635
गतः	-10.3639
▁पुनस्च	-10.3642
▁कृप	-10.3646
ाद्रि	-10.3647
वत्या	-10.3649
▁धर्मे	-10.3651
▁इदम्	-10.3651
▁प्रसव	-10.3651
▁सन्देह	-10.3653
ीयः	-10.3655
र्थः	-10.3656
ोऽति	-10.3658
▁एवा	-10.3663
▁ससि	-10.3665
▁कूप	-10.3672
नदी	-10.3672
▁लेख	-10.3673
▁आदेस	-10.3674
▁पितुः	-10.3676
लग्न	-10.3676
वासना	-10.3677
वसात्	-10.3685
धिष्ठान	-10.3688
व्याप्त	-10.3689
गृह्ण	-10.3689
मार्य	-10.3692
▁थ	-10.3696
न्त्या	-10.3698
कपाल	-10.3702
▁स्थावर	-10.3707
▁माय	-10.3708
भिधीयते	-10.3708
्ना	-10.3712
▁हव्य	-10.3712
▁माम्	-10.3713
यत्र	-10.3715
▁नाप्य	-10.3718
▁सर्वतथागत	-10.3718
द्धि	-10.3722
्यस्य	-10.3723
▁साक	-10.3723
वन्तः	-10.3724
▁निवर्त	-10.3728
्याम	-10.3731
▁एषां	-10.3732
▁स्वप्ने	-10.3732
परामर्स	-10.3732
सादृस्य	-10.3733
ेभ्यस्च	-10.3735
ज्ज्ञान	-10.3736
▁प्रभूत	-10.3737
िकम्	-10.3743
▁अत्राह	-10.3752
▁पपात	-10.3752
ायत	-10.3754
न्यो	-10.3755
▁कृत्व	-10.3756
▁सङ्का	-10.3757
▁अन्ध	-10.3758
हे	-10.3758
स्तात	-10.3761
▁तत्पर	-10.3761
▁रस्मि	-10.3762
ानुबन्ध	-10.3766
वारि	-10.3768
▁सर्वज्ञता	-10.3769
▁भोः	-10.377
▁सस	-10.377
ची	-10.3773
्यैव	-10.3779
▁सात्यकि	-10.3779
पदेन	-10.3781
▁दुष्कृत	-10.3782
▁व्यवस्थित	-10.3785
▁सहस्राणि	-10.3785
ीम्	-10.3788
र्भव	-10.3789
▁अहम	-10.3795
▁कृष्णं	-10.38
ाभावः	-10.3803
▁संयुगे	-10.3806
▁लोप	-10.3809
चूड	-10.3812
मिद	-10.3812
▁गुणाः	-10.3812
ास्म	-10.3813
▁मुनिः	-10.3815
▁चौर	-10.3815
▁वक्तु	-10.3816
लेख	-10.3823
लोल	-10.3823
प्रीति	-10.3829
▁पुमान्	-10.3831
▁गण्ड	-10.3831
▁जगाद	-10.3832
▁दर्सनं	-10.3833
▁रात्र	-10.384
▁खग	-10.3842
ादिवत्	-10.3845
▁दक्षिणे	-10.3847
▁करुणा	-10.3847
▁पुनरपि	-10.385
▁परतः	-10.3852
विषयं	-10.3853
▁तत्त्वं	-10.3854
विपरीत	-10.3856
क्षा	-10.3861
▁स्रमण	-10.3865
▁सुस्रूष	-10.3866
र्द्ध	-10.3867
▁पण	-10.3869
▁वरद	-10.3869
▁जग्राह	-10.3871
▁इवा	-10.3872
▁माला	-10.3878
▁भृगु	-10.3879
ज्ञाने	-10.388
तदा	-10.388
स्मान्	-10.3881
▁प्रयच्छ	-10.3882
▁सोणित	-10.3882
▁कर्तव्यः	-10.3884
ाढ्य	-10.3891
▁वक्र	-10.3895
राजस्य	-10.3896
रम	-10.3896
▁ब्रह्मलोक	-10.3899
त्वेना	-10.39
▁मतिः	-10.3901
करुण	-10.3906
▁इत	-10.3907
▁तदन्य	-10.3907
▁पूत	-10.391
ाम्यहं	-10.3913
▁पृच्छति	-10.3913
▁निसि	-10.3914
▁स्यान्	-10.3916
▁द्यु	-10.3916
▁गम	-10.3923
▁तेऽपि	-10.3923
▁समग्र	-10.3924
ूत	-10.3928
वतो	-10.3928
▁त्रिधा	-10.3929
ागार	-10.393
▁लक्ष्यते	-10.3931
ाभिर	-10.3933
▁एकस्य	-10.3933
माल्य	-10.3935
▁तथागतस्य	-10.3936
ैति	-10.3937
ुपदेस	-10.3939
▁यन्त्र	-10.394
▁सनैः	-10.3941
▁गृह्णाति	-10.3944
्यात्	-10.3947
धिष्ठित	-10.3949
्स	-10.395
कर्ता	-10.3955
सलिल	-10.3957
▁ऋण	-10.3958
▁आगत	-10.3962
▁उक्तम्	-10.397
ाक्रान्त	-10.3972
▁विध्य	-10.3973
भक्ष	-10.3977
▁उग्र	-10.3978
▁विधाय	-10.398
वृष्टि	-10.3981
ाकारं	-10.3981
स्तस्या	-10.3981
धारा	-10.3985
▁प्रोवाच	-10.3986
सक्य	-10.3988
धातौ	-10.3991
▁त्र्य	-10.3991
▁ताभ्यां	-10.3995
▁प्रतिपद्यते	-10.3996
भूमिक	-10.3999
व्यक्ति	-10.4
▁मुग्ध	-10.4
▁सन्त	-10.4001
▁लक्षणम्	-10.4005
▁अतोऽ	-10.4006
▁इत्	-10.4006
्त्	-10.4008
न्नाम	-10.4009
▁धन्य	-10.401
प्रतीत	-10.4011
▁प्राधान्य	-10.4012
गल	-10.4013
ासनं	-10.4013
लोम	-10.4015
मेध	-10.4017
▁घोरं	-10.4018
भ्युपगम	-10.4019
▁नवम	-10.4022
▁भगवां	-10.4023
हत्य	-10.4023
▁जायन्ते	-10.4038
सासन	-10.4041
▁सात्त्विक	-10.4044
▁पीठ	-10.4047
▁नराः	-10.4048
▁प्रतीत्य	-10.4049
्यौ	-10.4052
▁दिक्	-10.4055
▁तस्यापि	-10.406
ब्ध	-10.406
▁जातः	-10.4061
▁यथोक्तं	-10.4061
▁लोकं	-10.4061
▁हित्वा	-10.4063
त्यपि	-10.4064
▁भक्षय	-10.4065
▁तस्मात्त	-10.4066
विमुक्त	-10.4066
वर्णन	-10.4066
▁धर्मज्ञ	-10.4071
कृष्य	-10.4084
तैल	-10.409
ात्पूर्व	-10.4091
▁प्रयत	-10.4091
▁सिसु	-10.4093
वह्नि	-10.4094
▁भगव	-10.4096
पुत्रो	-10.4106
▁प्रमाणान्तर	-10.4111
▁भुङ्क्ते	-10.4111
राट्	-10.4114
▁प्रार्थय	-10.4117
▁व्यञ्जन	-10.412
▁दरिद्र	-10.4123
यन	-10.4126
वृत्तिः	-10.4126
▁गद	-10.4128
ासी	-10.4128
▁चार	-10.4128
न्वित	-10.4129
▁विलास	-10.4132
▁रोम	-10.4133
▁विकृत	-10.4134
याति	-10.4135
▁भद्रं	-10.4138
ीक	-10.414
ादेक	-10.414
संस्थित	-10.4151
▁भेदः	-10.4153
व्याप्य	-10.4153
्यति	-10.4153
▁क्लिष्ट	-10.4154
ासने	-10.4158
▁परिसुद्ध	-10.4159
▁कुण्ड	-10.416
▁जीवस्य	-10.4162
▁बिम्ब	-10.4163
ाभा	-10.4165
▁विस्वामित्र	-10.4165
▁जह	-10.4166
पत्नी	-10.4166
स्तर	-10.4171
▁भार्गव	-10.4171
धाय	-10.4174
▁कर्ष	-10.418
ाद्भुत	-10.418
कुरु	-10.4181
करी	-10.4183
▁ताम्	-10.4185
ीये	-10.4186
▁दिने	-10.4186
सत्तम	-10.419
न्नेव	-10.4191
▁वीत	-10.4193
दृक्	-10.4193
▁ध्याय	-10.4195
मनुप्राप्त	-10.4199
ास्चर्य	-10.4199
्यर्थं	-10.42
बिन्दु	-10.42
▁परित्यज्य	-10.4202
▁द्वाभ्यां	-10.4204
▁त्रयो	-10.4205
द्वारा	-10.4208
नन्दन	-10.421
▁तत्तद्	-10.4217
धीर	-10.4218
प्सु	-10.422
▁ठ	-10.4221
कमल	-10.4221
▁गवां	-10.4224
लंकृत	-10.4226
▁पुत्रः	-10.4226
्तव्य	-10.4226
▁चान्ये	-10.4226
बान्धव	-10.4227
्नु	-10.423
▁सुभूतिराह	-10.423
ामपि	-10.423
विघ्न	-10.4231
रूपो	-10.4235
क्रम्य	-10.4237
▁आव	-10.4237
ावह	-10.4239
ानुग	-10.4241
ाधान	-10.4243
▁प्रव	-10.4243
▁कस्यप	-10.4244
वतः	-10.4244
▁नेति	-10.4246
धीन	-10.4247
▁प्रवर	-10.4249
▁प्रतिपादित	-10.425
▁प्रतिपत्ति	-10.4251
जो	-10.4251
मुत्पद्यते	-10.4252
▁होवाच	-10.4254
संख्येय	-10.4258
▁द्व्य	-10.4263
▁प्रहृष्ट	-10.4266
▁प्रजापतिः	-10.4267
▁तपस	-10.4269
▁मूर्त	-10.427
▁वचो	-10.4274
ोपचार	-10.4274
▁स्वल्प	-10.4277
▁पे	-10.4278
परो	-10.428
ादिरूप	-10.4281
जिन	-10.4284
▁वेत्ति	-10.4284
निस्चित	-10.429
▁येऽ	-10.4291
▁स्त्रियः	-10.4291
▁वैर	-10.4296
▁वैदिक	-10.4299
▁बृहत्	-10.4301
▁व्याप्य	-10.4301
युक्तम्	-10.4307
▁परिपूर्ण	-10.4307
▁आसा	-10.431
्भवति	-10.4313
भृ	-10.4318
▁द्रष्टुं	-10.4318
विसेषः	-10.4318
ेन्न	-10.4319
▁जज्ञे	-10.4319
▁कर्तव्या	-10.4321
ष्टादस	-10.4322
▁भक्ष	-10.4325
▁पस्यत	-10.4325
तिष्ठत	-10.4326
घृत	-10.4327
▁द्वितीयः	-10.433
▁किमपि	-10.433
▁निपात	-10.4331
दूषण	-10.4335
ाचर	-10.4338
ार्थेन	-10.4341
भिरेव	-10.4341
▁स्यान्न	-10.4342
ात्यन्त	-10.4345
▁अतीत	-10.4348
▁जनय	-10.4352
कारो	-10.4352
तात्पर्य	-10.4356
सव	-10.4356
▁पयो	-10.4358
▁ब्राह्मणस्य	-10.4364
▁कति	-10.4365
प्रतिसंयुक्त	-10.437
▁लब्ध्वा	-10.4374
वद्य	-10.4374
तर्क	-10.4375
▁भूषण	-10.4377
▁इत्युक्तम्	-10.4379
ानीक	-10.4382
▁दुष्कर	-10.4384
▁यसो	-10.4384
▁प्राप्ति	-10.4385
ग्नौ	-10.4386
▁ललित	-10.4386
▁स्वलक्षण	-10.4387
▁तन्मे	-10.4388
न्स	-10.439
ृण	-10.439
▁एवमुक्त	-10.4394
▁दृष्टः	-10.4397
▁वयम	-10.4398
▁जीवति	-10.4398
▁सुषुप्त	-10.44
▁युत	-10.44
नृप	-10.4404
ाकाङ्क्ष	-10.4405
▁नैक	-10.4406
▁स्त्रीणां	-10.4406
ुदक	-10.4406
कण्टक	-10.4411
क्षिप्य	-10.4412
ीन्द्रिय	-10.4415
▁कतमा	-10.4415
▁प्रज	-10.4415
व्यसन	-10.4416
त्सर्व	-10.4419
▁वाजिन	-10.4419
▁परमात्म	-10.442
निरूपण	-10.4422
▁सत्त्वं	-10.4426
▁पृथिव्यां	-10.4426
▁द्विजः	-10.4426
पुंगव	-10.4426
ानन्तर	-10.4427
▁विस्तर	-10.4428
▁स्रिय	-10.4428
वाचक	-10.443
▁क्षिप	-10.4432
ीह	-10.4432
साल	-10.4436
ाख्यान	-10.4436
▁धृति	-10.4437
▁मार्कण्डेय	-10.4437
मिन्द्रिय	-10.4444
▁गृहपति	-10.4445
▁सहित	-10.445
▁धार्तराष्ट्र	-10.4454
▁निखिल	-10.4454
▁बुद्धक्षेत्र	-10.4457
चिद्	-10.4462
▁भर्ता	-10.4463
ोद्यत	-10.4464
मुद्र	-10.4465
ान्तर्	-10.4467
▁जनः	-10.4468
ध्वंस	-10.4469
▁भविता	-10.4471
▁ज्ञानेन	-10.4471
▁प्रत्यक्षं	-10.4472
▁सूक्तेन	-10.4472
मेवा	-10.4476
▁महिष	-10.4476
▁अन्त्य	-10.4483
▁समीप	-10.4487
विकल	-10.4488
पत्ति	-10.4488
म्ल	-10.449
▁कृष्णा	-10.4491
▁धूप	-10.4493
▁दिक्षु	-10.4494
स्नान	-10.4501
स्रय	-10.4502
परोक्ष	-10.4503
वित्त	-10.4503
▁सुखम्	-10.4503
▁धारा	-10.4504
मम	-10.4504
▁परस्परम्	-10.4512
▁वैष्णव	-10.4512
ैकत्व	-10.4514
रुच	-10.452
मुखं	-10.4521
सख	-10.4523
▁केचिद्	-10.4525
▁अर्च	-10.4525
▁नित्यम	-10.4526
▁अय	-10.4529
▁सकास	-10.453
ब्रवीत्	-10.4532
वर्ज	-10.4533
▁प्रकृते	-10.4536
ूक	-10.4537
▁एवमुक्ते	-10.4538
टा	-10.4539
च्छाया	-10.4546
▁दर्प	-10.4546
▁प्रजानाति	-10.4547
▁खाद	-10.4549
▁काम्य	-10.4549
▁यथाविधि	-10.4549
▁त्रै	-10.4549
प्रस्न	-10.455
▁सुध	-10.4551
ङि	-10.4555
▁संज्ञ	-10.4556
स्थे	-10.4556
ूर्ध्व	-10.4557
दैव	-10.4557
स्वास	-10.4558
▁सर्वाकारज्ञता	-10.4564
▁भोज	-10.4569
▁मन्यन्ते	-10.4572
▁स्त्रिय	-10.4575
पुनर्	-10.4575
▁पुरुषोत्तम	-10.4577
▁दया	-10.4578
▁प्रथ	-10.4578
न्तौ	-10.4581
योरेक	-10.4581
पुरं	-10.4584
तट	-10.4585
▁विवेस	-10.4588
ानुत्पाद	-10.4588
ेदम	-10.4589
दाय	-10.4591
मित्येव	-10.4594
▁निर्णय	-10.4595
▁सम्यक्संबोधौ	-10.4597
माणा	-10.46
ग्रहणेन	-10.4603
तामुपादाय	-10.4604
पूजित	-10.4604
ोपासन	-10.4609
▁नित्यत्व	-10.4609
ासीन	-10.4615
निर्दिष्ट	-10.4616
▁वीक्ष्य	-10.4618
▁बिन्दु	-10.4619
हृत्य	-10.4622
ानुज	-10.4623
त्क	-10.4623
▁कुसलमूल	-10.4625
▁मतम्	-10.4627
▁भाषित	-10.4628
समं	-10.4628
ैरिति	-10.4629
नौ	-10.463
मावाहयामि	-10.4638
▁चर्म	-10.4639
ेनेव	-10.4644
दैत्य	-10.4645
वेदना	-10.4646
रूपिण	-10.4646
ोपेत	-10.4646
भो	-10.4646
स्थि	-10.4648
ङ्कार	-10.465
दृढ	-10.4651
ुपरि	-10.4652
ञ्छ	-10.4652
▁स्वामिन	-10.4656
्यन्तर	-10.4657
▁प्रसस्त	-10.4657
▁सर्गः	-10.4659
स्थल	-10.4661
▁घात	-10.4666
धरः	-10.4667
रित्यर्थः	-10.4667
मित्युच्यते	-10.4667
ात्मान	-10.4669
▁एतानि	-10.4671
▁ईस	-10.4672
न्मे	-10.4673
▁मेऽ	-10.4673
करणं	-10.4673
सुक्ल	-10.4674
स्तप	-10.4675
हन	-10.4675
▁उपादान	-10.4675
▁परमा	-10.4676
▁व्यर्थ	-10.4678
तव्यमुपलम्भयोगेन	-10.4678
▁छन्दसि	-10.4682
ानामिति	-10.4682
प्रतिपक्ष	-10.4683
▁सवन	-10.4687
मुखी	-10.4689
क्रामति	-10.4691
ाञ्जलि	-10.4691
▁कुर्व	-10.4693
▁तन्व	-10.4698
दधि	-10.4699
▁पर्ण	-10.4701
तिथि	-10.4701
वलय	-10.4702
▁हरे	-10.4705
▁सत्वा	-10.4708
▁स्तोत्र	-10.4709
▁चरेत्	-10.4709
सुता	-10.471
▁प्रतिपन्न	-10.4711
▁प्रणव	-10.4714
वन्तो	-10.4715
िरिति	-10.4717
सेवित	-10.4717
स्पृस	-10.4719
▁तेना	-10.4722
▁तल	-10.4725
ध्वर	-10.4726
ोत्कर्ष	-10.4726
▁गुह्य	-10.473
स्चिर	-10.4731
ारब्ध	-10.4731
▁परां	-10.4731
▁स्वभावः	-10.4732
भस्म	-10.4744
▁ब्रह्मोवाच	-10.4747
वरं	-10.475
▁कुले	-10.4751
▁धेनु	-10.4753
▁पृ	-10.4754
वेल	-10.4756
नर्थ	-10.4756
▁जुहुयात्	-10.4757
▁वधू	-10.4758
▁क्षत	-10.4762
चतुष्टय	-10.4766
्यताम्	-10.4767
▁ग्रहणं	-10.4767
ावुभौ	-10.4778
▁गतिं	-10.4779
सन्न	-10.4781
नित्यत्व	-10.4782
▁आज्य	-10.4783
ात्मानम	-10.4787
▁मुच्यते	-10.4792
▁जनार्दन	-10.4793
▁भर्तृ	-10.4798
▁युद्धं	-10.4799
▁प्रसीद	-10.4799
ैल	-10.4801
लक	-10.4803
स्थिता	-10.4805
काष्ठ	-10.4805
▁उपदेस	-10.4806
▁मनुज	-10.4807
समये	-10.4809
▁कुमुद	-10.481
▁सिन्धु	-10.4814
▁धार्मिक	-10.4831
विभ्रम	-10.4831
▁यद्व	-10.4832
▁पृथिव्य	-10.4834
▁स्युर्	-10.4834
धूप	-10.4836
गुणा	-10.4839
▁भ्राता	-10.4842
▁साध	-10.4845
▁धर्म्म	-10.4845
ऽपि	-10.4846
येत	-10.4848
▁त्वमेव	-10.4849
पतिर्	-10.485
▁केचिद	-10.4851
▁कर्मण	-10.4852
ाकारा	-10.4854
दुः	-10.4854
▁भवितव्यम्	-10.4857
वक्र	-10.4858
▁तच्छ	-10.4859
संपद	-10.4864
▁स्वर्गं	-10.4867
▁दास्य	-10.487
गतिः	-10.4871
▁प्राणि	-10.4871
भाजन	-10.4876
जम्	-10.4877
▁विसेष्य	-10.4877
निवास	-10.4879
▁अधिक	-10.4879
▁चैत	-10.4881
मनः	-10.4883
सयन	-10.4883
लक्ष्मी	-10.4884
▁पृथिवीं	-10.4885
▁क्रीडा	-10.4885
▁ज्ञेयं	-10.4886
▁विषाद	-10.4891
सिद्धेः	-10.4895
▁कल्याणमित्र	-10.4896
▁संग्रह	-10.4901
▁भावित	-10.4902
त्स्व	-10.4903
संस्थ	-10.4903
▁सुभम्	-10.4905
तृण	-10.4907
▁महेस्वर	-10.4907
▁स्वरूपं	-10.4907
ोपकार	-10.4908
ानर्थ	-10.491
न्तीं	-10.491
विमोक्ष	-10.4912
मतो	-10.4913
विंसति	-10.4916
लम्	-10.4918
रुचि	-10.4922
सूत्रे	-10.4922
व्यं	-10.4923
▁कतमः	-10.4925
▁मूर्ध्नि	-10.4925
▁देहि	-10.4931
▁सत्र	-10.4932
▁स्वात्म	-10.4935
▁समाचरेत्	-10.4935
▁वन्द	-10.4936
प्रज्ञा	-10.4939
▁मायया	-10.494
हेम	-10.494
▁योध	-10.4943
ादीनाम्	-10.4943
ूह	-10.4946
▁मज्ज	-10.4949
ानुष्ठान	-10.495
विजय	-10.4956
मनुमान	-10.4956
पण	-10.4957
सुद्धि	-10.496
रुच्यते	-10.4965
साधनत्व	-10.4967
▁तन्नि	-10.4967
▁कष्ट	-10.4971
▁वीर्यं	-10.4976
▁विदुर	-10.498
▁निस्	-10.498
▁प्रागेव	-10.498
▁नाद	-10.4983
ाङ्गी	-10.4983
वय	-10.4984
ार्थत्व	-10.4985
मात्रस्य	-10.4987
▁धिय	-10.4988
द्रुत	-10.4989
▁वाचं	-10.4989
चेतसः	-10.4992
्ण	-10.4993
ोपलम्भ	-10.4995
ध्या	-10.4999
माता	-10.4999
▁अज्ञान	-10.5
▁गिरा	-10.5001
▁हिंस	-10.5003
ोज्ज्वल	-10.5006
▁सविता	-10.5006
ाभिर्	-10.5006
▁सर्वाः	-10.5008
मुदित	-10.5008
विंस	-10.501
त्ता	-10.5015
रसि	-10.5017
▁प्रकारेण	-10.5017
▁समुच्चय	-10.5018
▁प्रतिबिम्ब	-10.5019
▁वक्तव्यं	-10.5021
▁दर्भ	-10.5021
स्तन्	-10.5022
▁तत्तद	-10.5024
च्छाय	-10.5025
▁पतिः	-10.5026
ात्मजः	-10.5028
्वैव	-10.5029
▁ऊर्ध्वं	-10.503
▁दद्याद्	-10.503
वृत्तं	-10.5032
ेच्च	-10.5035
मुत्सृज्य	-10.5037
ापह	-10.5041
▁स्थापित	-10.5041
▁जाते	-10.5046
ज्ञानम्	-10.5047
ीनाम्	-10.5047
वर्तन	-10.505
▁अव्यक्त	-10.5051
▁कदाचन	-10.5052
विसुद्धि	-10.5052
ोपलब्धि	-10.5054
्यपि	-10.5055
ैत्य	-10.5057
▁संध्या	-10.506
▁गूढ	-10.506
्द	-10.5062
▁भिक्षव	-10.5062
▁सतां	-10.5062
भवद्	-10.5062
ाप्नोति	-10.5063
▁पुरोहित	-10.5064
ाभिमत	-10.5068
▁ऽपि	-10.5069
निः	-10.507
स्माकं	-10.5071
▁रम्य	-10.5071
दम	-10.5072
चिन्तय	-10.5075
▁भृसं	-10.5075
ामिव	-10.5076
▁परुष	-10.5077
▁वाह	-10.5079
▁रूपाणि	-10.508
▁निर्देस	-10.5081
ांस्चैव	-10.5089
▁विसां	-10.5093
भार्या	-10.5099
हन्	-10.5099
योजय	-10.51
▁कालो	-10.5102
ानिव	-10.5107
▁विष्णो	-10.5107
वर्चस	-10.5108
▁संयुक्त	-10.5109
संकास	-10.511
ोपसंहार	-10.5111
▁प्राणा	-10.5112
▁युधिष्ठिरः	-10.5113
▁सर्वेषाम	-10.5113
▁लोचन	-10.5114
कारिण	-10.5114
तनय	-10.5115
सिर	-10.5117
यितव्य	-10.5119
दानव	-10.5119
गद	-10.5123
▁स्मसान	-10.5125
▁त्वेव	-10.5126
▁युक्तो	-10.5126
▁उक्तः	-10.513
▁मानव	-10.5132
▁विदुष	-10.5132
माकास	-10.5136
▁रि	-10.5142
सङ्का	-10.5145
▁द्रष्टव्य	-10.5147
▁सहस्रं	-10.5148
▁स्लेष	-10.5148
▁स्थापय	-10.5148
▁बद्ध्वा	-10.5152
ास्तत्र	-10.5153
▁ललाट	-10.5157
ापन	-10.5158
ाधिपति	-10.5158
▁यदेव	-10.516
नासन	-10.5166
▁लङ्का	-10.5167
ाविष्ट	-10.5168
▁बृहस्पति	-10.5169
धेय	-10.517
द्वयम्	-10.5171
क्रीड	-10.5171
▁प्रयात	-10.5173
यस्च	-10.5175
▁गतिम्	-10.5176
ेऽति	-10.5178
ायत्त	-10.5178
व्यथ	-10.5181
रेण	-10.5181
विन्द	-10.5182
▁प्रत्युवाच	-10.5182
कामः	-10.5183
जप	-10.5183
भगवत	-10.5185
▁अक्षर	-10.5185
ज्या	-10.5186
द्धा	-10.5186
▁महात्मा	-10.5186
नीत	-10.5187
्यम	-10.5191
▁प्रणत	-10.5193
वकास	-10.5194
वितर्क	-10.5197
साय	-10.5198
▁जगतः	-10.5198
▁परोक्ष	-10.5199
ाद्याः	-10.52
तमः	-10.52
भविष्यति	-10.5204
ुष्ण	-10.5205
रोच	-10.5207
परम्	-10.5207
रणे	-10.521
▁कालः	-10.521
▁पाय	-10.5211
ाण्ड	-10.5214
▁कृति	-10.5217
▁स्थितिः	-10.5218
▁जनित	-10.5219
▁एका	-10.5219
भूमौ	-10.522
स्तार	-10.5221
▁वसुदेव	-10.5224
▁कान्ति	-10.5225
पसु	-10.5225
स्लोक	-10.5226
लाप	-10.5229
▁कर्मणः	-10.5232
▁कलि	-10.5235
च्चित्त	-10.5237
▁भृ	-10.5237
▁यज्ञस्य	-10.5238
पुरा	-10.524
द्भुत	-10.5242
▁पूज	-10.5242
नास्रव	-10.5244
▁महातेजा	-10.5244
ैर्य	-10.5247
▁प्रसान्त	-10.5251
▁सज्ज	-10.5251
▁सीलपारमिता	-10.5252
भूम	-10.5254
▁प्रसूत	-10.5254
दर	-10.5259
दोषः	-10.526
प्रजा	-10.5261
▁गृध्र	-10.5262
▁त्वम्	-10.5267
द्योत	-10.5269
कुर	-10.5272
ज्वाल	-10.5274
▁स्रिया	-10.5276
कर्त	-10.5276
▁नरा	-10.5277
यता	-10.5277
▁ऋतु	-10.5278
कुर्वत	-10.5279
नन्तर	-10.5281
लङ्कृत	-10.5281
किर	-10.5282
धारय	-10.5283
निर्घोष	-10.5283
त्म	-10.5286
्यसे	-10.5288
ीयत	-10.5289
▁कर्मणो	-10.5292
प्रमा	-10.5293
▁सिद्धा	-10.5295
▁वाचक	-10.5296
सीर्ष	-10.5296
व्यवस्था	-10.5297
ंग	-10.5298
▁बि	-10.5299
ागतः	-10.5303
लम्भ	-10.5304
▁प्रणीत	-10.5304
▁ज्वल	-10.5305
भाषित	-10.5305
येति	-10.5305
ाङ्गं	-10.5309
▁सय्या	-10.5311
▁युगे	-10.5315
भिमुख	-10.5315
▁पुरं	-10.5323
ेत्यादिना	-10.5324
▁फ	-10.5328
ादिष्व	-10.5329
ानिति	-10.5331
▁पितुर्	-10.5333
▁संग्राम	-10.5336
▁तत्राह	-10.5337
▁त्रिदस	-10.5338
पद्य	-10.5339
मन्यत	-10.5339
युध	-10.5339
धर्मेण	-10.5341
ज्ञो	-10.5346
स्पृष्ट	-10.5348
▁भवन	-10.5349
क्षीण	-10.5349
▁उपा	-10.535
▁ततस्ते	-10.5352
▁प्रहर	-10.5352
▁वितत	-10.5352
चिद	-10.5353
हल	-10.5354
▁लिङ्गं	-10.5354
संयुक्तं	-10.5356
▁तन्मात्र	-10.5358
सतानि	-10.5359
▁निवास	-10.5359
▁समाहितः	-10.5359
▁मण	-10.5359
कुले	-10.536
▁यावन्न	-10.5361
▁सङ्ख्या	-10.5362
वतां	-10.5364
विद्यमान	-10.5366
संस	-10.5366
▁स्यात	-10.5366
धु	-10.5367
ात्मकः	-10.5367
▁गुहा	-10.5371
प्रिया	-10.5374
विनिर्मुक्त	-10.5376
नन्य	-10.5383
ाभावाद	-10.5384
ग्निहोत्र	-10.5384
टी	-10.5384
ोद्देस	-10.5384
▁हेतुना	-10.5385
ात्तद	-10.5385
वतीं	-10.5389
▁तद्वद	-10.5393
▁समिध	-10.5394
▁तैर	-10.5396
ानुपलम्भ	-10.5398
▁चेतसा	-10.54
▁कूट	-10.5401
▁जातो	-10.5402
▁सोऽयं	-10.5405
▁तान्य	-10.5406
धारिण	-10.5406
वर्ति	-10.5408
▁नान्यथा	-10.5409
▁अष्टौ	-10.5412
▁विवक्ष	-10.5417
ोत्साह	-10.5418
ुदाहरण	-10.5418
▁कृष्णस्य	-10.5419
▁निन्द	-10.5419
वर्णा	-10.542
▁दुर्बल	-10.5421
ान्या	-10.5426
मुच्च	-10.5428
जित्	-10.543
ानुरूप	-10.5433
▁नरो	-10.5436
▁तापस	-10.5438
र्चित	-10.5444
ैकं	-10.5445
ास्त्व	-10.5445
▁तद्विषय	-10.5448
वैचित्र्य	-10.545
पित	-10.5451
तत्पर	-10.5452
▁पूर्वम	-10.5454
▁साक्षाद	-10.5456
ीयम्	-10.5457
ातिरिक्त	-10.5459
ादर	-10.546
वत्त	-10.546
तत	-10.546
दृस्यते	-10.546
▁गायत्री	-10.546
ामात्य	-10.5464
ायुर्	-10.5465
▁परिहरति	-10.5468
▁प्रभु	-10.5469
▁चतुः	-10.547
▁पल्लव	-10.5471
▁प्रतापवान्	-10.5472
कृतो	-10.5476
▁कुसलं	-10.548
▁द्विविध	-10.5481
▁पर्व	-10.5482
तामिति	-10.5487
▁मुदा	-10.5489
▁सप्तदस	-10.5489
सुखं	-10.549
मिष्यते	-10.5491
प्सर	-10.5492
▁द्वात्रिंस	-10.5494
स्पृह	-10.5496
▁धनुर्	-10.5497
त्यय	-10.5497
▁निवर्तते	-10.55
▁कदाचिद	-10.5501
ासक्त	-10.5502
▁देवीं	-10.5504
▁सुच	-10.5504
ादुप	-10.5504
ऽऽ	-10.5509
ात्मभाव	-10.5509
▁निसम्य	-10.5509
व्यञ्जन	-10.5512
▁मद्य	-10.5512
योऽ	-10.5513
▁ब्रह्मणि	-10.5515
▁न्यून	-10.5517
स्त्विति	-10.5518
▁गाढ	-10.5522
▁तू	-10.5523
निस्रित	-10.5528
कर्तृ	-10.5528
तीन्द्रिय	-10.553
▁गम्य	-10.553
भ्या	-10.5531
▁परिच्छेदः	-10.5531
▁समासाद्य	-10.5534
ग्न	-10.5537
▁क्षणिक	-10.5537
मनित्य	-10.5539
पहृत	-10.5539
भ्याम्	-10.554
▁प्रद्युम्न	-10.5542
▁च्युत	-10.5543
कीर्ण	-10.5545
भे	-10.5545
▁भ्रातृ	-10.5545
▁तत्यथा	-10.5548
विसेषात्	-10.555
▁सोभ	-10.5552
स्चेत्	-10.5554
वादिन	-10.5554
ावस्थित	-10.5557
▁इन्द्रो	-10.556
भिस्त	-10.5562
गन्तु	-10.5567
▁संवाद	-10.5567
तयः	-10.5571
साख	-10.5571
ारोह	-10.5574
▁उदात्त	-10.5576
च्छन्न	-10.5577
रूपः	-10.5578
▁सास्ता	-10.5578
▁प्रेक्ष	-10.558
ित्वं	-10.5583
स्थिर	-10.5583
चिन्ता	-10.5584
्क	-10.5585
▁ध्रुवम्	-10.5587
भावस्य	-10.5587
लोपः	-10.5589
वाक्ये	-10.5591
▁प्रत्येक	-10.5592
▁प्रद	-10.5593
कामा	-10.5596
▁प्रकट	-10.5597
▁प्रत्युत्पन्न	-10.5598
▁धैर्य	-10.5598
हेतोः	-10.5599
भाषत	-10.5601
▁तद्भाव	-10.5602
ोदन	-10.5604
ाखिल	-10.561
ोपभोग	-10.5616
▁ख्यात	-10.5616
▁गुड	-10.5621
मिदम्	-10.5622
तायै	-10.5623
गुह्य	-10.5623
सङ्ख	-10.5623
पो	-10.5627
र्जन	-10.5628
त्रयम्	-10.563
कृद्	-10.5631
जायते	-10.5633
▁पत्य	-10.5634
▁जानु	-10.5634
▁धारण	-10.5634
कुसलमूल	-10.5635
ेकदेस	-10.5636
ोऽभ्य	-10.5637
पूज्य	-10.5641
ासां	-10.5641
▁पारमिता	-10.5644
ादिसब्द	-10.5645
▁सुपर्ण	-10.5647
ाक्षि	-10.5649
प्रतीत्यसमुत्पाद	-10.5649
स्त्रय	-10.565
न्तम्	-10.565
▁परमाणु	-10.565
साद	-10.5657
▁विष्णुर्	-10.5659
▁भिद्यते	-10.5661
ाधम	-10.5663
▁तथाप्य	-10.5663
▁झ	-10.5665
▁उन्	-10.5665
▁स्वातन्त्र्य	-10.5665
स्प	-10.5668
▁स्त	-10.567
▁किमिति	-10.5671
ासः	-10.5672
▁जल्प	-10.5677
रह	-10.5678
जाः	-10.5687
▁आत्मन	-10.5689
▁प्रातिपदिक	-10.569
खलु	-10.5692
▁देसकाल	-10.5692
ुक्तम्	-10.5692
▁वेणु	-10.5693
▁परो	-10.5693
सम्पन्न	-10.5694
▁अर	-10.5695
▁स्वस्थ	-10.57
▁मन्त्रेण	-10.5701
प्रत्ययः	-10.5704
▁राजान	-10.5709
▁सुव्रत	-10.5709
िदम्	-10.5714
संकल्प	-10.5715
▁रूपम	-10.5716
ोत्थित	-10.5716
च्छद	-10.5717
वर्तमान	-10.5717
फला	-10.5717
▁स्वास	-10.5718
▁दारक	-10.5719
▁प्रत्ययो	-10.5721
▁अदृष्ट	-10.5722
▁प्रत्या	-10.5722
धात्व	-10.5723
ानामेव	-10.5723
प्रमुख	-10.5725
▁लिख	-10.5728
र्महा	-10.5729
▁आलोक	-10.5729
तमो	-10.5731
न्थ	-10.5732
मात्य	-10.5732
जगाम	-10.5733
मभाषत	-10.5734
▁मह्यं	-10.5735
▁हीति	-10.5735
वादिना	-10.5744
ाली	-10.5747
वसाद	-10.575
पदा	-10.575
▁रूपक	-10.575
▁मूलं	-10.5751
विरोधः	-10.5752
न्तरे	-10.5752
▁वेदितव्य	-10.5755
▁द्विजोत्तम	-10.5755
▁विप	-10.5755
संस्पर्स	-10.5755
▁जीवितं	-10.5762
षे	-10.5766
प्रख्य	-10.5769
▁सुभग	-10.5771
दंष्ट्र	-10.5773
र्देव	-10.5774
▁सोष	-10.5774
▁दसा	-10.5774
सब्दार्थ	-10.5776
ावेस	-10.5779
▁क्षेत्रज्ञ	-10.5781
फलम्	-10.5784
ितैः	-10.5785
्यतां	-10.5787
▁कण्टक	-10.5791
मनेक	-10.5791
निराकरण	-10.5793
ीभाव	-10.5795
▁इष्यते	-10.5795
▁बुद्धिः	-10.5795
▁दल	-10.5795
▁ऽस	-10.5796
▁सङ्कते	-10.5796
▁अप्रमाण	-10.5797
▁मौन	-10.5797
ाभवत्	-10.5797
▁प्रवि	-10.5797
ान्प्रति	-10.58
पद्यते	-10.5801
मुखेन	-10.5802
वन्न	-10.5806
▁आहार	-10.5812
▁कृपण	-10.5816
▁कृष्णः	-10.5819
तेव	-10.582
त्रास	-10.5821
▁त्वरित	-10.5823
दूत	-10.5823
▁बहिः	-10.5826
▁पयः	-10.5828
▁प्रतिपद	-10.5831
▁न्यस्त	-10.5833
▁ब्र	-10.5837
लक्षणः	-10.584
मलं	-10.5841
सिद्धये	-10.5841
▁क्षार	-10.5841
मुच	-10.5842
▁गृह्ण	-10.5843
प्रदीप	-10.5844
ार्ति	-10.5845
▁वृष्टि	-10.5845
▁यदिदं	-10.5846
▁धाव	-10.5847
स्रुत्य	-10.5847
▁पातु	-10.5848
▁विप्रा	-10.5851
देवा	-10.5851
▁जटा	-10.5852
▁तत्काल	-10.5857
ण्व	-10.5858
▁मुष्टि	-10.5863
▁आस्रम	-10.5865
▁कलह	-10.5866
त्वाभाव	-10.5867
▁मनोरथ	-10.5867
ात्मकम्	-10.5868
ङ्कुर	-10.5868
▁पाण्ड	-10.5873
भाक्	-10.5875
नुपपन्न	-10.5878
ुस्च	-10.5878
र्थान्तर	-10.5883
▁द्रव्यं	-10.5886
वन्तं	-10.5887
हीति	-10.5887
वचनात्	-10.5895
▁दिवं	-10.5898
▁प्रस्थित	-10.5899
त्रैव	-10.5901
▁गृहस्थ	-10.5901
साम्	-10.5902
ोरग	-10.5903
▁मता	-10.5905
नैकान्तिक	-10.5905
ोद्यान	-10.5907
ोर्ऽथ	-10.5907
▁प्रतिपाद्य	-10.5907
थो	-10.5909
विदो	-10.591
नुसय	-10.5911
▁ध्वन	-10.5911
क्ष्ण	-10.5911
▁द्योत	-10.5917
ाच्	-10.5921
पीठ	-10.5925
माप्नुयात्	-10.5925
माचरेत्	-10.5928
▁धर्मता	-10.5929
▁सद्यो	-10.5932
ोपकरण	-10.5938
▁पीत्वा	-10.5938
▁बृह	-10.594
▁अधर्म	-10.5944
वासन	-10.5946
▁कृष्णो	-10.5946
▁क्षोभ	-10.5947
्यमाना	-10.5948
धिकं	-10.5948
यतः	-10.5954
नक्षत्र	-10.5955
▁भगवत्	-10.5956
्ति	-10.5956
▁पन्था	-10.5957
ानुपपत्तेः	-10.5957
भैरव	-10.5959
व्यापक	-10.596
तस्तस्य	-10.5961
ीनि	-10.5962
समुदाय	-10.5963
भवन्	-10.5965
▁मयूर	-10.5965
▁क्षान्तिपारमिता	-10.5966
तयो	-10.5973
ही	-10.5974
▁त्वय	-10.5977
निद्र	-10.5977
▁करिष्यामि	-10.598
मथा	-10.5982
भेदे	-10.5982
भृत्य	-10.5984
ुपाधि	-10.5984
▁मनस्	-10.5984
मुञ्च	-10.5984
स्त्राणि	-10.5985
राध	-10.5986
ानन्तर्य	-10.5987
▁प्रेत्य	-10.5987
ेत्युक्त	-10.5988
कण	-10.599
पिता	-10.5991
▁भाजन	-10.5991
▁सकृद	-10.5992
दन	-10.5992
व्याकृत	-10.5992
ीत्	-10.5993
पृथिवी	-10.5994
▁कफ	-10.5998
गणा	-10.5998
▁एकान्त	-10.5999
▁रामेण	-10.6003
▁समूह	-10.6003
प्रतिपन्न	-10.6004
▁प्रगृह्य	-10.6008
ाहुति	-10.6008
▁कषाय	-10.6009
▁लिखित	-10.601
▁साधर्म्य	-10.6012
▁महावीर्य	-10.6015
▁विराज	-10.6017
यन्ते	-10.6018
▁कुपित	-10.6018
मुत	-10.6018
धम	-10.602
ाभ्युपगम	-10.6025
यि	-10.6032
▁यस्माद्	-10.6036
▁क्रुद्धो	-10.6039
स्राद्ध	-10.6039
पराजित	-10.6045
▁अत्य	-10.6047
रास	-10.6055
सिला	-10.6055
▁संग्रामे	-10.6057
▁प्रतिपादय	-10.6059
सम्भवात्	-10.6062
तेजसा	-10.6062
पुत्रः	-10.6062
▁सुभ्र	-10.6068
स्तस्मात्	-10.6071
▁वराह	-10.6071
वाद्य	-10.6072
▁ध्रुवं	-10.6073
विदित	-10.6073
▁छत्र	-10.6073
मुखा	-10.6073
ोपलभ्यते	-10.6074
द्वैत	-10.6074
ुदाहृत	-10.6074
नीक	-10.6078
स्थः	-10.6085
मनेन	-10.6087
▁आन	-10.6091
वस्य	-10.6091
▁गच्छत	-10.6093
स्चर	-10.6093
▁सव	-10.6095
ावकास	-10.6097
कामो	-10.6098
▁द्वाव	-10.6098
▁तट	-10.6099
ण्ण	-10.61
▁सर्वकाम	-10.61
▁प्रस्तुत	-10.6101
ार्थी	-10.6102
▁दत्ता	-10.6102
ावगम	-10.6106
▁तदीय	-10.6107
▁प्राजापत्य	-10.6112
▁हुत्वा	-10.6113
किल	-10.6113
निवेस	-10.6113
▁गोपाल	-10.6114
▁सूत्रं	-10.6114
▁व्यय	-10.6115
योगः	-10.6116
पर्व	-10.6116
▁क्षेप	-10.6116
▁रङ्ग	-10.612
बीजं	-10.612
▁स्वेन	-10.6121
▁रुचिर	-10.6121
▁भावेन	-10.6122
▁पुं	-10.6122
प्रत्ययवेदना	-10.6122
▁रहस्य	-10.6123
भ्याम	-10.6124
▁तस्थौ	-10.6124
▁ध्यानं	-10.6125
▁लम्ब	-10.6126
विज्ञात	-10.6132
तृप्त	-10.6134
वारण	-10.6135
▁कोऽपि	-10.6135
▁वक्ष	-10.6139
भेदो	-10.614
ापराध	-10.6145
न्तरिक्ष	-10.6148
▁दुग्ध	-10.6149
▁कार्यस्य	-10.6152
ान्वितः	-10.6152
▁वल	-10.6154
▁सव्य	-10.6156
ाराधन	-10.6158
हृष्ट	-10.6159
ाहित	-10.6163
▁वसुधा	-10.6164
स्तृतीय	-10.6165
वाप्त	-10.6166
▁योऽसौ	-10.6168
सूर	-10.6172
▁सद्भाव	-10.6174
▁वेद्य	-10.6177
हंस	-10.6177
▁पूजां	-10.6178
ाह्न	-10.618
रित	-10.618
▁विचर	-10.618
▁मन्यु	-10.6181
▁कपोल	-10.6182
▁लग्न	-10.6183
रसा	-10.6184
▁संप्रति	-10.6184
संघात	-10.6186
पूत	-10.6188
▁किम्कारणम्	-10.6189
कोविद	-10.6189
▁एतस्य	-10.6189
▁वपुः	-10.6193
कृच्छ्र	-10.6193
▁यच्छ	-10.6197
▁स्रीधरः	-10.6199
्रे	-10.6199
माहात्म्य	-10.6203
तमा	-10.6204
्च	-10.6206
न्तर्हित	-10.6208
दित	-10.621
▁पिष्ट	-10.6212
▁रुक्म	-10.6217
▁सिस	-10.6218
ध्रुव	-10.6221
▁परिहार	-10.6221
गौर	-10.6221
वृत्त्या	-10.6221
▁सरस	-10.6226
▁साक्षाद्	-10.6228
▁साक्य	-10.6238
▁धनंजय	-10.624
▁आप्त	-10.6241
नुष्ठान	-10.6241
पारमिता	-10.6246
▁भवान	-10.6247
स्त्येव	-10.6249
▁समु	-10.625
▁करणीय	-10.625
▁महाकरुणा	-10.6252
▁लोकोत्तर	-10.6252
▁रव	-10.6255
न्महा	-10.6255
पस्यति	-10.6255
यतीति	-10.6258
दक्ष	-10.6258
▁लोकधातु	-10.6258
▁वे	-10.6259
▁सर्म	-10.6266
धीत	-10.6266
▁सर्वभूतानां	-10.6267
▁रयि	-10.6267
ानृत	-10.6269
योगे	-10.6269
करा	-10.6271
▁प्रमाणम्	-10.628
▁पूर्वा	-10.6282
नवस्था	-10.6285
▁दानपारमिता	-10.6285
गात्	-10.6287
प्रमाद	-10.6289
िर्न	-10.6289
▁मासि	-10.6291
युक्ति	-10.6292
▁यौ	-10.6294
िष्ये	-10.6295
सञ्ज्ञ	-10.6296
स्तान्	-10.6302
गामि	-10.6303
▁पूर्वेण	-10.6303
ीत्य	-10.6306
▁बुद्धो	-10.6306
▁आगच्छ	-10.631
▁सर्वधर्मा	-10.6313
▁असिद्ध	-10.6316
मारुत	-10.6316
▁अर्ह	-10.6316
ाब्ज	-10.6318
स्मद	-10.6321
वाल	-10.6321
▁सैन्धव	-10.6323
▁माल्य	-10.6323
▁धीमतः	-10.6325
▁जगन्नाथ	-10.6327
▁रे	-10.6328
सत्यं	-10.6329
▁सिद्धं	-10.633
▁भाण्ड	-10.633
ावधि	-10.6331
ानुपलब्धि	-10.6332
दुर्ग	-10.6333
▁विव्याध	-10.6333
मस्तु	-10.6334
न्यत्	-10.6334
▁चरित	-10.6335
▁व्यति	-10.6336
व्यङ्ग्य	-10.6337
मारभ्य	-10.6338
▁धर्माधर्म	-10.6339
च्छत्र	-10.6341
▁दीक्षा	-10.6343
ागमन	-10.6346
▁सारीर	-10.6347
▁वैद्य	-10.6348
▁तुभ्यं	-10.6349
त्प्र	-10.6349
ष्टम	-10.6349
मग्र	-10.6351
▁परिवृत	-10.6354
▁बलदेवः	-10.6354
▁सञ्ज्ञा	-10.6355
ोष	-10.6357
ीयन्ते	-10.6357
▁उदय	-10.6358
निल	-10.6359
ैषां	-10.6362
▁आग्नेय	-10.6364
समस्त	-10.6366
दर्सने	-10.6368
▁देयं	-10.6368
▁भविष्यसि	-10.6373
व्यावृत्त	-10.6373
ञ्चित	-10.6375
मातृ	-10.6375
▁पन्नग	-10.6375
क्रतु	-10.6376
▁अर्क	-10.6377
▁अन्वय	-10.6377
त्वरूप	-10.6378
बि	-10.6378
गर्ह	-10.6379
▁एकः	-10.638
▁पञ्चमी	-10.638
▁आर	-10.6388
▁आसीत्	-10.6389
भाण्ड	-10.6391
सिखर	-10.6393
▁तमः	-10.6395
चक्ष	-10.6398
▁ध्यात्वा	-10.6398
मुभय	-10.6399
▁स्रुतम्	-10.64
▁चित्तस्य	-10.6401
▁पित्र	-10.6407
▁स्वामि	-10.6407
ार्चन	-10.6408
कोट्य	-10.6409
▁विन्ध्य	-10.6411
ान्सर्व	-10.6413
ाग्नेय	-10.6414
▁बहूनि	-10.6415
ोऽप	-10.6417
▁यूप	-10.6418
मुद्यत	-10.6418
▁विस्वनाथः	-10.6419
देवी	-10.6419
ास्थि	-10.6421
▁बहिर	-10.6422
▁निरा	-10.6424
वन्ति	-10.6425
सङ्ख्य	-10.6426
▁दर्सनात्	-10.6427
▁कस्चन	-10.643
▁उभे	-10.6436
युतं	-10.6437
त्यर्थं	-10.6437
चारु	-10.6437
भग	-10.6438
ुम	-10.6438
दृष्ट्वा	-10.6439
ास्रया	-10.644
▁माष	-10.644
▁प्रभ	-10.644
मागत	-10.6441
▁मुखे	-10.6441
▁होता	-10.6441
▁कान्ता	-10.6441
त्वादित्य	-10.6442
मृ	-10.6443
ज्जीव	-10.6444
स्रोत	-10.6448
▁हरेः	-10.6449
दर्सिन	-10.6452
कर्माणि	-10.6453
▁व्यपदेस	-10.6455
ोपलब्ध	-10.6459
▁भाव्य	-10.6459
▁ब्रह्मचर्य	-10.6462
▁प्रतीयमान	-10.6467
▁इत्येवम	-10.6467
▁तत्क्षण	-10.6467
क्षत्र	-10.6467
षट्	-10.6468
कर्मा	-10.6471
समूह	-10.6473
तव्य	-10.6474
▁गतो	-10.6475
ुच्च	-10.6478
▁तत्सम	-10.6478
स्मिन्नेव	-10.6484
कन्द	-10.6486
ाभावेन	-10.6487
कारित्व	-10.6488
कल्मष	-10.6489
▁रूपम्	-10.649
नात्म	-10.649
पदस्य	-10.6492
ासन्न	-10.6493
▁जले	-10.6497
▁प्रविवेस	-10.6498
नुत्तरां	-10.6498
्ल	-10.6499
ान्यत्र	-10.65
भुवन	-10.6501
भाति	-10.6503
▁प्रसज्येत	-10.6507
▁देवताः	-10.651
▁करोमि	-10.6511
▁पवमान	-10.6513
पूज	-10.6516
च्छल	-10.6517
मृषि	-10.6521
त्वमपि	-10.6523
स्थितः	-10.6524
▁धर्मेषु	-10.6525
ङ्गिरस	-10.6528
▁कारणेन	-10.6528
िने	-10.6529
▁पथ	-10.653
▁मतः	-10.6531
▁सुन्दर	-10.6534
मता	-10.6538
▁निर्यात	-10.6541
ुदय	-10.6542
▁विष्णोः	-10.6546
▁त्र	-10.6547
च्छिद्र	-10.6548
कुट	-10.6548
▁सुचिः	-10.655
▁यद्यप्य	-10.655
तरो	-10.6552
▁एवम्तर्हि	-10.6552
रन्ध्र	-10.6553
माहुः	-10.6557
▁लोकानां	-10.6558
▁प्रवर्त	-10.6563
धिमुक्ति	-10.6563
▁बुद्धिर्	-10.6566
बाधित	-10.6566
द्युति	-10.6566
वल्ली	-10.6567
ाहृत	-10.6568
▁नायं	-10.657
भिज्ञा	-10.657
भोज	-10.6571
▁सोऽहं	-10.6572
▁मैत्री	-10.6572
▁कर्मणां	-10.6573
▁मरणं	-10.6573
▁देहे	-10.6573
साप	-10.6575
न्यद	-10.6576
▁देवानाम	-10.6576
भिमान	-10.6577
वैकल्य	-10.6579
ादिकम्	-10.658
क्षोभ	-10.6581
ोत्तरं	-10.6582
ान्महा	-10.6585
मानन्द	-10.6586
जिज्ञास	-10.6589
▁मकर	-10.659
ालंकार	-10.6591
पेक्षया	-10.6594
▁व्यवसाय	-10.6595
▁हरिण	-10.6596
वदात	-10.6602
▁वर्च	-10.6605
▁सची	-10.6607
राव	-10.6607
▁दर्सनीय	-10.6608
▁बलेन	-10.661
युक्तः	-10.6615
▁द्यूत	-10.6616
पुराण	-10.6616
सामग्री	-10.6619
संनिभ	-10.662
▁भावा	-10.6629
सुवर्ण	-10.6629
▁बोधिसत्त्वः	-10.6629
सुक	-10.663
▁मनोहर	-10.6631
▁भ्रातर	-10.6631
▁सत्या	-10.6632
ोपमान	-10.6633
र्वै	-10.6633
▁पूर्वमेव	-10.6633
भावं	-10.6635
▁दुष्	-10.6635
ाम्ल	-10.6636
ाग्निना	-10.6636
स्तृण	-10.6637
▁सुभासुभ	-10.6638
▁परंतप	-10.6638
स्फुर	-10.6638
▁गवा	-10.6639
▁भवतो	-10.6639
प्रणिहित	-10.664
▁पावन	-10.6641
▁स्वतः	-10.6645
मिच्छति	-10.6645
▁अनादि	-10.6646
नवद्य	-10.6651
▁सहज	-10.6653
मुद्दिस्य	-10.6654
वृध	-10.6654
ात्स्व	-10.6655
गण्ड	-10.6657
माणो	-10.6658
▁व्याप	-10.666
रूपत्व	-10.6661
▁अद	-10.6663
प्रण	-10.6666
▁सदैव	-10.6667
व्याख्यान	-10.6672
▁सिल्प	-10.6672
▁किमु	-10.6674
▁त्रास	-10.6676
▁पर्यन्त	-10.6677
द्राव	-10.6681
▁प्रयोगः	-10.6681
▁विविधा	-10.6682
सिद्धान्त	-10.6683
नुगत	-10.6684
चोदित	-10.6686
झ	-10.6688
▁हता	-10.6689
चाप	-10.6691
ज्ञः	-10.6693
▁कुष्ठ	-10.6693
ासङ्का	-10.6693
▁क्वापि	-10.6695
हय	-10.6699
जन्त	-10.6701
स्तत	-10.6703
नाम्न	-10.6703
बु	-10.6704
ादृते	-10.6707
ाहत	-10.6707
ांस्तु	-10.6708
▁मर्म	-10.6709
▁विस्वं	-10.671
दर्थ	-10.6711
त्वान्	-10.6713
▁भद्रे	-10.6714
जगत्	-10.6714
रुष	-10.6716
ावगत	-10.6719
मद्	-10.672
▁प्रभृति	-10.6723
भ्यस्त	-10.6723
▁चोप	-10.6725
ानुवाद	-10.6725
ान्ता	-10.6726
सिद्धौ	-10.6726
▁रूपस्य	-10.6728
हितं	-10.673
▁वध्य	-10.6731
ावधारण	-10.6732
▁वेदितव्यम्	-10.6732
ितव्यम्	-10.6732
▁रसः	-10.6733
ादान	-10.6733
ासयः	-10.6734
▁एवमपि	-10.6734
नाल	-10.6735
▁इती	-10.6736
▁सापि	-10.6741
ासङ्क	-10.6741
क्षये	-10.6744
विविध	-10.6745
तथागत	-10.6746
ेत्यत	-10.6747
▁इत्यस्य	-10.6749
▁इच्छा	-10.6752
ेषाम	-10.6752
णाम	-10.6752
▁द्विगुण	-10.6756
ैरा	-10.6756
मात्रा	-10.6756
हस	-10.6757
वियोग	-10.6757
▁पृथग्जन	-10.6762
्रा	-10.6762
द्वन्द्व	-10.6764
वोचत्	-10.6765
▁विभु	-10.6766
▁असुर	-10.6766
▁स्रुतेः	-10.6771
▁अनन्य	-10.6771
▁कस्माद	-10.6773
▁लभ्य	-10.6773
वतिष्ठते	-10.6774
▁अनुप	-10.6775
ग्रहः	-10.6776
ैन्द्र	-10.6777
पदम्	-10.6781
कत्वं	-10.6782
▁लोपः	-10.6782
दंस	-10.6786
▁भृत	-10.6786
▁दिष्ट्या	-10.6788
ितर	-10.6791
▁प्रातः	-10.6792
▁दसरथ	-10.6793
ाधिगम	-10.6793
ासिद्ध	-10.6796
▁हेतुर	-10.6801
▁स्मृत्य	-10.6801
मनसा	-10.6803
▁केतु	-10.6804
संभार	-10.6804
कृतम्	-10.6804
ोपयोग	-10.6805
िकायां	-10.681
▁यसः	-10.6814
▁वारण	-10.6815
▁तृ	-10.6816
▁योगेन	-10.6817
क्रमण	-10.6817
▁गल	-10.6817
तयैव	-10.6818
▁कवच	-10.6824
▁सिध्य	-10.6826
▁पुरी	-10.6828
ास्रयः	-10.6828
▁पस्यन्	-10.683
▁कटु	-10.6831
ाभिषेक	-10.6832
ाद्धि	-10.6832
वसेन	-10.6832
ांस्तथा	-10.6832
▁जनमेजय	-10.6834
हव	-10.6835
संभवः	-10.6835
▁स्कन्द	-10.6836
ितु	-10.6837
▁विष्णुं	-10.6837
▁कार्यकारण	-10.6838
▁लज्ज	-10.684
▁कारय	-10.6842
▁भक्ष्य	-10.6842
ुग्र	-10.6847
ासित	-10.6853
मवाप	-10.6855
त्येक	-10.6855
न्येषां	-10.6859
▁विष्णुः	-10.686
ास्रु	-10.6861
मष्ट	-10.6863
तस्मात्	-10.6864
▁ह्रद	-10.6865
▁विन्द	-10.6865
▁सौर्य	-10.6866
▁भावो	-10.6867
▁एकं	-10.6869
कर्तृक	-10.6869
नुवाद	-10.6874
▁तद्धित	-10.6879
त्वादेव	-10.6883
वृन्द	-10.6883
▁निधि	-10.6887
ान्तरम्	-10.6888
विभाव	-10.6888
वाम	-10.6889
ीत्यर्थः	-10.6889
▁पारद	-10.6892
ानपेक्ष	-10.6895
रोम	-10.6895
ेभ्योऽ	-10.6895
▁स्यादेतत्	-10.6896
▁तदेतद	-10.6897
नुकूल	-10.6898
वृत्तित्व	-10.6901
मालोक्य	-10.6902
▁भिक्षू	-10.6905
▁नियोग	-10.6906
▁विच	-10.6908
क्थ	-10.6908
▁जगन्	-10.6909
ाभेद	-10.6911
▁रुचि	-10.6912
जानाति	-10.6915
मुचित	-10.6916
▁अतस्च	-10.6917
▁सखा	-10.6917
प्रतिबन्ध	-10.6917
▁बुद्धानां	-10.6917
▁सतत	-10.6921
ाख्यो	-10.6922
▁तज्ज्ञान	-10.6925
▁मूर्ख	-10.6927
पराध	-10.6929
▁समृद्ध	-10.6929
▁गोष्ठ	-10.693
सृत	-10.693
▁कलस	-10.6931
न्मा	-10.6932
▁लोकः	-10.6934
्ह	-10.6937
▁आत्मना	-10.6939
▁पालय	-10.6939
▁उपरि	-10.6941
प्रलय	-10.6944
▁संन्यास	-10.6944
▁तत्त्वतः	-10.6945
▁वर्धते	-10.6946
▁अलं	-10.6947
प्रणय	-10.6949
पोह	-10.6951
वाय	-10.6951
▁करो	-10.6953
रूपता	-10.6956
▁सरद	-10.6959
▁किमत्र	-10.6962
▁तदेक	-10.6962
प्रत्येकबुद्ध	-10.6963
▁राजन्य	-10.6968
मनुत्तमम्	-10.6969
▁सून्यं	-10.6969
वर्तिन	-10.6969
▁पुण्या	-10.697
सून्यतया	-10.6975
स्रावक	-10.6976
ापत्तेः	-10.6977
ृक्ष	-10.6978
▁बीजं	-10.698
▁तदैव	-10.6982
ाङ्गना	-10.6982
ाविद्या	-10.6983
▁पुष्य	-10.6985
▁कर्	-10.6986
▁तदिदं	-10.6988
▁मलिन	-10.6988
ेदानीं	-10.6989
▁अप्र	-10.6989
▁गन्तु	-10.699
ात्मने	-10.699
▁स्नानं	-10.6991
▁नर्मदा	-10.6993
भिर्न	-10.6993
ानुभाव	-10.6994
▁यथार्थ	-10.6997
स्यैक	-10.6998
▁चत्वारो	-10.7001
वचने	-10.7001
▁भवन्त्य	-10.7002
▁कृपा	-10.7005
क्षिप	-10.7006
मानय	-10.7006
▁गुरुः	-10.7008
सुतः	-10.7008
▁संख्ये	-10.7009
▁व्याख्यान	-10.701
▁जिज्ञास	-10.7011
▁यात्रा	-10.7013
न्तां	-10.7014
मां	-10.7015
▁विसाल	-10.7016
सोभ	-10.7018
प्रभेद	-10.702
▁मन्य	-10.7021
▁अष्टा	-10.7022
वाग्	-10.7022
मव्ययम्	-10.7026
ावास	-10.7028
वृत्तान्त	-10.7029
▁धृष्टद्युम्न	-10.7032
ध्म	-10.7032
विज्ञानं	-10.7034
▁चण्डाल	-10.7035
गच्छन्ति	-10.7038
▁ब्राह्मणः	-10.7041
गम्भीर	-10.7043
ोढ	-10.7046
तिक्रान्त	-10.705
ाध्ययन	-10.7054
स्तिष्ठ	-10.7055
संचय	-10.7059
▁विभव	-10.706
ात्तस्य	-10.7063
▁संगत	-10.7065
स्थापन	-10.7066
▁नमस्	-10.7067
ापीति	-10.7067
श्	-10.7068
त्तदा	-10.707
▁एतदुक्तं	-10.707
गतम्	-10.7075
▁तरुण	-10.7076
नू	-10.7078
▁फलानि	-10.7079
तत्त्वं	-10.708
▁आपो	-10.7081
ब्रह्मण	-10.7082
पत्	-10.7083
▁सचिव	-10.7083
पवाद	-10.7084
धीयते	-10.7085
सक्त्य	-10.7085
▁तदप्य	-10.7087
▁वर्षाणि	-10.7088
हेत्व	-10.7093
▁पङ्क	-10.7093
▁तारा	-10.7094
▁हेतोर	-10.7095
लक्षित	-10.7097
▁सर्वसत्व	-10.7098
▁तिष्ठन्ति	-10.7098
▁तृतीयं	-10.7099
ोऽर्थः	-10.71
येन	-10.71
▁हन	-10.7103
▁सौच	-10.7103
साखा	-10.7104
ावृत्ति	-10.7106
चर्य	-10.7108
▁नूनम	-10.7109
द्देव	-10.7109
ाम्बुज	-10.7111
▁यावन्	-10.7111
▁समये	-10.7112
यितव्या	-10.7113
▁सारथि	-10.7113
त्येष	-10.7114
ामो	-10.7114
▁ह्री	-10.7116
ाराम	-10.7118
▁नरकं	-10.7119
▁स्वधा	-10.712
ाज्ञया	-10.712
ुभ	-10.7124
निर्माण	-10.7126
चर्म	-10.7126
वैर	-10.7128
मर्ह	-10.7129
सक्त्या	-10.713
▁तेजः	-10.7131
जात्य	-10.7133
र्तु	-10.7135
▁गुर्व	-10.7136
▁ऋच	-10.7136
तमं	-10.7137
▁भिक्षा	-10.7138
▁पस्याम	-10.7142
ैता	-10.7143
स्तौ	-10.7144
संज्ञक	-10.7144
▁बुद्धिर	-10.7145
मण्डलम्	-10.7145
ाधिपत्य	-10.7146
▁साध्व	-10.7146
द्रि	-10.7149
मस्नुते	-10.7151
▁गङ्ग	-10.7152
▁भावाभाव	-10.7153
मस्व	-10.7155
▁विजान	-10.7157
▁क्षिप्र	-10.7158
ात्यय	-10.716
▁प्रयच्छति	-10.7162
▁पुष्टि	-10.7163
न्मन्त्र	-10.7164
▁सर्वबुद्ध	-10.7165
▁गुह	-10.7168
▁करोत्य	-10.7169
▁रोह	-10.7169
▁व्याकरण	-10.7172
र्पय	-10.7173
▁आदौ	-10.7174
दर्सनेन	-10.7175
▁समुत्पन्न	-10.7175
रक	-10.7177
▁सत्यपि	-10.7177
कोटी	-10.718
▁निष्ठ	-10.718
▁मन्	-10.7181
धार्मिक	-10.7183
▁विष्ट	-10.7183
वोच	-10.7186
ावबोध	-10.7186
▁जनार्दनः	-10.7188
ज्ञानेन	-10.7189
दृ	-10.7189
▁पराक्रम	-10.719
सीद	-10.719
▁स्फटिक	-10.7191
▁स्वधर्म	-10.7192
संभवात्	-10.7193
▁गेह	-10.7194
विरहित	-10.7194
तिक्रम	-10.7199
रम्भ	-10.72
प्रसूत	-10.72
▁रूढ	-10.7203
ैनम	-10.7205
मुना	-10.7206
▁कुलदुहिता	-10.721
समन्वितम्	-10.7212
ध्वान	-10.7214
▁निर्गत	-10.7214
▁देसयति	-10.7216
▁जरामरण	-10.722
ात्य	-10.722
▁अवस्य	-10.722
मूलं	-10.7221
▁संक्लेस	-10.7222
▁प्रयत्नेन	-10.7222
जग	-10.7226
मारुह्य	-10.7228
निर्देसः	-10.7228
▁द्वयोः	-10.7231
▁स्पृष्ट	-10.7232
लोचना	-10.7233
▁गां	-10.7235
ूचु	-10.7235
पङ्क	-10.7236
ाद्यर्थ	-10.7238
▁जरासंध	-10.7238
्याय	-10.7241
वर्ध	-10.7242
च्छरीर	-10.7242
विज्ञप्ति	-10.7243
निष्ठा	-10.7245
प्रणिधान	-10.7249
▁जि	-10.725
िदम	-10.7253
हर्तु	-10.7254
▁पृथ	-10.7256
ब्ज	-10.7257
मोहित	-10.7262
▁परिवर्त	-10.7263
ेणापि	-10.7265
ल्लक्षण	-10.7265
▁विलोक्य	-10.7267
ारण्य	-10.7268
ूक्त	-10.7268
िन्द	-10.7269
र्प	-10.727
▁वृ	-10.727
ेमे	-10.7273
▁केनचित्	-10.7274
प्येक	-10.7275
▁विनीत	-10.7275
स्तुल्य	-10.7275
नुसार	-10.7276
ेनोप	-10.7276
▁त्रिगुण	-10.7278
ावस्थ	-10.7278
▁प्रेषित	-10.7279
▁सेषं	-10.7282
▁संक्षेप	-10.7282
करणे	-10.7282
▁ब्रूयात्	-10.7284
▁सत्येन	-10.7284
तरु	-10.7285
▁सहदेव	-10.7286
ापन्न	-10.7287
संविद	-10.7287
▁ह्येव	-10.7288
ितव्या	-10.7291
▁तरु	-10.7292
काव्य	-10.7293
गुर	-10.7293
विसारद	-10.7296
▁लोल	-10.7299
▁पर्जन्य	-10.7301
त्प	-10.7301
▁अच	-10.7304
▁निवस	-10.7305
▁जायमान	-10.7309
▁मनोविज्ञान	-10.7309
▁महासत्व	-10.731
ययौ	-10.7311
वानिति	-10.7312
▁निग्रह	-10.7312
▁सक्त्या	-10.7314
ल्लिङ्ग	-10.7314
ोष्ठ	-10.7315
▁आयुष्म	-10.7319
▁सनातनः	-10.7324
साध	-10.7329
सङ्ख्या	-10.7331
▁ज्योतिर्	-10.7332
▁प्रथमः	-10.7335
केसर	-10.7336
चु	-10.7341
▁कन्य	-10.7342
▁निधाय	-10.7344
वसान	-10.7345
भूष	-10.7345
मपा	-10.7345
भूतो	-10.7346
नल	-10.7347
मण्डित	-10.7348
▁वैस्वदेव	-10.735
▁सर्वार्थ	-10.7352
▁वसति	-10.7352
प्रकरणे	-10.7352
▁रजनी	-10.7353
तथ	-10.7355
▁चोदित	-10.7362
▁देवान्	-10.7363
ब्रव	-10.7364
द्ब्रह्म	-10.7364
▁संचिन्त्य	-10.7368
▁नास्य	-10.737
▁किञ्चिद्	-10.7371
ेऽन्य	-10.7372
▁नभ	-10.7372
ाकीर्ण	-10.7373
मूत्र	-10.7373
कत्वेन	-10.7375
▁तदेत	-10.7376
यव	-10.7376
परायण	-10.7377
ाभिज्ञा	-10.738
च्छास्त्र	-10.7381
▁हेतोर्	-10.7382
मानेन	-10.7382
त्युप	-10.7383
▁इत्येक	-10.7386
▁तदिति	-10.7387
मृष्ट	-10.7389
ऽन्य	-10.7391
▁अग्निर्	-10.7391
▁अध्यात्म	-10.7392
मज	-10.7393
वर्धन	-10.7394
▁खेद	-10.7394
▁दयित	-10.7397
▁जहि	-10.7399
▁रसायन	-10.7402
ांस्त	-10.7403
हन्ति	-10.7406
द्यु	-10.7406
▁सार्व	-10.7406
▁सीतल	-10.7407
▁सक्तिः	-10.7407
▁युध्य	-10.7408
▁हास्य	-10.7409
▁तथता	-10.7409
▁नै	-10.741
ग्निं	-10.7412
संस्थान	-10.7414
▁महेस्वरः	-10.7418
ध्ययन	-10.742
कुर्वन्ति	-10.7421
ालम्ब	-10.7425
सोऽ	-10.7425
निर्वाण	-10.7427
▁प्रतिबन्ध	-10.7427
मन्न	-10.7428
▁इदानीम	-10.7431
नै	-10.7432
दृसा	-10.7437
नरक	-10.744
▁गुणः	-10.7442
▁मनुष्या	-10.7443
ोऽद्य	-10.7444
▁वामन	-10.7444
▁उत्तरपद	-10.7445
▁सीद	-10.7446
चेतस	-10.7449
▁वेगेन	-10.745
▁दोषा	-10.745
▁कूर्म	-10.7452
▁तत्तु	-10.7455
म्भो	-10.7456
श्र	-10.7456
▁दूषयति	-10.7456
▁सीर्ष	-10.7456
पृष्ट	-10.7456
▁सिरसि	-10.7457
पः	-10.7458
▁सुभं	-10.7458
▁भृसम्	-10.7459
▁अकृत	-10.7459
▁प्रसंस	-10.7461
▁वृक	-10.7462
ितेन	-10.7464
यमाण	-10.7465
▁धिया	-10.7465
श्व	-10.7466
▁भूतं	-10.7466
सुन्दर	-10.7467
▁तामस	-10.7469
▁दातव्य	-10.7469
▁जन्य	-10.7471
▁लाघव	-10.7472
ताम्र	-10.7472
मरु	-10.7473
▁स्वच्छ	-10.7474
▁ज्ञापक	-10.7474
▁चेष्ट	-10.7475
स्चक्र	-10.7476
▁उत्पद्यते	-10.7476
मादि	-10.7477
▁निष्फल	-10.7478
▁पुच्छ	-10.7478
▁दिवाकर	-10.748
▁दुःखित	-10.748
▁वट	-10.7481
ाख्याय	-10.7482
सूक्त	-10.7484
षष्ठ	-10.7485
▁द्य	-10.7485
मानसः	-10.7485
▁पक्षिण	-10.7489
सार्दूल	-10.749
किरण	-10.7492
▁साब्द	-10.7493
▁चक्षुर्विज्ञान	-10.7493
गार	-10.7495
▁संवर	-10.7499
▁वारुण	-10.7499
▁न्याय्य	-10.7504
▁ह्येष	-10.7509
वगत	-10.7509
▁आय	-10.751
ध्यवसाय	-10.751
▁भविष्यतीति	-10.7513
▁निरुद्ध	-10.7513
▁रजः	-10.7515
▁मातुल	-10.7517
भूतस्य	-10.7518
मपर	-10.7518
भाव्य	-10.7519
▁देवासुर	-10.752
भूद्	-10.7521
कुच	-10.7521
िरेव	-10.7522
मीस	-10.7524
▁भृङ्ग	-10.7524
▁हेतुर्	-10.7526
▁रूक्ष	-10.7527
प्रमत्त	-10.7528
लज्ज	-10.7529
ोपमम्	-10.7531
नुत्तरायां	-10.7532
▁कुञ्जर	-10.7533
प्रमाणं	-10.7535
▁ज्याय	-10.7537
▁आचार	-10.7537
ोत्पद्यते	-10.7538
▁कठिन	-10.7538
▁बली	-10.7539
ोत्तमः	-10.7539
मिमां	-10.754
सङ्कल्प	-10.754
ापेक्षा	-10.7541
ारं	-10.7544
दिग्	-10.7545
▁मन्त्रिण	-10.7545
स्स्व	-10.7545
▁हिंसा	-10.7549
सामर्थ्यात्	-10.7549
विषम	-10.755
▁धा	-10.755
ायमान	-10.7553
र्यस्य	-10.7556
न्नपि	-10.7557
पाद्य	-10.7557
▁सुखी	-10.7557
▁विद्ध	-10.7557
मुपागत	-10.7559
नागत	-10.7559
▁निमित्तं	-10.7563
▁मैत्र	-10.7564
▁सेतु	-10.7564
▁ज्ञाति	-10.7565
परीक्ष	-10.7567
ङ्कर	-10.757
समन्वितः	-10.757
डु	-10.7572
र्जित	-10.7572
मुष्य	-10.7574
▁विस्तार	-10.7577
ादीन	-10.7578
▁ज्ञातव्य	-10.7579
ापवाद	-10.758
▁कथिता	-10.758
मुत्पादय	-10.7581
गृहं	-10.7581
ाकर	-10.7582
नाना	-10.7583
▁वितर्क	-10.7584
व्यापि	-10.7585
ारभ्य	-10.7585
स्सर्व	-10.7585
▁सामानाधिकरण्य	-10.7586
पद्येत	-10.7586
▁पर्यायेण	-10.7586
▁राघवः	-10.7587
▁व्रतं	-10.7588
▁द्रष्टव्यः	-10.7588
▁महि	-10.7589
▁व्याख्या	-10.7589
योरेव	-10.759
▁प्रत्ययः	-10.759
ग्निर	-10.7592
▁विबुध	-10.7594
▁सकृत्	-10.7597
▁वेदितव्यः	-10.7602
मवाप्नुयात्	-10.7603
ल्व	-10.7603
▁कुच	-10.7603
▁भरद्वाज	-10.7603
▁सौभाग्य	-10.7604
भीष्ट	-10.7604
▁भूतेषु	-10.7606
स्त्वां	-10.7608
भूते	-10.7609
▁जातं	-10.761
▁निहित	-10.7612
▁क्षर	-10.7616
मन्यथा	-10.7616
▁परस्परं	-10.7617
▁वसिष्ठः	-10.762
▁जपेत्	-10.7623
▁मदीय	-10.7625
िणां	-10.7625
विभव	-10.7626
यसि	-10.7627
▁हितं	-10.7628
▁नह्य	-10.7631
ज्जल	-10.7632
▁विस्मित	-10.7633
▁णि	-10.7633
न्यतर	-10.7638
िमे	-10.7639
भूतः	-10.764
▁सरीरे	-10.7641
▁प्रायस्चित्तं	-10.7642
मोद	-10.7644
सम्पद	-10.7646
▁कर्त	-10.7646
▁अस्माकं	-10.7646
▁रसो	-10.7648
▁यथाक्रमम्	-10.7648
ैवेति	-10.7651
▁समी	-10.7652
▁कस्चि	-10.7652
▁जित्वा	-10.7653
संहार	-10.7656
▁सिखर	-10.7658
स्तस्माद	-10.7658
हान	-10.7658
▁ततस्तु	-10.7659
भ्यस्च	-10.7659
ाधिपः	-10.7661
▁कृतार्थ	-10.7661
माणः	-10.7661
▁उभौ	-10.7661
▁अपरे	-10.7662
ापयति	-10.7662
▁रज्जु	-10.7664
सिष्ट	-10.7667
घटित	-10.7669
र्भवेत्	-10.767
जड	-10.7671
च्छत	-10.7671
लीक	-10.7673
▁परामर्स	-10.7678
▁किंचिद्	-10.7678
न्मम	-10.7679
▁पुरुषा	-10.7681
▁त्वर	-10.7681
भिधेय	-10.7681
विपुल	-10.7681
▁तीर्थं	-10.7684
▁ऽन	-10.7684
▁गृण	-10.7685
▁तृप्ति	-10.7686
▁प्लव	-10.7686
्वाकारज्ञता	-10.7686
▁मनुष्याणां	-10.7687
ोत्तमम्	-10.7691
▁प्रतिष्ठापय	-10.7692
नुत्तर	-10.7693
▁वेदन	-10.7695
मज्ज	-10.7695
▁सार्ध	-10.7696
▁धीमता	-10.7698
▁प्रयुज्यते	-10.77
भिक्ष	-10.7702
विमल	-10.7703
▁रजो	-10.7704
ात्तत्	-10.7705
▁रोच	-10.7707
ेऽन	-10.771
णाम्	-10.7711
िष्यसि	-10.7713
▁उष्ण	-10.7715
▁तनू	-10.7715
वर्त्य	-10.7715
▁धनुष	-10.7718
विवक्षित	-10.7719
स्तेषाम	-10.772
निन्दित	-10.7721
▁चिन्	-10.7721
▁चत्वार	-10.7722
व्यव	-10.7723
मागम्य	-10.7723
▁माल	-10.7725
▁देवत	-10.7725
ित्याह	-10.7727
भ्युदय	-10.7728
▁परेषां	-10.7729
वस्थ	-10.7729
द्रु	-10.7731
▁अचिन्त्य	-10.7731
ायैव	-10.7732
ुन्	-10.7732
प्येत	-10.7735
▁दान्त	-10.7737
ागता	-10.7738
चित्तं	-10.774
गः	-10.774
धर्मता	-10.774
▁वर्णा	-10.774
▁हूं	-10.7741
▁वचनमब्रवीत्	-10.7743
▁कृतो	-10.7745
हंकार	-10.7745
▁तृतीये	-10.7745
▁विष्णोर्	-10.7745
धिपति	-10.7748
नन्तरं	-10.7749
राज्ञ	-10.775
निरूपित	-10.7751
मातर	-10.7751
यन्तो	-10.7751
▁प्रतिपद्य	-10.7755
वान्तर	-10.7756
▁सान्त्व	-10.7756
▁वीणा	-10.7758
सतसहस्र	-10.7761
नित्यं	-10.7762
▁कथयन्ति	-10.7766
न्मह	-10.7767
नीया	-10.7767
पन्न	-10.7768
▁स्रद्ध	-10.777
▁पुरे	-10.7771
▁यत्नेन	-10.7773
▁दाप्य	-10.7775
नद्ध	-10.7777
▁सकट	-10.7777
▁पुत्रस्य	-10.7778
▁महायसाः	-10.778
विहीन	-10.778
▁पादप	-10.7785
▁तृप्त	-10.7787
▁रक्षो	-10.779
▁लोको	-10.7791
दर्भ	-10.7793
वलम्ब	-10.7794
महो	-10.7794
▁सास्रव	-10.7795
▁सिसिर	-10.7797
दर्प	-10.7799
▁विनष्ट	-10.78
समुच्चय	-10.7802
कृतः	-10.7803
▁त्विति	-10.7804
▁नृणाम्	-10.7804
ुषित	-10.7804
विना	-10.7806
रक्षित	-10.7808
पाट	-10.7809
▁सक्रो	-10.7815
पत्त्या	-10.7816
▁न्यायेन	-10.7816
वैराग्य	-10.7818
▁आत्मनो	-10.7819
रुध्य	-10.782
▁एवंविध	-10.7824
▁भवतीत्य	-10.7825
▁सोमस्य	-10.7826
▁इत्याद्य	-10.7827
▁चेतना	-10.7832
वत्सल	-10.7834
धातुः	-10.7838
▁तण्डुल	-10.7839
दैवत	-10.7839
ाभिनिवेस	-10.784
▁अष्टादस	-10.7842
▁सप्तमी	-10.7844
्वी	-10.7844
▁सिखा	-10.7845
▁एकदेस	-10.7846
▁चाह	-10.7848
धुर	-10.785
▁दिवः	-10.785
▁ज्योतिर	-10.785
▁उत्थाय	-10.7851
▁सिक्षितव्यम्	-10.7852
सक	-10.7852
▁सत्त्वाः	-10.7852
▁संसारे	-10.7852
▁मागध	-10.7855
द्भ्य	-10.7855
▁पुरोडास	-10.7855
रुद	-10.7856
ासंभव	-10.7857
▁परमां	-10.7858
पेक्षित	-10.7858
ाध्व	-10.7861
▁सयान	-10.7863
▁जगति	-10.7864
▁उपसङ्ख्यानम्	-10.7866
▁ज्योतिष्टोम	-10.787
▁यमुना	-10.787
कुत	-10.7873
▁समेत्य	-10.7873
▁राजस	-10.7874
▁नियतं	-10.7878
ालि	-10.788
रूपे	-10.7882
वर्गः	-10.7882
▁बलवान्	-10.7883
▁तदन्त	-10.7885
बुद्धक्षेत्र	-10.7888
▁समागत	-10.7889
रुद्ध	-10.789
▁ब्रह्मैव	-10.7891
▁यथाभूतं	-10.7892
काञ्चन	-10.7892
▁वायुः	-10.7893
मुग्र	-10.7893
▁वल्लभ	-10.7897
▁आस्चर्य	-10.7899
ानित्य	-10.79
ुत्थाय	-10.7906
रूपम्	-10.7907
ुल	-10.7907
धर्मिण	-10.7907
▁प्रधानं	-10.7908
वेदनीय	-10.791
विरोधात्	-10.791
▁उक्थ	-10.791
▁प्रबोध	-10.7915
ान्सर्वान्	-10.7918
▁विख्यात	-10.7918
लिका	-10.792
ाधिक्य	-10.7921
कुलं	-10.7921
▁पौत्र	-10.7922
स्कर	-10.7923
नुत्पन्न	-10.7924
धिगत	-10.7925
▁हीदं	-10.7926
पुन	-10.7927
ब्रुवन्	-10.7927
▁स्रद्धया	-10.7928
▁वाञ्छ	-10.7931
▁समुदय	-10.7931
प्रस	-10.7932
वरुण	-10.7934
▁देवपुत्र	-10.7934
▁योगः	-10.7936
विन	-10.7939
ुत्थान	-10.7941
▁कृत्	-10.7941
विच्छेद	-10.7943
▁व्यवस्थितः	-10.7944
भिव्यक्त	-10.7945
प्रथ	-10.7945
▁नन्दन	-10.7945
संहित	-10.7949
▁अस्त्र	-10.7951
▁रमणीय	-10.7952
ार्यसत्य	-10.7953
न्नम	-10.7954
ानुकूल	-10.7955
ब्रह्मा	-10.796
मुपैति	-10.796
ग्निर्	-10.796
प्युप	-10.7961
▁स्वादु	-10.7961
पक्व	-10.7963
▁ग्रहणम्	-10.7965
▁भवन्तु	-10.7965
ेषाम्	-10.7966
्यथ	-10.7967
▁यज्	-10.7968
नपेक्ष	-10.7969
▁द्वैत	-10.797
ग्नी	-10.7971
▁मि	-10.7972
योस्	-10.7973
▁विमुक्ति	-10.7975
▁राज्ञां	-10.7978
तादृस	-10.7979
ह्रद	-10.7979
▁प्रथमे	-10.798
▁यत्स	-10.7982
▁मानवः	-10.7983
समीप	-10.7984
▁द्विप	-10.7987
भिषिक्त	-10.7987
▁नृपति	-10.7987
मास्रय	-10.799
▁परासर	-10.7991
स्माभिः	-10.7993
िष्ठा	-10.7994
▁स्तव	-10.7995
कारान्त	-10.7998
▁नय	-10.7998
▁काङ्क्ष	-10.7998
▁ऐन्द्र	-10.8
▁दंष्ट्र	-10.8003
षण्ड	-10.8004
▁स्वरूपेण	-10.8005
मिम	-10.8008
▁मृ	-10.8009
▁परत्र	-10.801
विधा	-10.8011
कत्वात्	-10.8012
त्यज	-10.8014
निज	-10.8015
▁मल्ल	-10.8016
मृतं	-10.8016
रप्य	-10.8018
▁पृथक्पृथक्	-10.8021
▁बुद्ध्य	-10.8021
▁तत्फल	-10.8022
▁सिवा	-10.8024
दिक्	-10.8024
▁संदेह	-10.8025
प्युक्त	-10.8027
▁ततस्	-10.8029
▁प्रकृत्या	-10.8029
ग्ध	-10.803
▁बाह	-10.8032
जनकत्व	-10.8033
विपर्यास	-10.8036
ाननु	-10.8038
नाभ	-10.8039
दक्षिणा	-10.8039
▁चतुरस्र	-10.8041
सूय	-10.8042
विस्मय	-10.8044
▁सिवः	-10.8046
मृद	-10.805
▁व्यूह	-10.805
मण्डले	-10.8051
▁योज्य	-10.8052
▁कार्यकारणभाव	-10.8052
▁भवत्येव	-10.8052
यिष्यन्ति	-10.8053
▁दिसा	-10.8054
ांसेन	-10.8054
▁मन्मथ	-10.8055
▁इत्यपि	-10.8056
प्रवाह	-10.8057
▁विभज्य	-10.8057
▁सुकुमार	-10.8058
विकृत	-10.806
वैयर्थ्य	-10.806
▁तस्मिन्नेव	-10.8061
▁कन्यां	-10.8062
संमत	-10.8062
काङ्क्ष	-10.8063
▁मुण्ड	-10.8063
कुर्वन्	-10.8064
▁कुर्वाण	-10.8065
▁जगतो	-10.8066
▁अष्टम	-10.8066
▁अपा	-10.8067
भ्रष्ट	-10.8068
निबद्ध	-10.8068
नुत्	-10.8069
ाद्युप	-10.8071
परम्परा	-10.8072
▁रथेन	-10.8076
व्यतिरेकेण	-10.8077
मन्	-10.8077
▁प्रायेण	-10.8077
मेय	-10.8078
धाम	-10.8078
ोपपद्यते	-10.8078
ऽस	-10.8078
कालिक	-10.8081
र्ति	-10.8081
▁बहवः	-10.8082
ित्यादिना	-10.8082
मध	-10.8083
▁वेदा	-10.8084
▁देवेषु	-10.8085
▁भ्रू	-10.8088
नाम्ना	-10.8088
ानुसारेण	-10.8089
▁यज्ञं	-10.8089
लक्ष्मण	-10.809
स्तावत्	-10.809
▁अपूर्व	-10.809
▁विषं	-10.8091
परिच्छेद	-10.8094
▁व्रण	-10.8095
▁प्रदक्षिण	-10.8099
▁संधि	-10.81
र्व्य	-10.8101
र्षय	-10.8102
▁विरज	-10.8104
व्रण	-10.8104
▁युष्म	-10.8105
दसा	-10.8107
▁रोद	-10.8109
▁रूपादि	-10.8111
नुत्तम	-10.8113
निष्पन्न	-10.8113
त्रिंस	-10.8115
▁पाणिना	-10.8118
ात्मेति	-10.8119
ांस्	-10.812
यात	-10.8121
रूप्य	-10.8122
द्वै	-10.8124
ध्यात्म	-10.8124
सन्तान	-10.8126
▁उद्यान	-10.8128
होरात्र	-10.813
▁यावन्त	-10.813
▁भाषते	-10.8131
च्छि	-10.8131
▁स्रोत्रिय	-10.8132
▁पूर्वान्त	-10.8134
▁विभज	-10.8135
दर्सी	-10.8138
▁सार्थवाह	-10.8138
भुवि	-10.8138
दौ	-10.8139
▁समागम	-10.8139
▁प्राप्तो	-10.814
▁अनागत	-10.8142
▁उदार	-10.8147
▁रक्षण	-10.8147
▁जात्य	-10.8151
िनम्	-10.8153
▁मूल्य	-10.8153
▁नकुल	-10.8154
▁अप्रमेय	-10.8154
▁तत्कथं	-10.8157
▁चिच्छेद	-10.816
▁महासत्त्वा	-10.8161
सिरस	-10.8161
▁महाबल	-10.8164
▁वृषा	-10.8165
मनाः	-10.8168
▁रोदसी	-10.8169
▁नोपपद्यते	-10.8169
▁सौवर्ण	-10.8175
हते	-10.8179
दिने	-10.818
▁गौरी	-10.8181
ाद्ध	-10.8181
▁समर	-10.8181
केवल	-10.8182
परिज्ञान	-10.8182
भागे	-10.8183
ोपपत्तेः	-10.8183
यितुम्	-10.8183
▁मातरं	-10.8184
▁पञ्चभिः	-10.8185
▁कतमत्	-10.8187
मनोहर	-10.8188
विषयक	-10.8189
कर्मक	-10.8189
▁धर्मपर्याय	-10.819
▁संघात	-10.8194
क्षणिक	-10.8195
▁जलं	-10.8196
ामल	-10.8196
लोहित	-10.8197
▁केसवः	-10.8197
युता	-10.8198
▁तत्कार्य	-10.82
ानर्थक्य	-10.8201
ाधेय	-10.8201
पारमित	-10.8201
संवाद	-10.8203
▁कुलपुत्रो	-10.8203
▁जन्तु	-10.8204
तीनां	-10.8205
त्वाय	-10.8206
स्क	-10.8207
▁मिथुन	-10.8208
टिका	-10.8208
तन्मात्र	-10.8209
च्छ्रुत	-10.8211
भृस	-10.8211
▁एवमेत	-10.8211
ाग्र्य	-10.8212
यस्	-10.8213
तेजो	-10.8215
ेऽर्थे	-10.8215
ाद्व	-10.8218
योजित	-10.8226
▁सोमो	-10.8227
▁सर्वमेव	-10.8227
▁प्राचीन	-10.8229
▁वक्ष्यते	-10.823
▁सत्कार	-10.8232
▁प्रजानां	-10.8232
तेज	-10.8233
भान	-10.8235
मत्य	-10.8235
समायुक्त	-10.8236
▁वस्त्व	-10.8237
मन्दिर	-10.8239
स्वयं	-10.824
▁स्रान्त	-10.8244
कलाप	-10.8245
विद्	-10.8248
षण	-10.8248
प्रज्ञापारमिता	-10.8248
▁प्रह्लाद	-10.8249
जीर्ण	-10.825
ाष्टक	-10.8251
ैर्युक्त	-10.8251
▁वदति	-10.8255
▁प्रीत्या	-10.8255
निष	-10.8256
गताः	-10.8256
▁यत्ते	-10.8258
▁कुब्ज	-10.8259
▁विषयः	-10.8259
▁प्राणो	-10.8261
प्येवं	-10.8262
कर्माण	-10.8262
▁फट्	-10.8263
कर्षण	-10.8268
▁चक्रं	-10.8268
न्तरा	-10.8268
▁जननी	-10.8269
▁धुर	-10.827
पराक्रम	-10.827
▁यत्त्व	-10.8271
ात्मीय	-10.8272
▁विविधानि	-10.8274
▁सद्य	-10.8275
▁व्यवस्था	-10.8276
▁सखे	-10.8277
ानभि	-10.8279
ध्वन	-10.8279
िनीम्	-10.8279
युग्म	-10.8279
▁राध	-10.8282
▁मध्व	-10.8282
▁महर्षि	-10.8283
▁कीर्तित	-10.8283
हिंस	-10.8284
▁महात्मान	-10.8284
▁हव	-10.8286
ायुष्म	-10.8288
▁स्वत	-10.8289
चतुर्	-10.8292
▁क्षत्रिया	-10.8292
र्त्त	-10.8293
माख्यात	-10.8294
▁महेष्वास	-10.8295
्योः	-10.8296
पटल	-10.8296
▁सीमा	-10.8298
▁निस्च	-10.8299
▁याज्ञवल्क्य	-10.8299
निमित्ताप्रणिहित	-10.83
▁कस्यचिद	-10.83
मात्रम्	-10.83
▁दी	-10.83
समुदाचार	-10.8301
ीयेत	-10.8303
सत्रु	-10.8304
कस्च	-10.8304
▁पतिं	-10.8306
रोह	-10.8307
▁देवराज	-10.831
धरो	-10.831
कृत्स्न	-10.8311
▁विवृत	-10.8311
कर्मणः	-10.8312
मित्यत्र	-10.8313
सिक्त	-10.8315
▁सर्वैः	-10.8318
संतान	-10.8318
व्योम	-10.8318
ायोगात्	-10.8319
द्रोह	-10.8319
▁हविर्	-10.8321
▁तादात्म्य	-10.8322
▁हस्ते	-10.8322
▁भेदेन	-10.8323
▁वायव	-10.8325
▁वादिन	-10.8325
चैतन्य	-10.8327
▁सीलं	-10.8328
कां	-10.833
▁पानीय	-10.833
ान्वितम्	-10.833
▁चेत्न	-10.8333
▁विरोधः	-10.8334
ास्रयत्व	-10.8334
▁नगरं	-10.8336
दपि	-10.8337
▁सुरभि	-10.8337
मर्हसि	-10.8337
प्रदर्सन	-10.8341
▁घर्म	-10.8342
▁लज्जा	-10.8342
▁तर्ह्य	-10.8344
ोऽन्त	-10.8345
ाट	-10.8349
▁क्रोस	-10.8352
त्तत्	-10.8353
मागतः	-10.8355
ज्झ	-10.8355
विवाद	-10.8355
न्यः	-10.8358
▁आरम्भ	-10.8358
▁कानन	-10.836
विधिना	-10.8361
प्रयोजक	-10.8365
मृष	-10.8366
कारणात्	-10.8367
यतो	-10.8368
राह	-10.837
▁सुन	-10.8371
ाकृतिः	-10.8372
भुजा	-10.8373
▁वैधर्म्य	-10.8374
▁परित्यक्त	-10.8375
▁ग्राहक	-10.8375
लभते	-10.8376
्युवाच	-10.8378
▁तस्मात्स	-10.838
स्तस्मिन्	-10.838
▁सत्यां	-10.8381
धय	-10.8387
▁वर्षा	-10.8388
यितु	-10.8388
भिष	-10.8389
▁पुरुषर्षभ	-10.839
व्यग्र	-10.8391
▁त्रयः	-10.8393
नुवाक	-10.8393
वासस	-10.8394
▁काच	-10.8395
्यतामिति	-10.8395
प्रतिपादक	-10.8395
▁उपाध्याय	-10.8396
▁पुरस्कृत्य	-10.8397
▁अधिकार	-10.8399
▁गुरू	-10.8399
रुज	-10.8399
दन्	-10.8399
▁तिष्ठत	-10.8401
▁नेह	-10.8402
▁प्रवाह	-10.8403
▁संसृष्ट	-10.8404
▁पुंस	-10.8405
▁सुरासुर	-10.8406
लोपे	-10.8409
द्यापि	-10.8409
ापूर्व	-10.841
न्तःपुर	-10.8412
▁प्रज्ञापारमितां	-10.8413
दारुण	-10.8413
ऽय	-10.8413
▁सिद्धिः	-10.8414
▁मरुत	-10.8414
▁तिमिर	-10.8415
▁द्व	-10.8417
गाः	-10.8417
▁महारथः	-10.8417
ोपहत	-10.8418
ुरु	-10.842
मनस	-10.8425
▁वियोग	-10.8426
तन्	-10.8428
▁तावत	-10.8429
प्रसव	-10.8431
िकानां	-10.8433
▁सहकारि	-10.8433
▁मार्गेण	-10.8433
ासीद	-10.8434
यसा	-10.8435
सिरो	-10.8435
▁तज्ज	-10.8436
कुर्यात्	-10.8438
▁मनसो	-10.8439
संगृहीत	-10.8439
व्र	-10.844
ुस्	-10.844
नुष्ठित	-10.844
विदां	-10.8441
ाह्व	-10.8442
भिद्य	-10.8443
षू	-10.8444
▁भागवत	-10.8445
▁परिवार	-10.8446
▁प्रसम	-10.8448
▁यत्तत्	-10.8448
▁काकुत्स्थ	-10.8451
▁आत्मनः	-10.8452
▁रास	-10.8452
▁मुक्त्वा	-10.8454
पिष्ट	-10.8454
▁वाप्य	-10.8454
▁लि	-10.8456
क्स	-10.8457
▁अमी	-10.8457
▁नामधेय	-10.8458
ीस्वरः	-10.8459
▁दासी	-10.846
वसित	-10.8461
▁निर्माण	-10.8462
परमार्थ	-10.8464
ौदन	-10.8464
दुप	-10.8464
▁प्रतिष्ठ	-10.8465
▁भोज्य	-10.8465
सौच	-10.8467
मुत्तम	-10.8468
▁विपर्यास	-10.8469
ायात	-10.847
पनीय	-10.847
स्रोत्र	-10.847
▁पूर्वे	-10.8471
ाभिधेय	-10.8472
▁पटु	-10.8474
व्यवस्थित	-10.8475
▁कोऽ	-10.8476
▁नैत	-10.8476
▁ऐस्वर्य	-10.8476
परिगृहीत	-10.8477
▁ब्रुवत	-10.8477
▁स्वभावो	-10.8477
स्ताव	-10.8478
▁विदध	-10.8478
▁महीयते	-10.8479
▁मनसः	-10.8479
मृदु	-10.848
रक्षण	-10.8481
ाङ्गद	-10.8482
▁सर्वदेव	-10.8485
ालंबन	-10.8492
▁योजना	-10.8493
▁कुर्वत	-10.8494
पवन	-10.8494
ासङ्ग	-10.8494
न्तःकरण	-10.8495
मन्तर	-10.8495
▁वदेत्	-10.8497
द्रोण	-10.8498
सोभित	-10.8498
कान्ति	-10.8499
▁पातक	-10.8499
स्माभिर	-10.85
▁सुद्धं	-10.8501
सत्त	-10.8501
▁प्रणिपत्य	-10.8502
समापत्ति	-10.8503
▁केवलम्	-10.8503
▁विचार्य	-10.8508
▁विस्वरूप	-10.8509
सून्यतामुपादाय	-10.8513
ानघ	-10.8515
हूत	-10.8515
भ्यधिक	-10.8516
तिल	-10.8516
पृथक्	-10.8518
▁संहत	-10.8519
धरं	-10.8521
ितया	-10.8522
पिब	-10.8523
टु	-10.8523
▁वसा	-10.8525
▁पांसु	-10.8525
पस्यन्	-10.8526
प्रतिबिम्ब	-10.8529
पाण्डव	-10.853
समाप्त	-10.853
ापाय	-10.8531
▁वस्तुनि	-10.8532
ङ्गम	-10.8536
▁कदाचिद्	-10.8536
कीर्तन	-10.8539
प्रविष्ट	-10.8539
▁रासि	-10.854
▁तन्तु	-10.854
▁भगवं	-10.8541
▁यज्ञे	-10.8541
धार्य	-10.8544
वतीर्ण	-10.8546
ञ्जलि	-10.8547
▁लभेत्	-10.8547
▁पलाय	-10.8549
यौवन	-10.8553
संयुतम्	-10.8554
ेथा	-10.8556
प्रदा	-10.8559
▁समन्वित	-10.8561
▁बाल्य	-10.8565
▁हुं	-10.8565
▁विभ्रम	-10.8566
साक	-10.8568
▁तमस	-10.8569
ऽन	-10.8569
▁मुद्र	-10.857
▁पित्र्य	-10.857
वसन	-10.857
वसे	-10.857
▁चेत्य	-10.8572
स्फोट	-10.8573
▁चित्रं	-10.8573
▁मुमोच	-10.8573
यान्ति	-10.8573
▁करणं	-10.8576
▁पार्थिवः	-10.8577
ामय	-10.8577
▁बलात्	-10.8577
परिपूर्ण	-10.8578
▁वृन्द	-10.8578
पतेः	-10.8579
त्वेनैव	-10.8579
मवाप्नोति	-10.8579
ाभं	-10.8581
ेन्द्रियाणि	-10.8583
निरपेक्ष	-10.8589
▁वाहन	-10.8589
▁वृत्तिः	-10.859
▁त्रयाणां	-10.859
▁सन्दिग्ध	-10.8591
▁मलय	-10.8591
▁सपक्ष	-10.8592
▁स्फुर	-10.8593
लवण	-10.8594
योग्यता	-10.8594
नामधेय	-10.8596
▁त्वाम	-10.8599
ोपल	-10.8599
▁चेह	-10.86
▁धनुः	-10.86
त्वादित्यर्थः	-10.8601
ासेष	-10.8601
▁ऽत	-10.8602
▁करिष्य	-10.8603
▁जानामि	-10.8604
▁बोध्य	-10.8607
▁प्रयोजनं	-10.8608
▁दातु	-10.8611
▁देसान्तर	-10.8611
सान्ति	-10.8613
▁निरन्तर	-10.8614
▁मुहुः	-10.8615
ङ्क्त	-10.8616
▁अस्त्य	-10.8616
▁राय	-10.8617
भ्रंस	-10.8617
▁कल्पते	-10.8618
यतु	-10.8618
क्षत्रिय	-10.8619
▁दोषो	-10.862
्नो	-10.8621
दम्	-10.8621
▁राक्षसी	-10.8622
कर्तव्यम्	-10.8623
▁साक्षिण	-10.8624
धनं	-10.8624
ममृत	-10.8625
▁परीक्ष	-10.8626
▁स्थाप्य	-10.8626
न्त्व	-10.8627
ाधिष्ठित	-10.8628
▁तेभ्यो	-10.8629
विलक्षण	-10.863
▁परिणत	-10.863
▁जीवन	-10.863
खर	-10.8631
स्नात	-10.8631
सिद्धिरिति	-10.8632
्नि	-10.8632
विषयः	-10.8636
नुज्ञात	-10.8636
▁भानु	-10.8637
▁पूजयेत्	-10.8641
▁पुरस्तात्	-10.8644
▁योजय	-10.8645
▁भृस	-10.8645
▁समीक्ष्य	-10.8645
कुरुते	-10.8645
रम्य	-10.8645
▁रोचते	-10.8647
▁कण्ठे	-10.8649
▁साधित	-10.8649
▁अभेद	-10.8649
▁महात्मनाम्	-10.865
▁संबन्धः	-10.865
ाब्रवीत्	-10.8651
ेकादस	-10.8652
▁याचित	-10.8652
▁निरास	-10.8653
▁समुत्	-10.8653
▁हेतुत्व	-10.8654
▁बृहद्	-10.8656
ेकैक	-10.8658
▁वेताल	-10.8658
▁वप	-10.8661
▁हु	-10.8662
▁तदुच्यते	-10.8662
तायाः	-10.8663
पोष	-10.8667
▁द्विपद	-10.867
मुदा	-10.8672
सिरा	-10.8674
▁परिघ	-10.8678
▁विस्वस्य	-10.8678
▁इत्थ	-10.8681
▁तीर	-10.8684
न्नाह	-10.8686
प्राधान्य	-10.8686
▁ज्योतिः	-10.8687
तरङ्ग	-10.8687
मल्प	-10.8688
चित्ता	-10.8689
ास्रिता	-10.8689
ास्र	-10.8691
▁पीड	-10.8691
▁कृष्णेन	-10.8694
प्रत्यया	-10.8694
▁प्रजायते	-10.8695
ानो	-10.8696
मागम	-10.8696
▁ध्यानपारमिता	-10.8699
मासु	-10.87
▁ब्रह्मण्य	-10.8703
षी	-10.8703
सकृत्	-10.8704
▁सेते	-10.8705
▁चैत्र	-10.8706
▁विनियोग	-10.8706
▁सपत्न	-10.8706
▁स्लेष्म	-10.8709
▁हुतासन	-10.8709
▁स्रियं	-10.871
भिनन्द	-10.8712
▁केसर	-10.8712
ूल	-10.8713
ाभिलाष	-10.8714
प्रस्थ	-10.8714
ित्वात्	-10.8716
त्त्र	-10.8716
चिकीर्ष	-10.8718
▁धर्मार्थ	-10.8721
▁विवर्ध	-10.8721
पतन	-10.8724
पञ्चक	-10.8725
▁धरा	-10.8726
ान्तरमाह	-10.8726
▁ब्रुवाण	-10.8727
▁प्रतिसंविद	-10.8727
मनसो	-10.8728
ोपक्रम	-10.8731
कोण	-10.8731
▁प्रथित	-10.8737
न्तोदात्त	-10.8737
▁महीपतिः	-10.8737
▁यद्येवं	-10.8738
▁ज्या	-10.8738
त्तु	-10.8739
▁मुनिसत्तम	-10.874
▁मन्दर	-10.8741
नासनम्	-10.8741
न्मुख	-10.8743
▁मित	-10.8745
▁औप	-10.8745
▁योग्यता	-10.8747
ादर्थ	-10.8748
▁निराकृत	-10.8748
भक्षण	-10.8749
▁स्तोक	-10.8749
▁हस	-10.8751
ानुराग	-10.8752
▁कस्मान्न	-10.8752
रुन्ध	-10.8753
ान्निर्	-10.8754
▁दिग	-10.8754
भक्ष्य	-10.8755
▁देवेन्द्र	-10.8756
▁प्रबुद्ध	-10.8757
▁दुह	-10.8758
▁लेख्य	-10.8759
▁उर	-10.876
▁द्वयोर	-10.876
▁दक्षिणेन	-10.8761
▁भव्य	-10.8765
▁निर्जित	-10.8765
▁चर्या	-10.8767
▁प्राप्नुवन्ति	-10.8768
▁यां	-10.8769
न्त्र	-10.877
▁कौतुक	-10.877
▁दाता	-10.8771
▁यस	-10.8773
▁जागर	-10.8774
▁अन्तरिक्ष	-10.8775
▁सारद्वतीपुत्र	-10.8776
बर	-10.8778
समुद्भव	-10.8778
िकाया	-10.8779
युज	-10.878
▁द्रष्टा	-10.8781
▁विजित	-10.8783
िनीं	-10.8784
▁प्रतिषिद्ध	-10.8784
स्चतुर	-10.8785
▁घटादि	-10.8788
नित्यता	-10.8789
चीवर	-10.8789
▁ह्येत	-10.8792
▁सार्ङ्ग	-10.8792
▁लोकधातौ	-10.8793
▁रुच	-10.8794
▁पितरो	-10.8796
ापत्तिः	-10.88
करोत्	-10.8803
▁युगपत्	-10.8804
सृत्य	-10.8807
▁म्रियते	-10.8809
ोऽन्यत्र	-10.8809
▁धरणी	-10.881
▁ब्रुवन्	-10.881
▁विधिवत्	-10.881
बृह	-10.881
सुप्त	-10.8811
ाभिध	-10.8812
▁ग्रीष्म	-10.8814
साधनं	-10.8814
िन्दु	-10.8816
▁ययुः	-10.8816
▁एकेन	-10.8816
तये	-10.8816
▁भेदो	-10.8817
▁कण	-10.8817
रजत	-10.8817
▁तत्कर्म	-10.8818
▁स्थाणु	-10.882
▁जयति	-10.882
पट्ट	-10.8824
माद्य	-10.8824
▁क्षु	-10.8825
न्तर्भाव	-10.8825
▁विभीषण	-10.8826
▁पूर्वापर	-10.8828
▁चापर	-10.8829
▁योषित	-10.883
मार्गे	-10.8831
▁उद्देस	-10.8836
बुद्धिः	-10.8837
▁तदनन्तर	-10.8844
▁स्राद्धं	-10.8845
▁पण्य	-10.8846
▁प्रकृत्य	-10.8847
▁कॢप्त	-10.8848
क्रोस	-10.8848
संप्र	-10.8848
ैर्महा	-10.8848
भग्न	-10.8851
▁प्रेक्ष्य	-10.8852
जुष	-10.8853
▁धर्मधातु	-10.8858
प्रकासन	-10.8858
ेयमिति	-10.886
▁सन्धि	-10.8861
▁विराट	-10.8861
▁मृषा	-10.8863
कृप	-10.8865
निरास	-10.8866
▁एहि	-10.8866
▁धूर्त	-10.8868
हर्ता	-10.887
विस्तार	-10.8871
प्रवर	-10.8875
साहस	-10.8876
ोच्छेद	-10.8876
पादान	-10.8876
▁प्रययौ	-10.8876
परेण	-10.8879
ैर्वृत	-10.8881
पाण्डु	-10.8881
सन्धि	-10.8882
नुपलम्भ	-10.8883
▁वर्त्म	-10.8886
▁जनयति	-10.8887
▁अनुत्पाद	-10.8887
▁ही	-10.8888
चक्षुः	-10.8891
▁स्वामी	-10.8893
▁हृषीकेस	-10.8893
▁कक्ष	-10.8894
▁युक्त्या	-10.8894
सामग्र्य	-10.8895
▁पुरीं	-10.8896
मुदाहृतम्	-10.8897
निषण्ण	-10.8897
ीकरोति	-10.8899
रता	-10.89
▁सायक	-10.89
▁वणिज	-10.8901
ाज्	-10.8902
▁प्राप्तः	-10.8903
▁पुरतः	-10.8904
स्मित	-10.8907
▁तेजस	-10.8908
▁नियमेन	-10.8908
बिभ	-10.891
सती	-10.8911
देक	-10.8913
ान्वयः	-10.8916
ान्वा	-10.8916
घ्नं	-10.8917
वीचि	-10.8918
▁दीयते	-10.8919
गर	-10.8919
हेतोर्	-10.8919
▁वैदेही	-10.892
▁भूप	-10.892
▁प्रयोजक	-10.8922
्ता	-10.8922
कच	-10.8924
▁यति	-10.8926
ाभ्यन्तर	-10.8926
▁नतु	-10.8927
ग्रहे	-10.8927
▁पत्त्र	-10.8929
▁भैषज्य	-10.893
पूर्वकं	-10.8931
▁अपत्य	-10.8933
ामिष	-10.8934
मथो	-10.8935
बाधक	-10.8935
▁रूप्य	-10.8936
लेखा	-10.8936
स्पृ	-10.8936
क्रमात्	-10.8941
ानुभूत	-10.8943
विघात	-10.8944
संकुल	-10.8945
▁गच्छेत्	-10.8948
▁ञ	-10.8949
▁इन्दु	-10.8951
ाङ्गुलि	-10.8956
▁परलोक	-10.8956
▁अन्यस्य	-10.8957
स्रित	-10.8958
सम्यक्संबुद्ध	-10.8959
▁चक्षु	-10.8961
विद्याया	-10.8963
▁केचि	-10.8966
▁बालप्रिया	-10.8967
▁अनन्तर	-10.8968
पुद्गल	-10.8968
माहार	-10.8969
▁वृत्तं	-10.897
व्यवस्थान	-10.8971
▁धर्मि	-10.8973
स्चात्र	-10.8973
वत्सर	-10.8974
▁चरु	-10.8974
द्विप	-10.8974
ादिपद	-10.8976
स्लिष्ट	-10.8978
स्थूल	-10.8981
▁अनुत्तर	-10.8981
▁लव	-10.8981
ज्ञप्त	-10.8981
तस्माद	-10.8985
ादिभ्यो	-10.8985
▁भवती	-10.8987
त्य्	-10.8988
▁पूर्वक	-10.899
▁प्रतिगृह्य	-10.8993
ासिष	-10.8993
सुरा	-10.8994
ोन्मुख	-10.8994
पत्त	-10.8996
ेऽत्र	-10.8997
पित्त	-10.9001
▁उदित	-10.9001
▁पाच	-10.9002
नीति	-10.9002
विक्रमः	-10.9003
तारं	-10.9006
ोष्य	-10.9006
▁चिकीर्ष	-10.9008
▁अनि	-10.9013
समन्वागत	-10.9013
▁महामुने	-10.9014
▁वयस्य	-10.9014
▁पीन	-10.9014
▁ज्ञेयम्	-10.9015
ृत्व	-10.9018
▁मनःसंस्पर्स	-10.9019
▁अमात्य	-10.9021
गन्त	-10.9024
वाक्यार्थ	-10.9025
▁दृष्टो	-10.9026
▁सर्वस्व	-10.9027
वचो	-10.9029
▁पस्चा	-10.9029
▁साकं	-10.903
▁हृद्य	-10.9031
▁स्वां	-10.9032
▁भेषज	-10.9033
▁अपस्य	-10.9035
संप्रयुक्त	-10.9036
▁पुरुषव्याघ्र	-10.9037
▁निमित्ते	-10.9039
ाधिकरणम्	-10.904
बध्य	-10.9041
ात्तद्	-10.9042
लिखित	-10.9043
▁भित्त्वा	-10.9045
वध्य	-10.9045
ेऽनु	-10.9046
नार्य	-10.905
रूपाणि	-10.905
▁महाप्राज्ञ	-10.905
गे	-10.905
▁वसे	-10.9052
वादिनः	-10.9052
▁चैवं	-10.9052
व्यास	-10.9053
▁काण्ड	-10.9055
▁वृषण	-10.9056
▁योजयेत्	-10.9056
ाप्रमाण	-10.9056
▁भ्रष्ट	-10.9056
▁पक्षि	-10.9056
वर्णं	-10.906
▁कथां	-10.9061
जिह्व	-10.9062
▁दृष्टे	-10.9063
ेत्यत्र	-10.9064
▁केनापि	-10.9065
मुखः	-10.9065
ोऽपर	-10.9065
परिसुद्ध	-10.9066
पादप	-10.9068
ह्व	-10.9068
ैतानि	-10.9068
▁प्रज्ञप्ति	-10.9069
▁निरीक्ष	-10.9071
हुत	-10.9071
▁एकत्व	-10.9072
▁बुद्धधर्म	-10.9073
▁भावय	-10.9075
सत्र	-10.9077
संपन्ना	-10.9078
▁गणना	-10.9078
पतिं	-10.9079
▁तन्मय	-10.908
स्माभिर्	-10.9081
ुत्थ	-10.9082
ानन्य	-10.9085
पार्थ	-10.9086
नाभि	-10.9087
पत्तौ	-10.9088
▁महती	-10.9089
▁तोष	-10.9089
▁सत्वर	-10.9091
▁मरीचि	-10.9091
न्तिक	-10.9092
▁पुनरुक्त	-10.9092
▁लोकधातुषु	-10.9094
ारूप्य	-10.9095
▁हास	-10.9095
मुक्ति	-10.9095
▁तत्पुरुष	-10.9095
दू	-10.9097
▁कुर	-10.9098
▁नस्यति	-10.9099
दुःखं	-10.9099
▁नैमित्तिक	-10.9099
योगतः	-10.9101
▁दीक्षित	-10.9102
▁क्षिप्त्वा	-10.9105
स्तिस्र	-10.9109
▁जघन	-10.9109
रण्ये	-10.9112
स्तया	-10.9112
▁चरन्ति	-10.9113
रोष	-10.9113
ानना	-10.9114
ष्टक	-10.9115
भिर्वि	-10.9115
ोन्नत	-10.9116
पताक	-10.912
▁तस्माद्य	-10.9121
ङ्गीकृत	-10.9122
सेना	-10.9122
तुमर्हसि	-10.9123
▁गु	-10.9124
तोष	-10.9126
वते	-10.9128
▁कीर्तय	-10.9129
▁कर्मसु	-10.9131
वदेव	-10.9131
वलित	-10.9132
▁तथोक्त	-10.9132
धर्मो	-10.9132
समन्वित	-10.9134
▁प्रतिष्ठाप्य	-10.9135
▁स्वजन	-10.9135
ापय	-10.9135
निधन	-10.9136
▁नैवं	-10.9137
▁पार्स्वे	-10.9137
▁गव	-10.9138
▁समादाय	-10.9138
ावच्छिन्न	-10.9139
▁प्रतिभा	-10.914
वपुष	-10.9141
▁सृणोति	-10.9141
त्र्य	-10.9142
ार्पित	-10.9143
रूपिणी	-10.9143
रिह	-10.9144
▁विर	-10.9147
▁दर्सपूर्णमास	-10.9149
▁दुहिता	-10.9149
▁प्रसक्त	-10.9151
संधि	-10.9151
▁स्मृतिः	-10.9152
ावलि	-10.9153
▁तूष्णीं	-10.9154
▁हृद	-10.9154
▁समन्तात्	-10.9154
कषाय	-10.9156
▁सक्या	-10.9157
▁वसी	-10.9158
योगिन	-10.9159
▁धत्ते	-10.916
▁जने	-10.9164
संबद्ध	-10.9165
मन्यत्	-10.9166
▁द्रौणि	-10.9166
भट	-10.9166
कल्याण	-10.9169
▁द्रविण	-10.9169
▁बिल्व	-10.917
मानाः	-10.9171
ादेसः	-10.9173
युक्तो	-10.9173
▁भवेदिति	-10.9176
▁पारि	-10.9177
ध्यास	-10.9177
वाग	-10.9178
ात्मनोऽ	-10.918
द्व्य	-10.9181
ष्वपि	-10.9181
▁प्रतिमा	-10.9182
▁निपुण	-10.9182
▁पुत्रेण	-10.9182
▁क्त	-10.9183
ोदार	-10.9184
मन्तः	-10.9184
▁मुसल	-10.9185
नारायण	-10.9187
ेऽव	-10.9189
▁भार्यां	-10.919
▁परिपृच्छ	-10.919
ाध्यक्ष	-10.9193
निर्मुक्त	-10.9194
मस्तीति	-10.9196
▁एनं	-10.9196
▁प्राच्य	-10.9197
▁लेप	-10.9197
धत्ते	-10.9202
▁रत्नानि	-10.9202
▁मूर्ध	-10.9205
मिच्छसि	-10.9206
ासम्भव	-10.9207
नुद	-10.9208
प्रज्ञप्ति	-10.9214
निचय	-10.9214
▁निपत	-10.9219
भिधा	-10.9222
▁वणिक्	-10.9222
▁तासु	-10.9222
दीय	-10.9224
ानुसय	-10.9224
करणीय	-10.9225
ञ्जय	-10.9225
▁तिक्त	-10.9226
▁तस्यै	-10.9226
▁प्रतिग्रह	-10.9226
ुव	-10.9229
तेषां	-10.923
ांसं	-10.9231
र्नि	-10.9232
ावसर	-10.9234
ेवंविध	-10.9234
ानुपपत्तिः	-10.9235
▁कच्चित्	-10.9236
▁प्लुत	-10.9238
िनौ	-10.9239
▁प्रतिसं	-10.924
▁यस्यां	-10.9241
▁सालि	-10.9242
▁अन्यत्	-10.9244
▁इयम	-10.9247
▁भण	-10.9247
▁लोकान्	-10.9248
वक्तव्य	-10.9249
▁सून	-10.925
▁चक्षुःसंस्पर्स	-10.9254
▁जिह्वासंस्पर्स	-10.9254
ाभावो	-10.9255
▁चित्तेन	-10.9255
▁रुद	-10.9255
▁स्रेयो	-10.9256
िण्य	-10.9256
▁विक्षेप	-10.9258
न्येन	-10.9258
▁व्याध	-10.926
ैस्चैव	-10.926
गूढ	-10.9263
▁पस्चिमे	-10.9263
▁बाहू	-10.9264
निदर्सन	-10.9267
मनसिकार	-10.9268
▁आदाय	-10.9268
पवर्ग	-10.927
▁याहि	-10.9271
तृष्णा	-10.9272
पद्यन्ते	-10.9272
▁इमानि	-10.9272
▁मद्भक्त	-10.9273
वर्त्म	-10.9274
▁क्षणं	-10.9275
धृति	-10.9276
मायाति	-10.9276
कोट	-10.9276
▁उपसर्ग	-10.9277
वर्तन्त	-10.9278
▁पृथ्वी	-10.9281
ग्निः	-10.9281
निविष्ट	-10.9281
लील	-10.9282
प्रती	-10.9283
विरत	-10.9284
▁वेस्म	-10.9285
▁सचेद्	-10.9286
ष्टे	-10.9287
▁विज्ञेया	-10.9287
▁अत्रोच्यते	-10.9287
▁सूर्यस्य	-10.9287
न्मूल	-10.9289
मर्त्य	-10.929
न्त्येव	-10.929
ायास्च	-10.9291
▁समुद्	-10.9291
▁सक्नोति	-10.9291
पुरःसर	-10.9293
▁चैत्य	-10.9293
▁पताका	-10.9295
ैकान्त	-10.9296
▁प्रकृतिः	-10.9296
टवी	-10.9296
▁नियमः	-10.9296
▁सामग्री	-10.9298
▁चरन्त	-10.9298
▁वाक्येन	-10.9298
▁दध्य	-10.9299
▁स्न	-10.9299
गामी	-10.9301
न्मत	-10.9301
▁द्युति	-10.9302
ित्री	-10.9304
ासनम्	-10.9304
▁कारणत्व	-10.9307
स्तीत्य	-10.9309
▁रोहिणी	-10.931
वचनेन	-10.931
ीप्सित	-10.9312
▁यज्ञो	-10.9313
▁पाहि	-10.9314
▁उरु	-10.9314
ोऽधि	-10.9315
▁तद्धि	-10.9316
िकस्य	-10.9317
▁इन्द्रः	-10.932
प्रकर्ष	-10.932
विभूषित	-10.9321
यसः	-10.9322
▁कर्मण्य	-10.9322
हन्ता	-10.9322
विवर	-10.9323
कर्मण	-10.9323
क्षार	-10.9323
▁स्यामा	-10.9326
▁मथुरा	-10.9327
तृष्ण	-10.9328
चक्षुष	-10.9329
▁समन्वय	-10.9329
▁प्रौढ	-10.933
लंकार	-10.9331
तुष्ट	-10.9332
बलात्	-10.9334
▁क्रियमाण	-10.9334
▁करे	-10.9335
सीत्य	-10.9336
▁कृमि	-10.9338
ोपवास	-10.9339
▁अवस्यं	-10.9341
पञ्चम	-10.9343
▁उमा	-10.9344
▁नियुक्त	-10.9344
लक्षणे	-10.9345
ैकेन	-10.9345
पत्त्य	-10.9345
द्भूत	-10.9345
▁घृतं	-10.9346
चिह्न	-10.9346
वल्लभ	-10.9346
योरिव	-10.9347
चिन्	-10.9348
सल्य	-10.9351
▁असत्य	-10.9352
▁वरा	-10.9353
▁महतो	-10.9355
▁स्राव	-10.9356
केषु	-10.9358
गुल्म	-10.9358
जन्यत्व	-10.9358
ात्मत्व	-10.9361
▁सास्त्रं	-10.9362
विक्षेप	-10.9362
▁संस्	-10.9362
ेतदेव	-10.9362
▁प्रवृत्तिः	-10.9364
र्णव	-10.9366
न्सर्व	-10.9367
▁जार	-10.9369
मुर	-10.937
जातं	-10.9371
मिष	-10.9372
▁सुतं	-10.9374
▁घ्राणसंस्पर्स	-10.9374
▁गावो	-10.9376
पनय	-10.9377
▁स्लक्ष्ण	-10.9378
▁दक्षिणं	-10.9379
णाय	-10.9379
▁अह्न	-10.938
नुवर्त	-10.938
हेतोर	-10.9381
▁राधा	-10.9382
▁स्पन्द	-10.9382
▁पङ्कज	-10.9382
▁मय्य	-10.9383
ीहि	-10.9383
दानेन	-10.9383
नेय	-10.9384
▁भ्र	-10.9385
नष्ट	-10.9389
▁प्रतिपत्	-10.939
▁व्यतिरिक्त	-10.939
वसं	-10.9391
ुत्थित	-10.9395
वरा	-10.9396
▁सम्यक्संबोधिम	-10.9397
लप	-10.9397
मेध्य	-10.9397
▁कोकिल	-10.9397
यू	-10.94
समो	-10.94
नियमः	-10.9401
ष्म	-10.9401
▁खं	-10.9401
मर्याद	-10.9401
▁भावे	-10.9402
स्वरूपं	-10.9402
▁जनन	-10.9402
मस्त्र	-10.9405
प्रभो	-10.9406
▁अत्रापि	-10.9406
▁नमस्य	-10.941
सहगत	-10.9412
▁महारथ	-10.9413
ुद्देस	-10.9413
▁प्रवर्तय	-10.9414
▁तावन्	-10.9418
वाह्य	-10.9418
▁विज्ञायते	-10.9421
ायुः	-10.9422
▁विषया	-10.9424
▁प्रवृत्ते	-10.9425
दृस्यत	-10.9428
▁पुंसां	-10.9428
▁पर्षद	-10.9429
▁दिवसे	-10.9429
▁रम्या	-10.943
▁ओज	-10.943
ेयुर्	-10.9431
▁सङ्	-10.9431
▁कार्यम्	-10.9432
र्मम	-10.9432
ात्तथा	-10.9432
नीयम्	-10.9433
लभ	-10.9434
ष्ट्र	-10.9434
ूनि	-10.9435
क्रुद्ध	-10.9435
▁विस्तीर्ण	-10.9435
▁फल्गुन	-10.9436
▁निर्व	-10.9437
▁अरण्य	-10.944
▁वेला	-10.9442
▁नानु	-10.9443
भगवन्	-10.9444
▁मिथः	-10.9445
बलि	-10.9446
ुपपद्यते	-10.9447
स्तावद	-10.9449
न्धकार	-10.945
क्षान्ति	-10.9451
▁मुर	-10.9451
▁ग्रास	-10.9453
बुद्ध्या	-10.9453
लोकं	-10.9454
णव	-10.9455
भिद	-10.9456
▁कर्त्र	-10.9458
▁निष्क	-10.9458
▁वृकोदर	-10.9459
▁सन्तः	-10.9461
प्रीत	-10.9462
▁द्रक्ष्य	-10.9463
▁प्रपन्न	-10.9464
▁सम्प्रति	-10.9465
धूत	-10.9465
वाट	-10.9466
▁तेष्व	-10.9469
वक्तु	-10.9469
▁संताप	-10.9469
ोऽयम्	-10.9469
न्तस्च	-10.9475
प्राप्नोति	-10.9477
भिज्ञ	-10.9477
▁येषाम	-10.9478
▁बोधिसत्वो	-10.9479
गमनं	-10.9479
▁चैतत्	-10.948
▁द्वारका	-10.9482
▁पिङ्गल	-10.9482
▁स्रोण	-10.9483
▁सरित	-10.9484
▁वरम्	-10.9487
▁दीक्ष	-10.9488
ान्धकार	-10.9489
▁निर्देसः	-10.9489
▁एतं	-10.9489
ाहुर्	-10.9491
▁लावण्य	-10.9493
▁सत्यम्	-10.9494
▁ऋक्ष	-10.9496
▁देसित	-10.9497
साधर्म्य	-10.9497
ग्न्य	-10.9498
टः	-10.9498
▁हरित	-10.9499
रूपतया	-10.95
प्रयोगः	-10.9503
िकाम्	-10.9503
ानुगुण	-10.9504
▁संयम	-10.9507
▁सुदारुण	-10.9507
▁बुद्ध्वा	-10.9509
▁पलास	-10.951
▁कृतकत्व	-10.9512
▁बुधैः	-10.9513
▁संवृति	-10.9513
▁सन्तु	-10.9513
चेत	-10.9514
प्रेक्ष	-10.9514
▁रुज	-10.952
▁प्रमुदित	-10.9521
▁गतिर्	-10.9521
धन्वा	-10.9522
▁अधुना	-10.9522
▁घोरा	-10.9525
्ग	-10.9526
ानुपपत्ति	-10.9527
▁तत्सर्व	-10.9528
▁साधनं	-10.9529
स्तूप	-10.9529
च्छु	-10.953
कूल	-10.953
पर्यन्तं	-10.953
▁कृत्स्नं	-10.9532
दिन्द्र	-10.9533
▁त्रिरात्र	-10.9533
मुदक	-10.9533
▁मामेव	-10.9534
पस्यत्	-10.9536
▁कामावचर	-10.9536
निकाय	-10.9537
▁पाण्डवानां	-10.9537
यच्छ	-10.9538
सत्त्वं	-10.954
बभूव	-10.9541
▁अहोरात्र	-10.9541
▁भोक्ता	-10.9541
ज्ञापय	-10.9545
▁कारुण्य	-10.9547
▁सम्बर	-10.9549
समागम	-10.955
▁ह्यत्र	-10.9551
सक्तिः	-10.9553
जाता	-10.9554
▁स्रोतु	-10.9557
▁इत्य्	-10.9558
▁सप्ताह	-10.9558
भाषण	-10.9559
▁तासाम	-10.9562
▁समाख्यात	-10.9563
▁स्तूप	-10.9564
▁मन्त्रि	-10.9564
▁स्वप	-10.9569
▁संगम	-10.9571
दिग्ध	-10.9571
ाद्युक्त	-10.9574
▁तदभावे	-10.9574
▁आत्मनि	-10.9576
जी	-10.9576
▁किमर्थ	-10.9578
▁निहत्य	-10.9579
ागत्य	-10.9579
▁कैलास	-10.9579
▁आज्ञा	-10.9581
स्वेद	-10.9586
ास्रयण	-10.9588
▁तिर	-10.9588
तीय	-10.9588
त्यत्र	-10.9589
यत्त	-10.9589
▁कल्प्यते	-10.9592
▁संवर्त	-10.9593
चेतसा	-10.9593
ाकाङ्क्षा	-10.9597
▁गृहाण	-10.9597
द्यथा	-10.9598
ांस्तान्	-10.9598
मस्म	-10.9601
द्रव्यं	-10.9602
स्थले	-10.9603
ार्जित	-10.9608
▁स्रूयतां	-10.9609
▁सिद्धिं	-10.9609
▁भिक्षुणा	-10.961
गहन	-10.961
▁अङ्क	-10.9611
वधि	-10.9612
न्तर्गत	-10.9613
▁धाता	-10.9613
▁निबोध	-10.9614
ुपपत्ति	-10.9615
सेषं	-10.9616
▁महाभागा	-10.9616
▁कानि	-10.9616
▁निषेव	-10.9617
ाकारेण	-10.9617
▁वीतराग	-10.9618
वण	-10.9619
मादित्य	-10.9623
ायतनं	-10.9624
▁संस्थान	-10.9625
▁प्रास	-10.9625
▁विलक्षण	-10.9628
संगम	-10.9629
परिपाक	-10.963
द्वयेन	-10.963
▁धनम्	-10.963
मन्यु	-10.9631
नुरक्त	-10.9632
▁नभः	-10.9634
ोपविष्ट	-10.9634
▁बाध्यते	-10.9635
साक्षात्कार	-10.9635
▁दूरे	-10.9637
ेत्युच्यते	-10.9639
ाग्ने	-10.9639
▁निःस्व	-10.964
वासिनः	-10.9642
ाष्टम	-10.9642
र्घ्य	-10.9643
विधेय	-10.9643
▁रमते	-10.9644
दीपन	-10.9644
▁सठ	-10.9644
▁स्रोत्रसंस्पर्स	-10.9647
प्रियः	-10.9648
▁प्रमोद	-10.9648
भास्कर	-10.965
▁संहार	-10.9653
स्चिद	-10.9654
ावसेष	-10.9654
यद्य	-10.9656
ाणीति	-10.9656
ुदित	-10.9658
▁निरीक्ष्य	-10.9659
▁स्वसुर	-10.966
ष्प	-10.9661
▁यत्पुनर	-10.9662
छन्द	-10.9662
▁बोधिचित्त	-10.9662
▁वीरो	-10.9663
▁बुध्य	-10.9664
▁धिक्	-10.9664
▁त्रिभिः	-10.9665
▁ऊन	-10.9665
मुष्टि	-10.9668
गामिनी	-10.9668
द्दस	-10.9668
यूथ	-10.9669
मित्	-10.9669
तस्त्व	-10.9673
तेर्	-10.9673
स्तस्माद्	-10.9676
न्तिके	-10.9676
योगि	-10.9676
▁बहुविध	-10.9677
ीर्य	-10.9677
द्वये	-10.9677
▁नास्तीत्य	-10.9678
माव	-10.9678
ायेति	-10.9678
▁विराग	-10.968
लक्षणस्य	-10.9681
▁पाठः	-10.9681
नीयं	-10.9683
▁वृष्ण	-10.9684
▁दिव्यानि	-10.9686
▁विस्वास	-10.9686
▁मन्थ	-10.9687
तस्तु	-10.9688
▁चिकित्स	-10.9688
▁दारिका	-10.9689
स्चाप्य	-10.969
▁पक्षः	-10.969
नेव	-10.9691
तीर्ण	-10.9693
तोऽन्य	-10.9694
▁गावः	-10.9694
वगम	-10.9694
कर्तव्यता	-10.9694
▁द्रष्टु	-10.9694
पेय	-10.9695
▁विचिन्त्य	-10.9696
जह	-10.9696
▁जानन्ति	-10.97
▁पुत्रक	-10.9702
माप्त	-10.9703
ालाप	-10.9703
▁मन्यमान	-10.9704
स्थस्य	-10.9706
मनुभव	-10.9706
▁गुल्म	-10.9706
▁सुहृद्	-10.9707
▁प्रतिकूल	-10.9708
▁स्रौत	-10.9708
▁अनुभव	-10.971
िष्यामः	-10.9711
▁विचारणा	-10.9712
▁मैथुन	-10.9712
न्यद्	-10.9713
स्निग्ध	-10.9713
ब्रुव	-10.9715
▁तथान्य	-10.9715
▁प्रणिधान	-10.9716
▁प्रतीक्ष	-10.9716
▁स्त्रियो	-10.9717
ावस्थान	-10.9718
िष्यत	-10.972
▁जगत	-10.972
▁वीर्यपारमिता	-10.9722
व्रतं	-10.9722
▁नीत्वा	-10.9726
▁कायसंस्पर्स	-10.9726
दीयते	-10.9727
▁धात	-10.9728
▁भि	-10.9728
▁विनस्यति	-10.9729
वेष्टित	-10.9731
▁गतम्	-10.9732
▁दत्वा	-10.9733
▁कतमे	-10.9733
▁राजसूय	-10.9733
▁गाय	-10.9734
यिता	-10.9735
वेदि	-10.9736
नुत्पत्ति	-10.9737
नुपपत्ति	-10.9739
बोधिसत्त्वो	-10.9739
ोत्सुक	-10.974
त्वाद्य	-10.974
ोपमः	-10.974
भियुक्त	-10.9741
निवर्त	-10.9742
▁पट्ट	-10.9742
मुष्ण	-10.9744
▁अग्निः	-10.9744
अ	-10.9744
ततो	-10.9744
▁निर्वृत	-10.9745
▁तस्मादिति	-10.9746
▁सङ्कु	-10.9747
सब्दवाच्य	-10.9748
▁प्रदीप्त	-10.9748
गतस्य	-10.9751
दधे	-10.9752
िणाम्	-10.9752
▁पितॄणां	-10.9753
मिच्छामि	-10.9759
▁संबुद्ध	-10.9761
मुच्य	-10.9762
▁षडायतन	-10.9763
दृग्	-10.9764
तारक	-10.9764
सङ्घ	-10.9766
कृत्व	-10.9766
▁सीतां	-10.9766
▁अनुदात्त	-10.9767
प्रणीत	-10.9767
▁त्रैधातुक	-10.9768
▁असत्	-10.9769
कौसल	-10.977
▁क्षिपेत्	-10.9771
▁पिबेत्	-10.9771
▁वृष्णि	-10.9774
▁प्राणायाम	-10.9776
▁निषिद्ध	-10.9776
न्तरं	-10.9777
त्वर	-10.9777
▁जाने	-10.9777
▁कुङ्कुम	-10.9778
▁प्रमदा	-10.9778
गगन	-10.9778
मास्रित	-10.9778
मारोप्य	-10.9779
स्वभावा	-10.9781
ाल्	-10.9781
▁क्षणात्	-10.9784
यात्रा	-10.9785
▁प्रादुर्भाव	-10.9786
▁मेद	-10.9787
▁संपूज्य	-10.9788
पितामह	-10.9789
मिय	-10.979
ार्धं	-10.9791
▁भगवति	-10.9791
▁सनातनम्	-10.9793
▁सकुन	-10.9794
▁सहिता	-10.9794
ित्येव	-10.9796
मुत्पन्न	-10.9797
▁ज्योति	-10.9798
▁योऽयं	-10.9798
ोऽस्तु	-10.9799
स्मिन	-10.9799
▁मूषा	-10.98
▁युगान्त	-10.9805
▁कलौ	-10.9806
▁आहुत	-10.9807
▁प्राप्स्य	-10.9807
धान्य	-10.9808
ालयम्	-10.9808
नुपूर्व	-10.9809
ान्तिके	-10.981
स्मत्	-10.9811
भागीय	-10.9811
▁सनातन	-10.9812
▁अतस्त	-10.9814
दिह	-10.9814
▁वर्म	-10.9814
सर्वं	-10.9815
▁ज्ञानम	-10.9815
▁भवितुमर्हति	-10.9815
▁निर्विकल्प	-10.9815
समवेत	-10.9819
भीर	-10.982
▁प्रतिज्ञात	-10.982
▁दृ	-10.9822
ब्धि	-10.9823
▁सुतो	-10.9823
धिप	-10.9823
▁स्रेष्ठं	-10.9825
▁सम्यग्ज्ञान	-10.9826
पादक	-10.9827
▁हविः	-10.9828
▁विलप	-10.9828
▁दद्याद	-10.983
हन्त	-10.983
सून	-10.9834
ीष्ट	-10.9835
▁चिन्त	-10.9839
लस	-10.9839
▁एतच्छ्रुत्वा	-10.984
▁ऊर्ज	-10.9841
▁हानि	-10.9843
▁ह्येते	-10.9844
ुपस्थित	-10.9846
ाक्षिप्त	-10.9846
▁धर्म्य	-10.9849
▁संपन्न	-10.985
ग्राहि	-10.985
समाकुल	-10.9854
▁कुमारी	-10.9854
▁प्रकासते	-10.9854
▁नागर	-10.9857
स्तीर्थ	-10.9858
मध्या	-10.9859
ध्वर्यु	-10.9859
▁ततोऽन्य	-10.986
▁कव	-10.9861
▁ज्ञेयः	-10.9861
वनम्	-10.9861
▁न्यग्रोध	-10.9861
ग्रहणात्	-10.9862
▁तदेतत्	-10.9863
विदुष	-10.9867
▁दायाद	-10.9868
ेषूप	-10.9869
▁इत्यर्थ	-10.9869
▁सुध्यति	-10.9869
लोचनः	-10.987
▁किरीट	-10.987
ानव	-10.9871
तू	-10.9871
रेत	-10.9872
सहस्रं	-10.9872
साधनम्	-10.9873
▁पतिता	-10.9873
▁यदर्थ	-10.9874
▁गुरुणा	-10.9874
▁वर्णित	-10.9876
▁संयत	-10.9876
▁पस्येत्	-10.9877
▁तेषामेव	-10.9877
▁मग्न	-10.9877
च्छाद्य	-10.9878
▁द्रुपद	-10.9878
िण्या	-10.9879
▁पुष्ट	-10.9882
मध्यस्थ	-10.9883
▁मनोरम	-10.9883
ेष्ठ	-10.9885
ार्ष	-10.989
▁तुल	-10.9891
▁सक्त्य	-10.9891
▁इन्द्राय	-10.9892
▁पोष	-10.9893
पू	-10.9894
▁पै	-10.9896
▁प्रदान	-10.9899
ितव्यः	-10.99
▁हीयते	-10.9902
प्रभृतय	-10.9903
▁भवेयुः	-10.9904
▁सकुनि	-10.9904
्तुं	-10.9904
▁योगिन	-10.9906
चूर्णं	-10.9906
ोक्तिः	-10.9907
▁प्रवर्तक	-10.9907
विपक्ष	-10.9909
▁धातोः	-10.9909
संभूत	-10.9911
घ्नी	-10.9912
▁तृष्ण	-10.9913
▁चेतः	-10.9914
ायास	-10.9915
पतिम्	-10.9915
पाण	-10.9916
पात्रं	-10.9917
क्रमः	-10.9918
नन्तरम्	-10.9918
▁सौख्य	-10.992
▁हतः	-10.9925
स्थितम्	-10.9925
▁पीडित	-10.9925
धातोः	-10.9926
र्घ	-10.9929
▁कौरव्य	-10.9929
▁भूमिं	-10.9929
निरत	-10.9931
▁वृत्तान्त	-10.9932
▁सम्पद	-10.9933
ुस्ते	-10.9933
▁अयमेव	-10.9934
▁रक्षा	-10.9935
नद्य	-10.9936
▁आसी	-10.9936
▁सास्त्रे	-10.9937
ाद्यैः	-10.9937
▁ससाङ्क	-10.994
▁बाधित	-10.9943
त्वेऽ	-10.9944
▁उत्त	-10.9946
रूपत्वात्	-10.9947
ेमां	-10.9948
▁देवमनुष्य	-10.9948
सान	-10.995
विमान	-10.9951
त्वात्तस्य	-10.9954
देय	-10.9954
▁तद्धर्म	-10.9955
ावती	-10.9955
भावाद	-10.9957
▁मधुसूदन	-10.9959
▁पर्याप्त	-10.996
स्चास्य	-10.996
▁पयसा	-10.9962
न्योन्यं	-10.9963
सेखर	-10.9964
▁सोऽप्य	-10.9965
ौषधि	-10.9966
मरिंदम	-10.9966
भृत्	-10.997
ोऽयमिति	-10.997
▁कोटी	-10.997
▁तत्कृत	-10.9971
▁सिद्धः	-10.9973
▁महाबलाः	-10.9973
वाहनः	-10.9973
स्तरण	-10.9973
ालये	-10.9975
▁सनक	-10.9976
पौरुष	-10.9977
वदित्य	-10.9977
▁गोमय	-10.9979
मत्स्य	-10.9979
▁जव	-10.998
▁वस्य	-10.998
▁कल्प्य	-10.998
▁दारु	-10.9983
▁मारिष	-10.9985
ान्सं	-10.9985
▁सिवं	-10.9986
वेस्म	-10.9987
मित्युक्त	-10.9988
▁चत्वारः	-10.9988
▁लेभे	-10.9988
रीत्या	-10.9988
▁सुगन्ध	-10.9989
▁जना	-10.9989
▁वैषम्य	-10.9991
ापो	-10.9991
▁सूचित	-10.9992
भूः	-10.9995
▁भवन्तो	-10.9996
भावस्वभावसून्यता	-10.9996
▁राजर्षि	-10.9999
यदा	-10.9999
यितुम	-11
▁पदानि	-11
प्रतिहत	-11
सन्ध	-11.0001
▁निस्चयः	-11.0002
गतिं	-11.0002
▁सङ्घ	-11.0002
ोद्धृत	-11.0003
रियं	-11.0004
▁क्षयं	-11.0005
कानन	-11.0007
▁संतत	-11.0007
▁नित्या	-11.0008
कवि	-11.0008
ोद्भूत	-11.0008
कूप	-11.0009
ान्तर्गत	-11.001
▁ब्राह्मणानां	-11.0012
▁परिगृहीत	-11.0013
▁इतस्च	-11.0013
▁अनर्थ	-11.0013
▁दहन	-11.0014
▁पूरण	-11.0015
धात	-11.002
▁ज्वलन	-11.0021
मयम्	-11.0024
▁कुरुष्व	-11.0027
ुषा	-11.0028
▁स्फीत	-11.0028
▁दानेन	-11.0028
▁सकलं	-11.0029
▁दिवो	-11.0031
धिगम	-11.0031
ाकृष्ट	-11.0032
ीकृता	-11.0032
ोपात्त	-11.0033
▁विज्ञानस्य	-11.0034
▁गर्ज	-11.0034
धातव	-11.0034
ोत्पादन	-11.0036
प्रसर	-11.0036
▁ब्रह्मेति	-11.0036
▁ब्रह्मदत्त	-11.0037
▁वाक्ये	-11.0038
▁धनु	-11.0039
ात्मन्	-11.004
▁संनि	-11.0041
▁जङ्गम	-11.0041
▁नग	-11.0042
धर्मः	-11.0044
ादिष्ट	-11.0045
▁नानाविध	-11.0046
ाग्नौ	-11.0047
▁लीन	-11.0047
प्रतिज्ञा	-11.0049
नास्ति	-11.0049
▁तस्मात्सर्व	-11.0049
पातक	-11.0051
▁नभस	-11.0051
▁सूत्रम्	-11.0052
▁उपपन्न	-11.0053
स्तू	-11.0054
▁पाषाण	-11.0056
▁इतो	-11.0056
मूष	-11.0057
▁यदपि	-11.0058
मोच	-11.0059
र्क्ष	-11.0059
ादृष्ट	-11.006
नुवर्तते	-11.0061
▁पतन्ति	-11.0061
ाङ्कित	-11.0062
▁हेय	-11.0062
▁चपल	-11.0062
ोपसम	-11.0062
च्छिद्य	-11.0063
स्यार्थस्य	-11.0065
ाभिभूत	-11.0066
▁पितरः	-11.0067
ोर्मि	-11.0067
▁भगवद्	-11.0067
▁प्रताप	-11.0069
म्प्रति	-11.0069
मसौ	-11.0071
▁भिक्षुः	-11.0072
स्तोत्र	-11.0072
धातुर्	-11.0073
ाकासे	-11.0073
जव	-11.0074
▁सौर	-11.0075
ोत्तमा	-11.0076
▁सबल	-11.0076
ायुत	-11.0076
▁जनस्य	-11.0077
ष्यति	-11.0079
▁इन्द्रियाणि	-11.008
िदानीं	-11.0081
▁अव्यय	-11.0083
ौप	-11.0083
पुङ्ख	-11.0083
वु	-11.0083
सृष्टि	-11.0084
▁मुदित	-11.0085
न्निति	-11.0086
मितर	-11.0087
▁निरुप	-11.0087
▁वयो	-11.0089
▁न्यसेत्	-11.0089
▁भिक्षुसंघ	-11.0092
▁उपधा	-11.0092
स्पष्ट	-11.0093
▁उत्तिष्ठ	-11.0095
निस्वन	-11.0095
▁स्मार	-11.0096
▁क्षणेन	-11.0096
कारिणः	-11.0098
▁बभौ	-11.01
▁प्रणाम	-11.01
▁दाव	-11.01
वर्तते	-11.0101
▁बोद्धव्य	-11.0102
पुत्रस्य	-11.0104
▁बहिर्धा	-11.0105
ोद्गत	-11.0105
ाक्त	-11.0106
▁आधार	-11.0107
▁अग्निहोत्र	-11.0108
ानन्त्य	-11.011
▁विसेषो	-11.0111
र्थवाद	-11.0114
योरिति	-11.0114
▁धन्व	-11.0114
▁मानसं	-11.0117
▁पाण्डवाः	-11.0119
पाच	-11.0125
गदा	-11.0126
▁ईसान	-11.0128
▁भूतले	-11.013
ान्परि	-11.013
स्वामि	-11.0132
▁स्थापयित्वा	-11.0132
▁दर्सनम्	-11.0132
▁अम्ब	-11.0133
ोपलक्षण	-11.0133
सूनु	-11.0133
वर्तित	-11.0133
▁कालस्य	-11.0135
▁निस्चल	-11.0137
वृत्त्य	-11.0138
स्थिते	-11.0139
ायामपि	-11.0141
▁यत्प्र	-11.0142
▁असेष	-11.0146
न्यून	-11.0146
▁सम्यक्संबोधि	-11.0148
्र्थ	-11.015
▁पुण्डरीक	-11.0151
रात्रि	-11.0153
▁स्रुत्या	-11.0154
▁सिल	-11.0159
ुपकार	-11.0159
व्यवहित	-11.016
▁कपोत	-11.0162
▁विभुः	-11.0162
ाद्यैर्	-11.0163
▁वायुर्	-11.0163
प्रतीत्य	-11.0164
▁जगती	-11.0166
निवारण	-11.0166
▁वक्ष्य	-11.0166
▁हविषा	-11.0166
▁फेन	-11.0167
ाम्नाय	-11.0168
यन्तु	-11.0169
▁प्रवर्तन्ते	-11.017
▁यत्तद	-11.0173
ितौ	-11.0173
ान्देव	-11.0173
ानी	-11.0174
पूर्वकम्	-11.0175
▁सेवित	-11.0176
निस्चयः	-11.0176
स्थानीय	-11.0178
▁दे	-11.0178
माचर	-11.0181
वट	-11.0182
पुरे	-11.0183
दर्सय	-11.0184
स्थापित	-11.0184
▁बहुवचन	-11.0184
▁पादः	-11.0184
▁कार्ये	-11.0185
क्ल	-11.0186
ादीति	-11.0187
▁भिः	-11.0189
▁निरय	-11.0189
पूरण	-11.019
▁सर्वमिदं	-11.0191
ुचित	-11.0191
▁प्रबन्ध	-11.0193
जल्प	-11.0193
ौजस	-11.0194
▁न्यायदीपयुत	-11.0195
▁विप्रो	-11.0195
परिमित	-11.0195
क्षयं	-11.0196
यसो	-11.0199
चुम्ब	-11.0199
▁त्रिविधं	-11.02
भिलाष	-11.0201
▁सिंहनाद	-11.0201
▁सुराः	-11.0202
विभु	-11.0205
क्रीत	-11.0205
ासन्	-11.0206
▁निषाद	-11.0207
ैरभि	-11.0212
मग्न	-11.0213
चतुर्थ	-11.0213
मधिकृत्य	-11.0214
ननु	-11.0214
नुकम्प	-11.0214
ेक्षणा	-11.0215
▁माधुर्य	-11.0216
▁धू	-11.0217
▁वाक्यसेष	-11.0219
मर्दन	-11.022
लिप्य	-11.0221
भूद	-11.0223
दृष्टं	-11.0224
▁कदली	-11.0224
▁हेतौ	-11.0225
▁कर्पूर	-11.0227
▁आर्त	-11.0227
नुपलब्धि	-11.0229
विद्यया	-11.0232
▁करि	-11.0232
▁हन्या	-11.0233
▁विसिष्यते	-11.0236
कर्मणो	-11.0236
▁व्यप	-11.0237
येव	-11.0242
▁वर्तन्ते	-11.0243
▁तदाह	-11.0243
त्यक्त	-11.0244
▁बौद्ध	-11.0245
युद्धं	-11.0245
▁समेत	-11.0247
प्रतिलम्भ	-11.0248
सैक्ष	-11.0249
त्रिक	-11.025
▁क्षेत्रं	-11.025
▁सहस्राक्ष	-11.0251
▁प्रव्रज्या	-11.0251
▁अपिच	-11.0254
ुदार	-11.0255
▁पठ्यते	-11.0256
▁सामान्येन	-11.0256
पत्तेर	-11.0257
▁प्रतिज्ञाय	-11.0257
▁सत्कृत्य	-11.0258
▁किमेत	-11.0259
▁वाणी	-11.026
▁त्रिपुर	-11.0261
▁परमात्मा	-11.0261
▁आवि	-11.0261
▁गोमुख	-11.0265
▁वीरा	-11.0267
▁सायं	-11.0267
गुड	-11.0269
स्च्युत	-11.0269
▁चोदना	-11.0271
▁सर्व्व	-11.0271
▁पन्थान	-11.0272
मिच्छता	-11.0272
▁मुनय	-11.0275
▁स्रेयस	-11.0275
सम्बद्ध	-11.0278
स्चत्वार	-11.0278
▁प्रक्रम	-11.028
वद्भाव	-11.028
▁भवत्	-11.0281
तोमर	-11.0283
भिर्वा	-11.0284
▁माणवक	-11.0289
▁पर्यङ्क	-11.0289
प्रसंग	-11.029
मुपेत्य	-11.029
कन्दर	-11.0291
द्रूप	-11.0291
▁नाल	-11.0292
▁परमार्थतः	-11.0292
▁वलय	-11.0292
▁गतं	-11.0293
र्थस्य	-11.0294
▁मण्डलं	-11.0296
मत्यन्त	-11.0298
▁सान्तं	-11.0298
माचार्य	-11.0299
▁गच्छन्त	-11.0299
▁अध्याय	-11.0299
निवेसन	-11.0299
▁सोम्य	-11.03
ाजिन	-11.03
ेऽभि	-11.0302
ास्रव	-11.0304
▁छिद्र	-11.0304
वाचिन	-11.0304
हमेव	-11.0305
ुपलब्ध	-11.0306
ास्मिन्	-11.0306
निष्पाद	-11.0307
▁एकदा	-11.0308
▁स्मृत्वा	-11.031
प्रतीतेः	-11.0311
देसकाल	-11.0312
वर्जन	-11.0312
▁तत्कथ	-11.0313
रथं	-11.0313
▁नाडी	-11.0314
र्लोक	-11.0315
तपस	-11.0317
विभक्ति	-11.0317
मन्त्रित	-11.0318
ाख्यः	-11.0318
ानामिव	-11.0319
गाय	-11.0319
▁चैनं	-11.0319
सर्वज्ञ	-11.032
मभूत्	-11.0324
▁सिखि	-11.0325
▁महो	-11.0325
तादात्म्य	-11.0325
ेत्तु	-11.0329
▁एकस्मिन्	-11.0329
▁तच्छब्द	-11.033
निष्क	-11.033
संस्रय	-11.0331
▁असं	-11.0331
चक्षुषा	-11.0333
▁विपुलं	-11.0335
▁निरुध्य	-11.0335
युष्मन्सारिपुत्र	-11.0336
विष्ठ	-11.0337
▁नमस्कृत्य	-11.0339
▁कन्यका	-11.0339
▁मार्गे	-11.0342
▁लोकनाथ	-11.0343
ुत्त	-11.0343
▁हरिं	-11.0345
सूद्र	-11.0345
▁निर्वृति	-11.0347
▁प्रत्यक्षेण	-11.0347
ान्युप	-11.0348
मिद्ध	-11.0348
▁भवतां	-11.0353
▁नपुंसक	-11.0354
चतुर	-11.0356
▁निवेदित	-11.0356
न्वा	-11.0356
▁वृद्धा	-11.0359
ोऽसाव	-11.0359
धर्मि	-11.0359
▁दधान	-11.0361
▁वासो	-11.0362
▁व्याहृत	-11.0363
▁साक्षी	-11.0363
▁इत्युक्ते	-11.0364
म्भसि	-11.0365
▁स्लिष्ट	-11.0365
▁वर्तमाने	-11.0365
विषयत्वात्	-11.0365
▁चिन्त्य	-11.0366
ूढ	-11.0367
▁प्रादुर्भूत	-11.0369
▁वाच्यं	-11.0369
ङ्गानि	-11.037
▁लोकाः	-11.0372
मस्या	-11.0372
▁भास्व	-11.0375
ैर्बहु	-11.0375
सिक्षा	-11.0376
▁रचित	-11.0376
▁मद्र	-11.0377
▁सून्यताया	-11.0378
ेच्छया	-11.0378
संयुत	-11.0378
द्विगुण	-11.0379
ैर्देव	-11.038
▁आख्य	-11.0381
सोणित	-11.0383
▁पारिजात	-11.0383
ूयते	-11.0384
ूप	-11.0385
▁मातुः	-11.0386
भविष्य	-11.0387
ैनां	-11.0388
देवत	-11.0388
▁क्षुर	-11.0389
▁चोर	-11.0389
▁ब्रह्मचारी	-11.039
व्यवस्थ	-11.039
▁चराचर	-11.0391
▁लुब्ध	-11.0397
यस्व	-11.0397
▁बलिं	-11.0398
निस	-11.0398
▁आसु	-11.0398
▁पात्रं	-11.0399
▁संवित्	-11.0403
निष्पत्ति	-11.0403
▁दससु	-11.0403
रक्षा	-11.0403
मायु	-11.0403
मार्गेण	-11.0404
जज्ञे	-11.0404
▁वृद्धिः	-11.0405
▁भु	-11.0405
परिच्छद	-11.0406
▁द्वयं	-11.0406
गौ	-11.041
▁सम्पन्न	-11.041
नघ	-11.041
▁मौल	-11.0411
▁द्वा	-11.0411
▁ज्वलित	-11.0411
▁आलम्बन	-11.0412
▁नृपते	-11.0415
▁ससिन	-11.042
रूपक	-11.0421
▁स्रोत्रं	-11.0421
चरन्	-11.0422
▁वत्	-11.0425
▁यतोऽ	-11.0425
रस्ति	-11.0427
ोपेता	-11.043
▁यस्याः	-11.043
ेमं	-11.0432
▁तरङ्ग	-11.0435
▁मानवाः	-11.0437
ड्ड	-11.0438
▁प्रियः	-11.0439
▁मातङ्ग	-11.044
▁चेदं	-11.044
▁कायेन	-11.0443
प्रेम	-11.0444
सुच	-11.0444
षड्	-11.0446
द्युत	-11.0447
▁नग्न	-11.0448
च्छक्ति	-11.0448
▁सूर्यो	-11.045
▁भ्रात	-11.045
ोद्यम	-11.0451
ेऽहनि	-11.0452
कनक	-11.0452
सूत्रं	-11.0453
▁व्यावृत्त	-11.0455
ानामेक	-11.0456
नत	-11.0457
दोह	-11.0458
▁पृष्ठतः	-11.0463
▁प्रदर्सित	-11.0464
ध्वम्	-11.0465
▁वल्ल	-11.0467
▁दण्डः	-11.0467
▁कुतोऽ	-11.0469
▁स्रु	-11.0469
▁नास्त्येव	-11.0472
भास्वर	-11.0473
▁येऽपि	-11.0474
▁तामेव	-11.0475
राज्यं	-11.0475
▁संजात	-11.0477
वनि	-11.0477
▁ज्ञा	-11.0477
वसर	-11.0479
▁पथ्य	-11.0479
▁वक्ष्ये	-11.048
▁अभ्र	-11.048
ादिर	-11.048
ाचक्षते	-11.0481
ैस	-11.0482
सम्यक्	-11.0482
▁सुयोधन	-11.0482
▁स्रित	-11.0483
▁प्रवृद्ध	-11.0484
▁योगं	-11.0484
▁निरपेक्ष	-11.0485
ित्यत	-11.0485
▁हस्तिन	-11.0486
निर्मल	-11.0486
▁संस्काराः	-11.0487
▁पुरुषेण	-11.0489
लोकधातु	-11.0491
▁चतुर्थी	-11.0492
भोज्य	-11.0492
दारु	-11.0492
गत्वा	-11.0494
स्थितिः	-11.0495
▁अन्ते	-11.0495
▁निदर्सन	-11.0496
▁तपस्विन	-11.0497
▁स्मरन्	-11.05
▁वपुष	-11.0501
▁बाध्य	-11.0502
▁सुलभ	-11.0504
▁बहुव्रीहि	-11.0505
ीयो	-11.0506
▁अधिकरण	-11.0506
▁राज्ये	-11.0507
▁यस्त	-11.0508
▁तदुभय	-11.0509
▁प्रामाण्यं	-11.051
▁राहु	-11.0511
▁आख्यात	-11.0514
वर्जितम्	-11.0514
▁मरुत्	-11.0517
▁दद्या	-11.0518
ान्सु	-11.0521
मेत्य	-11.0523
▁सुरत	-11.0527
ार्थिन	-11.0527
रुचिर	-11.0528
▁यूथ	-11.053
मार्जन	-11.0531
▁राज्ञे	-11.0531
प्राप्तिः	-11.0531
ासाव	-11.0531
▁प्रकृतिं	-11.0534
न्मया	-11.0534
▁गार्हपत्य	-11.0535
▁अकार	-11.0537
दर्सयति	-11.0539
मर्ष	-11.0539
▁ह्यन	-11.0542
▁निवेदय	-11.0542
परिग्रहः	-11.0543
मन्यत्र	-11.0545
▁वरानने	-11.0545
कर्मसु	-11.0545
ार्या	-11.0549
चक्रं	-11.0549
▁भोजनं	-11.0549
▁गाण्डीव	-11.0552
रत्नं	-11.0555
▁प्रयोक्तव्य	-11.0558
▁स्नाय	-11.056
कुर्व	-11.056
▁नीति	-11.056
▁कर्तार	-11.0562
मर्ध	-11.0564
नुभूत	-11.0564
नद	-11.0565
▁सिञ्च	-11.0565
▁उदाहरण	-11.0566
▁सर्वाङ्ग	-11.0567
▁भौम	-11.0567
सस्	-11.0567
▁भ्राज	-11.0568
▁वरुणो	-11.057
म्तत्	-11.057
न्दि	-11.0571
▁संयुक्तो	-11.0573
▁तेषामपि	-11.0573
▁उपमान	-11.0574
र्जय	-11.0577
वस्त्व	-11.0579
▁कैवल्य	-11.0579
पौ	-11.0579
▁विसृज	-11.0581
पथे	-11.0582
▁यस्मिन्न	-11.0584
गणैः	-11.0585
त्विति	-11.0586
▁बोध्यम्	-11.0588
ुपचार	-11.0589
स्चक्रे	-11.0589
▁खेचर	-11.0589
हिरण्य	-11.059
▁वी	-11.0591
▁निगम	-11.0593
ङ्गीकार	-11.0594
पूर्य	-11.0594
▁स्वर्गे	-11.0595
▁प्रातर्	-11.0595
युर्	-11.0595
▁विहितं	-11.0596
▁चिन्मात्र	-11.0597
तरः	-11.06
▁इत्येष	-11.0603
रन	-11.0605
भृतां	-11.0608
करणम्	-11.0609
▁पुरतो	-11.0609
ाज्ज	-11.0611
ञ्जित	-11.0614
सर्पिष	-11.0614
कलित	-11.0615
▁प्रयाति	-11.0615
बोधन	-11.0616
▁दर्सितम्	-11.0619
ग्रहणम	-11.0619
▁राजानम	-11.0619
▁जन्मनि	-11.062
▁अत्रैव	-11.0623
त्वाभावात्	-11.0623
पेक्षा	-11.0625
▁भद्रा	-11.0626
▁संकेत	-11.0626
▁ह्येक	-11.0627
नुलोम	-11.0627
ुपासन	-11.0628
मण्डलं	-11.063
▁अवकासः	-11.063
साला	-11.0631
▁वैवस्वत	-11.0633
पुञ्ज	-11.0633
▁नित्यसः	-11.0634
भूत्वा	-11.0634
िषि	-11.0635
ेष्विति	-11.0638
विरोधि	-11.0639
▁विद्यया	-11.0639
▁यदेत	-11.064
भ्युपगत	-11.064
▁एतेषां	-11.064
समवायिकारण	-11.0641
न्नाद्य	-11.0642
▁पतति	-11.0643
ोत्सर्ग	-11.0644
▁निवेद्य	-11.0645
▁पितामहः	-11.0646
दृष्ट्या	-11.0647
ब्रू	-11.0647
षष्टि	-11.0648
नुदात्त	-11.0649
युज्य	-11.0651
च्छिव	-11.0651
▁उदाहृत	-11.0651
▁ऽआ	-11.0652
▁ओदन	-11.0653
▁प्रकृतिसून्यता	-11.0653
पूप	-11.0654
▁आसय	-11.0656
▁योगि	-11.0658
सृजत	-11.0663
▁छन्दो	-11.0664
ाग्निहोत्र	-11.0664
▁सतम्	-11.0665
पोत	-11.0667
स्तीर्ण	-11.0671
ादिभेद	-11.0672
कैर्	-11.0672
भावि	-11.0672
वेष्ट	-11.0674
भ्रान्ति	-11.0678
▁पाण्डवः	-11.0679
चारिक	-11.0681
▁स्तो	-11.0681
ैकादस	-11.0682
▁संमत	-11.0683
▁साक्षात्कृत	-11.0684
ितव्याः	-11.0685
▁नामधेयं	-11.0685
▁म्लेच्छ	-11.0685
पूरित	-11.0686
▁गर्व	-11.0687
▁चिह्न	-11.0688
▁स्यन्दन	-11.0688
▁चेष्टा	-11.0691
▁सर्वेषामेव	-11.0691
सन्ति	-11.0691
▁प्रादुर्भावो	-11.0692
ाणं	-11.0693
राजो	-11.0693
▁सवर्ण	-11.0693
▁देवकी	-11.0697
भाविन	-11.0698
▁भुजग	-11.0698
▁स्वभावेन	-11.0698
▁निसाचर	-11.0699
ान्विता	-11.07
▁मतं	-11.0702
वेदित	-11.0702
पां	-11.0704
▁नट	-11.0705
▁हृ	-11.0705
▁गन्धक	-11.0705
ानाह	-11.0706
नुराग	-11.0709
नुज्ञा	-11.071
▁किल्बिष	-11.071
पार्थिव	-11.071
प्रतिघ	-11.0711
ख्यात	-11.0712
ाख्ये	-11.0712
▁कच	-11.0713
दूष	-11.0713
ेवेति	-11.0715
प्रतिबद्ध	-11.0715
जहार	-11.0716
▁भैक्ष	-11.0717
्तु	-11.0719
दृग	-11.072
▁ऋद्धि	-11.0721
▁ऋषय	-11.0723
▁जलद	-11.0723
▁महारथाः	-11.0723
बोधिसत्व	-11.0723
▁सिन्ध	-11.0724
स्वमेध	-11.0725
ापयेत्	-11.0726
दुर्लभ	-11.0729
धू	-11.0729
पात्रे	-11.073
▁मनोज्ञ	-11.0731
नृ	-11.0732
▁ग्राम्य	-11.0734
रूपम	-11.0735
▁पारमार्थिक	-11.0738
▁चित्ते	-11.0738
▁बलम्	-11.0738
▁अस्मा	-11.0739
िष्णु	-11.074
▁क्रीत	-11.0741
भिनव	-11.0741
▁बोधिसत्वस्य	-11.0742
मेतदवोचत्	-11.0742
▁निर्विसेष	-11.0743
मिमाम्	-11.0745
▁सुष्ठु	-11.0745
धिमात्र	-11.0746
ोत्कट	-11.0747
पवित्र	-11.0747
▁धवल	-11.0747
भूषित	-11.0748
▁कार्याणि	-11.0749
▁इहैव	-11.075
▁सफल	-11.0752
▁व्ययो	-11.0752
ङ्कुस	-11.0758
▁कवय	-11.0759
▁युगपद	-11.076
▁आत्मान	-11.0762
▁देहं	-11.0763
▁विष्णोर	-11.0764
▁यदाह	-11.0764
▁द्विर्वचन	-11.0765
सम्बन्धेन	-11.0765
▁पाप्म	-11.0766
यसे	-11.0768
प्रदाय	-11.077
पकार	-11.0771
णात्	-11.0773
संवत्सर	-11.0775
व्यभिचारि	-11.0778
ाहम	-11.0778
ाभोग	-11.0779
▁चोद्य	-11.0781
सीर	-11.0782
▁वर्षसत	-11.0783
▁गुणानां	-11.0784
▁प्रोक्तः	-11.0787
भ्योऽ	-11.0787
स्वस्त्ययन	-11.0788
स्थापय	-11.0788
▁मेष	-11.0789
भिव्यक्ति	-11.0791
ानिष्ट	-11.0791
▁दम्भ	-11.0793
ुपपन्न	-11.0794
सालिन	-11.0795
▁एतन्	-11.0796
▁हतो	-11.0797
▁समाधौ	-11.0798
▁सेव्य	-11.0798
सुतो	-11.0798
चारिण	-11.0801
क्षणे	-11.0801
स्रान्त	-11.0802
▁कटुक	-11.0802
वर्तन्ते	-11.0804
ाम्बुद	-11.0804
रते	-11.0806
रुधिर	-11.0807
पङ्कज	-11.0808
न्तेन	-11.0808
यन्तः	-11.0808
▁प्रयत्नतः	-11.0808
रूपाय	-11.081
▁पतितं	-11.081
मतिः	-11.0814
▁दिसं	-11.0816
ाद्धर्म	-11.0817
▁क्रियाया	-11.0819
▁पौ	-11.0822
▁चाहं	-11.0823
▁सर्वकर्म	-11.0823
▁लाल	-11.0825
▁हेत्व	-11.0827
ज्जात	-11.0829
ासया	-11.083
▁तस्मिं	-11.083
▁भावयति	-11.0834
बहिर्	-11.0834
▁उपसंक्रम्य	-11.0835
मृते	-11.0835
▁कथन	-11.0838
▁सतस	-11.0838
▁नेतर	-11.084
▁प्राप्यते	-11.084
▁व्यवहित	-11.0842
▁यस्	-11.0843
▁भाग्य	-11.0845
सङ्गत	-11.0845
▁क्षीरं	-11.0846
▁मोच	-11.0847
स्मद्	-11.0847
नेमि	-11.0849
▁त्वच	-11.085
▁तेषाम्	-11.0851
मागतम्	-11.0852
पुष्ट	-11.0852
▁उच्यन्ते	-11.0852
▁कारित	-11.0853
चारी	-11.0854
▁नृणां	-11.0854
▁परिजन	-11.0858
ाग्रतः	-11.0859
ातक	-11.0859
संवेदन	-11.0862
ड्व	-11.0863
▁प्राणिनां	-11.0864
▁प्रियतम	-11.0866
▁पूर्वस्य	-11.0868
याम्य	-11.0868
लीला	-11.0869
▁ढ	-11.0872
सूदन	-11.0873
बुद्ध्य	-11.0874
▁किमर्थम्	-11.0874
ारोग्य	-11.0876
र्हति	-11.0878
▁यूयम	-11.0878
▁सैक्ष	-11.0879
▁यत्नतः	-11.0879
▁मनसिकार	-11.088
ान्यस्य	-11.0881
हरं	-11.0881
▁साक्षात्कार	-11.0882
वाणिज	-11.0882
▁जङ्घ	-11.0884
▁मूर्धा	-11.0885
▁धर्मिण	-11.0886
चरितं	-11.0886
वर्तत	-11.0886
विसंवाद	-11.0888
▁रमण	-11.0888
प्रोक्त	-11.0889
▁वाक्यमब्रवीत्	-11.0889
संपत्	-11.089
▁आयुष्मन्त	-11.0893
ङ्ख	-11.0893
▁काचित्	-11.0895
भिलाप	-11.0896
भूति	-11.0896
च्छसि	-11.0896
▁साध्या	-11.0896
▁वाद्य	-11.0897
▁सचेत्	-11.0897
मुद्धृत्य	-11.0898
परायणाः	-11.0899
▁किन्त्व	-11.0901
ादप	-11.0901
ललित	-11.0903
▁ऋद्धिपाद	-11.0903
ेत्येव	-11.0903
▁स्वैर	-11.0904
▁त्रिंस	-11.0904
▁प्राञ्जलि	-11.0905
मुपास	-11.0905
व्यवच्छेद	-11.0905
▁आभास	-11.0906
मेद	-11.0907
▁जु	-11.091
ानीव	-11.0911
▁दुर्गति	-11.0912
मघ	-11.0913
्री	-11.0914
▁दाय	-11.0915
▁प्रहार	-11.0916
▁ब्राह्मणं	-11.0918
▁वर्णानां	-11.0918
ीत्यादि	-11.0919
ोद्धत	-11.0919
▁गहन	-11.0923
▁तत्किम	-11.0923
भीषण	-11.0925
▁महीं	-11.0927
▁तथाभूत	-11.0927
धिकृत	-11.0928
▁जीवन्मुक्त	-11.0931
कलस	-11.0935
रिय	-11.0936
▁विभक्ति	-11.0938
▁महाबलम्	-11.0938
षोडस	-11.0938
नृत्य	-11.0939
र्भविष्यति	-11.0939
▁कौसल्या	-11.0939
▁मह्य	-11.094
सिखा	-11.094
कोष्ठ	-11.0941
▁सून्यतया	-11.0943
ास्तीति	-11.0946
▁सतसहस्र	-11.0946
ाव्	-11.0947
दुग्ध	-11.0948
थवा	-11.0948
प्रहार	-11.0949
▁वैसारद्य	-11.0949
युक्तेन	-11.095
▁किमिदं	-11.0951
▁निरुक्त	-11.0952
प्रस्तुत	-11.0953
▁हैव	-11.0954
सिद्ध्य	-11.0956
▁ब्रह्मचर्यं	-11.0956
▁वक्ता	-11.0958
स्थितं	-11.0959
▁भवितव्यं	-11.0959
▁पूजन	-11.096
ृष	-11.0961
ात्मन्य	-11.0963
नङ्ग	-11.0963
▁प्रमत्त	-11.0964
मासीन	-11.0965
भ्रातृ	-11.0968
▁परतो	-11.0971
▁ब्राह्मणाः	-11.0971
▁उपलम्भयोगेन	-11.0971
पत्न्य	-11.0972
मव्यक्त	-11.0972
प्यन्य	-11.0973
ाध्यास	-11.0973
ूनाम	-11.0973
▁दूषित	-11.0974
सृण	-11.0975
साहस्रमहासाहस्र	-11.0977
गङ्गा	-11.0979
▁भारद्वाज	-11.0981
▁पसवो	-11.0981
▁केवलम	-11.0982
ांसुक	-11.0982
▁मोद	-11.0982
▁खट्व	-11.0983
▁असुभ	-11.0983
ूर्ण	-11.0983
▁प्रतिबन्धक	-11.0984
▁ब्रवीमि	-11.0984
▁किन्नर	-11.0985
▁स्वरित	-11.0987
भक्त्या	-11.0987
▁हिरण्यगर्भ	-11.0988
▁काये	-11.0988
मतिर्	-11.0988
हता	-11.0989
रहस्य	-11.099
▁कीट	-11.0991
▁परिहर	-11.0991
▁अपवाद	-11.0991
भैषज्य	-11.0993
▁सावित्री	-11.0993
ब्रूहि	-11.0993
▁उदर	-11.0994
षड	-11.0997
ज्येष्ठ	-11.0999
प्रसिद्धि	-11.1001
ल्क	-11.1003
गतौ	-11.1003
दुःखित	-11.1004
भिधाय	-11.1005
▁प्रणिहित	-11.1007
▁मिल	-11.1008
▁सत्त्वानाम	-11.1009
▁नाम्न	-11.1009
तिष्ठति	-11.101
मकर	-11.101
द्राजा	-11.1011
सामानाधिकरण्य	-11.1012
संसृष्ट	-11.1012
कारणत्व	-11.1013
▁वेस	-11.1014
लुक	-11.1015
मिथ्या	-11.1018
▁जीवो	-11.1019
स्त्वम	-11.102
▁भूति	-11.102
ाभिहित	-11.102
▁मिथ्य	-11.102
ाणामपि	-11.1021
▁दर्सितः	-11.1021
ेस्वरम्	-11.1022
▁जायत	-11.1022
व्रात	-11.1024
ेन्धन	-11.1025
▁तद्गुण	-11.1028
ह्रिय	-11.1028
मधिक	-11.1028
▁कस्मिन्	-11.103
▁क्षमति	-11.1033
▁भावन	-11.1033
ात्मकत्व	-11.1033
ाद्भव	-11.1034
र्बुद	-11.1034
मास्थितः	-11.1035
ससि	-11.1036
रोचन	-11.1037
वेक्ष	-11.1037
ज्ञाय	-11.1038
▁सर्वगत	-11.1039
मोघ	-11.1039
▁तद्ध	-11.104
ेत्युक्तम्	-11.104
समृद्ध	-11.1041
▁भेदाभेद	-11.1043
▁दधाति	-11.1044
▁मेदिनी	-11.1044
▁मांसं	-11.1046
▁धात्र	-11.1047
विवक्षा	-11.1047
खड्ग	-11.1049
ेभिर	-11.105
युगल	-11.105
▁विस्रान्त	-11.1051
तीह	-11.1051
नर्त	-11.1052
प्रकारक	-11.1054
नन्दनः	-11.1056
▁मोहित	-11.1059
▁भक्षण	-11.106
▁तर्पय	-11.106
▁भुजङ्ग	-11.106
▁प्रातर	-11.1061
सात	-11.1064
रीर	-11.1065
भिस	-11.1066
त्राण	-11.1067
स्वत्थ	-11.1069
न्वयव्यतिरेक	-11.1069
वृत्तौ	-11.1069
▁प्रयाज	-11.1069
ात्मजा	-11.1072
ार्थत्वात्	-11.1074
प्रेत	-11.1077
निति	-11.1077
▁सृत	-11.1078
▁वाराह	-11.1079
▁खे	-11.108
कुस	-11.108
▁गौतमी	-11.1081
▁विसृज्य	-11.1084
संकर	-11.1085
▁वायुर	-11.1086
▁इन्द्रस्य	-11.1086
▁परित्याग	-11.1086
▁प्रमाणेन	-11.1087
ार्थान्तर	-11.1088
प्रभुः	-11.1089
▁उपपद्यते	-11.1089
▁परिकल्पित	-11.109
▁दुःखेन	-11.1091
वाक्येन	-11.1092
▁मैवम्	-11.1093
▁यज्ञिय	-11.1094
सून्यतायां	-11.1096
▁नामानि	-11.1099
▁दीना	-11.1103
▁महेस	-11.1105
▁देवतानां	-11.1106
▁महीपते	-11.1106
▁त्र्यह	-11.1108
मिच्छन्ति	-11.1108
▁भीरु	-11.1109
स्चतुर्थ	-11.1109
वेस्य	-11.1111
▁ब्रू	-11.1111
▁कार्मुक	-11.1111
तिमिर	-11.1112
बाष्प	-11.1112
पिसाच	-11.1112
र्ऽथ	-11.1112
सिद्धम्	-11.1113
पलास	-11.1113
▁नानात्व	-11.1114
ोपनिषद	-11.1115
सोष	-11.1115
▁प्राची	-11.1116
यस	-11.1116
▁आर्या	-11.1118
▁परायण	-11.1118
मात्रम	-11.1119
ानित्यत्व	-11.112
र्मह	-11.112
भ्युपगमात्	-11.1121
तिष्ठन्ति	-11.1123
ङ्गी	-11.1124
▁जठर	-11.1124
▁क्षान्त	-11.1125
▁बाढ	-11.1125
धुना	-11.1126
तीर्थं	-11.1128
दिक्षु	-11.1129
हमिति	-11.1129
▁रजस	-11.113
▁संपूर्ण	-11.1134
युष्म	-11.1136
▁प्रियम्	-11.1138
▁व्यक्तं	-11.1138
रिपु	-11.1139
▁नाक	-11.1139
▁स्फुरति	-11.1142
स्थितो	-11.1143
त्वात्न	-11.1143
▁खन	-11.1144
त्यादि	-11.1147
▁विद्वान	-11.1147
▁अहमेव	-11.1148
िनोऽ	-11.1148
प्रयोगे	-11.1148
▁वाक्यस्य	-11.1149
त्रितय	-11.115
ाध्यात्मिक	-11.115
व्यतिकर	-11.1152
▁हते	-11.1152
तापि	-11.1152
धर्माणां	-11.1153
▁हरेर्	-11.1154
िभिर	-11.1155
▁ग्लान	-11.1155
▁प्रत्युपस्थित	-11.1157
▁होत्र	-11.1158
स्यन्द	-11.1158
ोऽन्यः	-11.1161
वस्थान	-11.1161
यमर्थः	-11.1163
▁पुस्तक	-11.1164
▁संचर	-11.1167
▁तदिह	-11.1167
प्रवण	-11.1167
प्रतिष्ठ	-11.117
निग्रह	-11.1172
मत्सर	-11.1173
तीतानागत	-11.1174
मये	-11.1174
रेष	-11.1174
ोपन्यास	-11.1175
▁देवलोक	-11.1175
▁जाग्रत	-11.1177
▁सर्वाकार	-11.1179
र्चन	-11.1179
ोदकं	-11.1182
ान्यथ	-11.1182
▁मरुतो	-11.1183
▁सोमं	-11.1183
▁मध्यं	-11.1185
ालक	-11.1185
▁हन्तु	-11.1187
▁प्रक्रान्त	-11.1189
चारिणः	-11.1189
▁आयुष	-11.119
रभ्य	-11.1191
▁मृद्व	-11.1193
ुत्कर्ष	-11.1195
▁वीरः	-11.1198
मासङ्क्य	-11.1198
रसेन	-11.1199
क्रूर	-11.1199
▁स्वाप	-11.1199
▁उपस्थित	-11.1199
▁हन्तुं	-11.12
▁सन्ध्या	-11.12
▁बालक	-11.1202
ान्दृष्ट्वा	-11.1204
▁आत्मनेपद	-11.1204
वसिष्ट	-11.1204
▁ध्येय	-11.1204
युद्धे	-11.1204
▁बदर	-11.1207
▁सामान्यं	-11.121
▁कूल	-11.1211
▁गन्तुं	-11.1211
स्वतन्त्र	-11.1212
▁प्रकासित	-11.1213
▁तमुवाच	-11.1213
▁ऋषभ	-11.1214
ास्मै	-11.1215
▁ससी	-11.1216
▁माहात्म्य	-11.1216
मात्मानम	-11.1219
▁लिप्त	-11.122
▁यथाक्रमं	-11.122
▁मन्त्री	-11.1221
हरति	-11.1223
▁त्वेक	-11.1225
दातु	-11.1225
ोदिता	-11.1226
▁स्फ	-11.1226
ज्वल	-11.1228
वनस्पत	-11.1229
मित्युक्तम्	-11.1232
▁प्रभुम्	-11.1232
वाप्य	-11.1232
वीण	-11.1236
▁बिभर्ति	-11.1237
पूजन	-11.1237
मास्थित	-11.1238
▁कुक्षि	-11.124
ोदितम्	-11.1241
▁प्राणान्	-11.1241
▁नाट्य	-11.1243
जिह्वा	-11.1243
सृजत्	-11.1244
भाग्य	-11.1244
▁पूजयित्वा	-11.1245
▁वामदेव	-11.1245
वानर	-11.1245
ादयोऽ	-11.1246
▁सर्वग	-11.1247
मूले	-11.125
नमस्कृत	-11.125
नुमेय	-11.125
▁सत्त्वान्	-11.125
▁प्रोक्तो	-11.1253
हू	-11.1253
स्सु	-11.1254
क्ष्म	-11.1256
▁मर्यादा	-11.1256
ाभिप्रायेण	-11.1257
▁भोक्तु	-11.1258
दिष्टं	-11.1259
मुष	-11.1261
▁भगिनी	-11.1261
▁चायं	-11.1261
▁तपोधन	-11.1263
तिरात्र	-11.1263
ादृत	-11.1264
▁बु	-11.1265
▁सुहृत्	-11.1266
ावलम्ब	-11.1267
▁कर्तरि	-11.1267
जुष्ट	-11.1268
ामोद	-11.127
स्तपो	-11.1271
समप्रभ	-11.1272
▁प्रेय	-11.1274
▁वहति	-11.1277
▁समन्वागतो	-11.1277
▁प्राणिन	-11.1277
▁अग्रे	-11.1277
▁रोचन	-11.1277
ोषध	-11.1278
ोत्तरे	-11.1279
▁कोष्ठ	-11.1281
▁सर्वासु	-11.1281
पर्यवसान	-11.1281
▁षण्मास	-11.1282
वासिन	-11.1283
▁भोग्य	-11.1284
निदान	-11.1286
मुत्पाद्य	-11.1288
▁प्रतिभाति	-11.1289
मीदृस	-11.1291
▁निर्विकल्पक	-11.1293
सीतल	-11.1294
हाय	-11.1298
प्रलाप	-11.1298
▁कन्द	-11.1299
धिय	-11.1302
▁गवय	-11.1302
स्वभावेन	-11.1303
▁जन्मन	-11.1303
▁कतिपय	-11.1305
वकीर्ण	-11.1305
वसति	-11.1306
सभाग	-11.1306
विसेष्य	-11.1307
▁प्रथमो	-11.1307
र्चयेत्	-11.1308
स्फ	-11.1308
द्बल	-11.1308
▁आचार्यः	-11.1308
हण	-11.1311
नुक्त	-11.1311
काङ्क्षिण	-11.1313
▁राजगृह	-11.1313
▁स्रुत्य	-11.1313
ुद्भव	-11.1314
ादत्ते	-11.1314
हिंसा	-11.1315
्पि	-11.1316
▁भ्रमर	-11.1316
कर्तुं	-11.1317
ाभावादिति	-11.1317
▁विक्रय	-11.1317
लेख्य	-11.1318
▁अनिष्ट	-11.1319
▁युग्म	-11.132
ान्यतर	-11.132
▁हिताय	-11.1321
दूषित	-11.1324
▁विभूति	-11.1324
▁सत्कृत	-11.1329
▁वनम्	-11.1332
स्चान्य	-11.1332
▁गन्तव्यं	-11.1332
ूर्ध्वं	-11.1333
संयुक्ता	-11.1335
स्चेतन	-11.1336
▁परिनिर्वृत	-11.1337
ैक्षत	-11.1339
परायणः	-11.1339
▁सर्करा	-11.134
सङ्कित	-11.134
चेता	-11.1341
▁विष्णुना	-11.1342
▁कदम्ब	-11.1343
हेतुर	-11.1343
▁चातुर्	-11.1345
भूतानि	-11.1346
लित	-11.1346
▁कृतकृत्य	-11.1346
नुगम	-11.1347
ल्या	-11.1347
▁नायिका	-11.1347
▁परिगृह्य	-11.1348
र्थक्रिया	-11.135
▁प्राप्तम्	-11.1352
र्धमास	-11.1353
मुग्ध	-11.1353
▁लोम	-11.1354
ुपक्रम	-11.1354
स्तम्ब	-11.1356
नुभाव	-11.1357
पूर्वस्य	-11.1358
ग्निष्टोम	-11.136
▁वेदनाया	-11.136
▁कार्यत्व	-11.1363
▁जुष्ट	-11.1364
▁एवंरूप	-11.1365
▁गव्य	-11.1365
▁रोहित	-11.1365
▁पुरस्ताद	-11.1366
कृन्	-11.1366
▁परमात्मन	-11.1367
सय्या	-11.1369
न्नर	-11.1371
कथय	-11.1372
ालोक्य	-11.1374
मुपस्थित	-11.1374
▁गाव	-11.1375
ागमे	-11.1375
▁प्रतिलब्ध	-11.1378
ोष्म	-11.1378
▁गुरोः	-11.1379
▁प्रवर्त्त	-11.1379
▁रघु	-11.1381
▁स्थापन	-11.1381
▁वेण	-11.1382
चत्वारिंस	-11.1382
▁वायुना	-11.1382
मापद्यते	-11.1383
▁स्थातु	-11.1383
सदृसं	-11.1383
▁गान्धार	-11.1383
▁हेत्वाभास	-11.1384
योज्य	-11.1386
▁सतानि	-11.1386
▁सूतक	-11.1387
धोमुख	-11.139
स्नाति	-11.139
▁स्यादित्य	-11.1392
ह्रस्व	-11.1394
मयूख	-11.1395
▁परिहृत	-11.1395
स्चतस्र	-11.1396
▁भवद्	-11.1396
▁पस्यतः	-11.1398
बू	-11.1398
ुक्	-11.1399
▁सिद्धान्ते	-11.1401
ङ्गार	-11.1402
▁गौः	-11.1403
धिया	-11.1404
▁संध्य	-11.1405
▁कङ्क	-11.1407
ार्ता	-11.1411
▁अक्षय	-11.1413
▁पुरीष	-11.1414
ग्नेर्	-11.1415
▁घ्न	-11.1416
ाण्येव	-11.1417
▁पराजित	-11.1417
यजमान	-11.1417
▁व्याख्येय	-11.1419
▁भान	-11.1419
स्कन्द	-11.1421
व्यम्	-11.1423
▁मैथिली	-11.1425
▁भट्ट	-11.1425
▁व्याकृत	-11.1425
ितुम	-11.1426
▁विज्ञ	-11.1426
▁द्वापर	-11.1429
विनाभाव	-11.1429
ीयान्	-11.1429
▁इत्युक्तः	-11.1429
▁धात्री	-11.1429
▁दुःसासन	-11.143
▁वचनम्	-11.143
▁मानुष्य	-11.1431
ानीत	-11.1434
सकास	-11.1434
ेयुर	-11.1434
▁करेण	-11.1436
▁प्रागुक्त	-11.1436
नुमीयते	-11.1438
पीत्यर्थः	-11.1439
▁सक्तिर्	-11.1439
ौष्ठ	-11.144
▁हस्तेन	-11.144
▁बाधते	-11.144
▁पस्यसि	-11.1441
न्तराल	-11.1443
▁लभन्ते	-11.1444
▁परीत्त	-11.1444
मर्क	-11.1447
▁वेष	-11.1448
▁रक्षित	-11.1448
▁ब्रह्माण	-11.1448
▁संतान	-11.1448
▁निधनं	-11.1449
ुपसंहार	-11.145
▁चाति	-11.1453
▁चतुर्णां	-11.1454
▁भुञ्जीत	-11.1455
▁रसस्य	-11.1455
▁आसीन	-11.1455
▁सूतपुत्र	-11.1456
▁निगद	-11.1457
ज्ञता	-11.1458
ानुगम	-11.1459
हरेत्	-11.1459
ूण	-11.1461
▁दृष्ट्वैव	-11.1463
ोज्झित	-11.1463
रेषा	-11.1463
संपत्ति	-11.1463
चक्रे	-11.1464
▁भगवानुवाच	-11.1465
▁संभूत	-11.1465
▁बोधय	-11.1465
ुच्छ	-11.1466
▁तद्वचनं	-11.1467
द्वे	-11.1467
▁माहात्म्यं	-11.1467
▁उपवास	-11.1468
▁न्यस्य	-11.1471
ोदरे	-11.1472
घण्ट	-11.1472
▁मूले	-11.1473
▁स्रीमद्	-11.1473
▁नरके	-11.1475
▁तदुक्तं	-11.1475
पण्डित	-11.1475
▁ऽऽ	-11.1479
▁चाक्षुष	-11.1479
▁संपद	-11.1479
▁उपाधि	-11.1479
गेह	-11.148
प्रियं	-11.1481
पेष	-11.1481
▁ब्रूते	-11.1481
ादिगुण	-11.1481
▁भगवन्बोधिसत्त्व	-11.1482
▁द्यावापृथिवी	-11.1484
रेख	-11.1485
▁मघ	-11.1485
▁यसस्विन	-11.1485
परीत	-11.1485
न्नपान	-11.1486
ाचमन	-11.1487
्य्	-11.1489
ोन्मत्त	-11.1491
वधान	-11.1491
ुत्सुक	-11.1491
वीक्ष	-11.1495
▁प्रतियोगि	-11.1495
▁पाण्डुर	-11.1495
ङ्गना	-11.1495
▁व्यापाद	-11.1496
नुमोद	-11.1499
▁असक्त	-11.1499
पारमितेयं	-11.1503
▁दिव्येन	-11.1505
▁अद्यापि	-11.1506
भार्य	-11.1506
▁सत्पुरुष	-11.1506
▁चरितं	-11.1507
▁पातय	-11.151
▁गङ्गाया	-11.1511
ानामुप	-11.1512
▁कल्पय	-11.1512
द्भुतम्	-11.1516
▁पातित	-11.1516
▁मख	-11.1516
कृस	-11.1518
स्चेद	-11.1521
गूह	-11.1521
मक्षय	-11.1525
ासुभ	-11.1525
▁विरूप	-11.1526
कथित	-11.1526
▁प्रच	-11.1526
▁महीपाल	-11.1527
वादे	-11.1529
ुपलब्धि	-11.153
ोपदिष्ट	-11.153
राड	-11.153
▁गन्तव्य	-11.1532
▁सिक्षितव्यं	-11.1533
यमेव	-11.1534
▁समुद	-11.1534
▁दुर्धर्ष	-11.1535
ण्ट	-11.1539
ोऽङ्ग	-11.1542
गाढ	-11.1543
▁स्वकर्म	-11.1543
▁बहूनां	-11.1544
प्रमुखा	-11.1545
नुष्ठेय	-11.1546
समता	-11.1546
▁नमस्कार	-11.1549
▁सम्प्रसारण	-11.155
▁समुपस्थित	-11.1552
▁चिक्षेप	-11.1553
▁अकुसल	-11.1553
▁कुलं	-11.1554
मोष	-11.1555
▁भार्य	-11.1555
▁प्रबल	-11.1558
संदर्सन	-11.1558
च्चन्द्र	-11.156
▁चोक्त	-11.1561
ेदृस	-11.1561
ाभावाद्	-11.1563
पतत्	-11.1563
गाह	-11.1563
▁आरूप्य	-11.1564
▁बक	-11.1565
प्यर्थ	-11.1567
▁सिवम्	-11.1568
▁चैतद	-11.1568
▁क्रन्द	-11.1569
▁कुसला	-11.157
कारिणी	-11.1573
▁उत्स	-11.1576
▁राजानो	-11.1577
वतीर्य	-11.1577
स्त्रिविध	-11.1578
▁तत्राप्य	-11.1579
▁यथाह	-11.158
वल्ल	-11.1582
कोटर	-11.1582
▁फुल्ल	-11.1584
बद्धा	-11.1585
मास्रम	-11.1586
▁अग्निं	-11.1586
हेय	-11.1587
▁कृतक	-11.1588
▁भवतीत्यर्थः	-11.1588
ट्ठ	-11.1589
▁पुष्पाणि	-11.1589
▁स्तुव	-11.159
▁प्रकीर्तितः	-11.159
▁पञ्चधा	-11.1592
कीर्तित	-11.1592
▁मेधा	-11.1593
नुगृहीत	-11.1594
भ्युप	-11.1595
भ्रू	-11.1597
्रि	-11.1598
महिम	-11.1598
▁चतुष्टय	-11.16
ाम्भो	-11.1601
▁द्विजसत्तम	-11.1601
▁तीर्थे	-11.1603
संज्ञित	-11.1603
संतप्त	-11.1604
▁मनसिकरोति	-11.1604
▁पथा	-11.1605
▁प्रसह्य	-11.1605
▁संसर	-11.1607
ेसान	-11.1608
ास्तेषां	-11.1609
च्छवि	-11.161
र्स	-11.1611
ायुर	-11.1611
▁प्रव्राज	-11.1612
नुम	-11.1612
यष्टि	-11.1613
▁सनत्कुमार	-11.1613
▁सान्ता	-11.1615
▁कृतवान्	-11.1617
भूरि	-11.162
नुसंस	-11.1623
संगत	-11.1623
▁सर्वैर्	-11.1623
▁वर्जयेत्	-11.1623
▁अहङ्कार	-11.1624
▁पीडा	-11.1625
▁सिद्ध्य	-11.1625
▁यावच्च	-11.1627
▁युष्मद	-11.1628
ेप्सित	-11.1628
▁ज्वाला	-11.1629
चित्तस्य	-11.1631
ाभावान्न	-11.1632
ारविन्द	-11.1636
सदन	-11.1637
▁वस्तुनः	-11.1638
ाचक्ष्व	-11.164
▁एवायं	-11.1641
ान्विताः	-11.1642
▁एवञ्च	-11.1645
▁तुला	-11.1646
▁तत्तथा	-11.1646
ीर्यते	-11.1647
▁आद्ये	-11.1648
▁सात	-11.1648
पठ	-11.165
▁विज्ञेय	-11.165
▁सञ्ज्ञ	-11.1653
▁गर्त	-11.1653
▁निधान	-11.1654
मन्नं	-11.1655
ावसान	-11.1658
ागतं	-11.1659
ारोपित	-11.1659
▁कालान्तर	-11.1659
धिमुक्त	-11.166
▁ओषधी	-11.1663
क्षति	-11.1667
ुपेक्ष	-11.1668
यितव्यः	-11.1668
▁कर्मफल	-11.167
▁प्रवर्तित	-11.1672
▁ग्र	-11.1673
▁आसन्न	-11.1673
▁क्रय	-11.1675
▁प्रसर	-11.1676
परिसुद्धि	-11.1676
▁धि	-11.1679
▁तृतीयः	-11.1679
ग्र्य	-11.168
▁तथागतबल	-11.168
▁तद्वाक्य	-11.1681
नेकधा	-11.1681
▁वरुणस्य	-11.1683
▁वेस्या	-11.1683
जघ्नु	-11.1684
ुना	-11.1685
ोऽधिक	-11.1686
लेस	-11.1686
▁संस्थ	-11.1687
▁रजस्तम	-11.1688
▁पतन	-11.1689
नारद	-11.1689
धातुं	-11.169
▁व्याख्यातम्	-11.1692
मनसः	-11.1694
रिन्द्र	-11.1695
मच्युत	-11.1696
▁भिक्षो	-11.1696
▁ददृसे	-11.1697
▁सुखेन	-11.1697
▁दोह	-11.1698
▁मार्गः	-11.1699
विक्रय	-11.1699
▁सुद्धा	-11.17
▁मुद	-11.17
▁सक्तिं	-11.17
ास्रमे	-11.1702
स्ततस्त	-11.1703
ाङ्गानि	-11.1704
▁लोकपाल	-11.1707
स्वभावः	-11.1708
सोभन	-11.1708
▁वृत्तौ	-11.1709
वापि	-11.171
▁महीतले	-11.171
▁ताड	-11.171
▁प्रज्ञप्त	-11.1711
▁साध्यधर्म	-11.1711
▁निमेष	-11.1713
▁कथयामि	-11.1713
▁बृहस्पतिः	-11.1716
विधानं	-11.1717
स्रुतेः	-11.1718
▁विड	-11.1718
ोपेतं	-11.1719
▁नगरे	-11.1719
स्तीक्ष्ण	-11.172
मास्रितः	-11.172
▁त्रा	-11.1725
▁निधन	-11.1725
ालम्बनं	-11.1725
▁भ्रात्रा	-11.1725
यन्निव	-11.1728
▁चरम	-11.1731
▁प्लक्ष	-11.1731
▁महातपाः	-11.1732
ाधुना	-11.1733
येन्	-11.1734
▁क्ल	-11.1736
सत्कार	-11.1737
मील	-11.1737
राजान	-11.1737
स्वपि	-11.1738
भिवाद्य	-11.1738
▁सुभूति	-11.1739
युङ्क्त	-11.1739
▁याज	-11.1739
बुध्यत	-11.174
कॢप्त	-11.174
▁कल्क	-11.1742
▁भावानां	-11.1743
▁अयुक्त	-11.1743
वृत्य	-11.1744
▁इत्युप	-11.1744
▁विलम्ब	-11.1744
रभ	-11.1746
च्छेष	-11.1747
सन्निभ	-11.1748
▁येषु	-11.1749
▁पङ्क्ति	-11.175
▁हरति	-11.1752
▁ब्रह्माण्ड	-11.1752
▁प्रहर्ष	-11.1753
▁समासे	-11.1756
▁विमुञ्च	-11.1757
▁उत्तरं	-11.176
वर्म	-11.176
कृद	-11.176
निहित	-11.176
▁जिघांस	-11.1762
पती	-11.1763
ानन्दमय	-11.1765
क्रीडा	-11.1765
▁हतं	-11.1769
▁दोषाः	-11.177
▁चरन्न	-11.1771
ुत्प्रेक्ष	-11.1771
वतर	-11.1771
▁रोध	-11.1772
▁चित्रा	-11.1772
देसना	-11.1773
जङ्घ	-11.1775
▁व्यथ	-11.1775
ैस्त्रि	-11.1776
दाता	-11.1776
गत्य	-11.1777
▁क्रौञ्च	-11.1779
लुब्ध	-11.178
▁सरवर्ष	-11.178
▁पूषा	-11.178
ाभावस्य	-11.1781
ाभिन्न	-11.1781
▁संवि	-11.1782
णुक	-11.1782
▁छेद	-11.1784
ाब्द	-11.1785
दध्यात्	-11.1785
नुसास	-11.1786
▁नगरी	-11.1786
▁अनास्रव	-11.1787
तस्मिन्	-11.1787
पीत्य	-11.1788
▁असति	-11.1788
विषयो	-11.1789
मिथुन	-11.179
▁विहिता	-11.1791
सतो	-11.1792
▁पय	-11.1795
▁क्रुद्धः	-11.1797
▁स्वप्रकास	-11.1798
योगी	-11.18
▁विवृणोति	-11.1801
समन	-11.1801
प्रसन्न	-11.1801
ोद्धार	-11.1803
ाप्यते	-11.1804
मण्ड	-11.1805
▁निसित	-11.1807
त्तद	-11.1807
▁पू	-11.1807
मारूढ	-11.1807
भिसंबुद्ध	-11.1807
स्छन्द	-11.1808
▁वदामि	-11.1808
्दि	-11.1809
पालन	-11.1809
▁सादर	-11.181
ऽथ	-11.1812
ाणु	-11.1812
ोऽमृत	-11.1814
पस्चिम	-11.1815
च्छिद	-11.1815
▁जीवितम्	-11.1817
नुपलब्ध	-11.1818
स्माकम	-11.1818
तावत्	-11.1819
▁अन्तरेण	-11.182
ानास्रव	-11.1822
▁धीमान्	-11.1823
▁मन्वन्तर	-11.1824
र्द्धि	-11.1825
ादिभ्य	-11.1826
▁संनिहित	-11.1826
▁दाम	-11.1826
▁स्रावण	-11.1827
▁देवास्च	-11.1827
मुपगत	-11.1828
▁नन्दि	-11.1828
स्वेत	-11.1829
कुर्वाण	-11.183
▁द्विगुणं	-11.1832
▁चतस्रः	-11.1834
▁नाराच	-11.1838
वाचि	-11.1838
▁दण्ड्य	-11.1839
गच्छत	-11.1839
गाध	-11.184
वर्जितः	-11.1842
▁ददामि	-11.1843
▁इदमेव	-11.1844
वर्तय	-11.1844
ार्थवाद	-11.1848
जागर	-11.1849
ाङ्कुस	-11.1849
पाषाण	-11.1849
▁कदाचि	-11.1849
▁प्रणम	-11.185
ान्तस्य	-11.1851
▁समाधिं	-11.1851
▁भवन्तः	-11.1851
▁तादृसी	-11.1854
▁वीर्येण	-11.1855
▁सुदर्सन	-11.1856
ोत्थाय	-11.1862
▁स्पर्ध	-11.1865
स्चरण	-11.1865
सम्भवः	-11.1867
▁तद्वद्	-11.1868
ोऽस्म	-11.1873
स्रौष	-11.1873
ोऽस्माकं	-11.1874
▁नेदं	-11.1874
नुभूय	-11.1875
▁ध्वंस	-11.1875
पर्वण	-11.1881
वबोध	-11.1881
ाद्यथा	-11.1882
मनस्कार	-11.1884
▁प्रत्यवेक्ष	-11.1884
▁मार्गं	-11.1885
न्तरेण	-11.1885
विदः	-11.1885
तपः	-11.1887
स्तुति	-11.1887
सेषतः	-11.1889
बुध्य	-11.1889
सोधन	-11.189
▁मध्यमा	-11.189
▁मुखेन	-11.189
दान्त	-11.1891
▁सखाय	-11.1892
▁याम्य	-11.1893
▁मधुरा	-11.1894
न्प्र	-11.1894
▁वरिष्ठ	-11.1896
मन्त्रेण	-11.19
ज्जन्म	-11.1901
▁वृण	-11.1902
▁सुतम्	-11.1902
प्रतिच्छन्न	-11.1903
▁अवस्था	-11.1903
ेनाभि	-11.1907
▁मुहुर्मुहुः	-11.1908
▁हरिम्	-11.1909
▁प्रीण	-11.1909
▁नद्या	-11.1909
▁योगे	-11.1912
धातोर	-11.1912
महेस्वर	-11.1913
निद्रा	-11.1913
▁उपमा	-11.1913
धर्म्म	-11.1913
मन्थ	-11.1913
रोचय	-11.1913
▁गमिष्यामि	-11.1914
▁चेतसि	-11.1915
▁पितु	-11.1915
▁प्रतिष्ठिता	-11.1915
त्तर	-11.1917
▁मुनयः	-11.1918
प्रतिलब्ध	-11.1918
▁कृपया	-11.1919
ोऽग्र	-11.1919
ांसे	-11.1919
ेष्विव	-11.192
▁इड	-11.192
▁सक्ता	-11.1922
गुहा	-11.1922
▁सवित	-11.1922
▁किम्च	-11.1923
▁वर्ज	-11.1925
▁नियामक	-11.1925
▁सान्तिं	-11.1928
▁साध्यते	-11.1929
▁निदान	-11.193
▁सहितो	-11.1931
▁सत्रुघ्न	-11.1932
राति	-11.1933
पुण्डरीक	-11.1934
मीमांस	-11.1934
▁द्वयोर्	-11.1935
▁तिर्यक्	-11.1936
▁भावि	-11.1937
भृता	-11.1937
▁कण्व	-11.1938
सवर्ण	-11.1938
▁मेध	-11.1938
रनु	-11.1938
▁महात्मानं	-11.1939
▁मृत्	-11.194
▁उत्तरा	-11.1941
सिक	-11.1942
सौख्य	-11.1944
▁प्रेष्य	-11.1945
हृ	-11.1946
▁क्षणिकत्व	-11.1946
द्धेतु	-11.1947
दर्सनाद	-11.1947
ध्न	-11.1948
स्तादृस	-11.1949
वीतराग	-11.195
ौचित्य	-11.195
वृत्तिर्	-11.1951
▁विक्रान्त	-11.1951
पितर	-11.1951
संचार	-11.1952
▁तद्ब्रह्म	-11.1955
▁व्योम्नि	-11.1956
▁दक्षिणां	-11.1956
▁पचेत्	-11.1957
▁इत्येवमादि	-11.1958
मपेक्ष्य	-11.1959
▁परिपूरय	-11.196
बुद्धयः	-11.1961
▁च्छ	-11.1964
ित्वेन	-11.1965
▁ज्योतिषा	-11.1965
किम	-11.1965
प्रसक्त	-11.1965
ज्ञापन	-11.1966
व्याकरण	-11.1966
मृतत्व	-11.1966
▁कुटुम्ब	-11.1966
▁कुं	-11.1968
ेणेति	-11.1968
▁सेवा	-11.1968
ेरित	-11.1969
▁गच्छामि	-11.1969
मारब्ध	-11.197
ोल्लास	-11.1973
▁तत्रैक	-11.1973
वलोक्य	-11.1973
▁मरुतः	-11.1974
▁कारिका	-11.1975
▁विप्राः	-11.1975
▁स्वर्	-11.1978
मथन	-11.1979
स्त्यज	-11.1981
जघान	-11.1981
नवकास	-11.1981
मन्ये	-11.1983
▁भूतानाम	-11.1984
प्रत्युत्पन्न	-11.1984
▁देव्य	-11.1986
मर्च	-11.1987
▁प्रसृत	-11.1988
▁विधिवद्	-11.1988
▁प्रवास	-11.1989
पञ्चास	-11.199
▁निःस्वभाव	-11.1991
▁कथम्भूत	-11.1991
भूव	-11.1991
▁मधुरं	-11.1992
▁देवयान	-11.1993
▁सरः	-11.1993
द्वारं	-11.1994
▁महासत्त्वानां	-11.1994
▁अस्थि	-11.1996
▁जाय	-11.1997
पत्तये	-11.1997
▁शर	-11.1997
▁साध्वी	-11.1998
▁वायव्य	-11.1999
मैस्वर्य	-11.2
▁कल्पन	-11.2001
पुच्छ	-11.2001
▁कृषि	-11.2001
▁शिव	-11.2002
▁विद्यात्	-11.2003
▁पाण्डवा	-11.2003
ान्तःपुर	-11.2005
▁निस्चित्य	-11.2005
मेषां	-11.2006
▁समता	-11.2006
वांस्च	-11.2006
भौतिक	-11.2007
▁ग्रस	-11.2011
भिनिवेस	-11.2013
▁कुर्वन्न	-11.2013
क्रियमाण	-11.2014
वेक्ष्य	-11.2014
▁निःसेष	-11.2015
क्रु	-11.2016
ार्च	-11.2016
व्यावृत्ति	-11.2017
▁स्वगृह	-11.2017
ोऽभूद्	-11.2018
▁तैस्त	-11.2018
▁देसय	-11.2018
िषे	-11.2018
▁तावन्न	-11.2019
क्रियाया	-11.202
▁भाज	-11.2021
▁वेदि	-11.2023
वस्थितः	-11.2025
जानन्ति	-11.2025
ोदितः	-11.2026
सर्कर	-11.2027
▁परिण	-11.2028
▁नोपलभते	-11.2028
▁प्रकर्ष	-11.2028
▁छित्त्वा	-11.2028
▁मिलित	-11.2029
ाञ्ज	-11.203
▁प्राकार	-11.203
▁पतिम्	-11.2034
नुभूयते	-11.2037
प्रबन्ध	-11.2038
लक्षणो	-11.2038
ेभ्यस्	-11.2038
▁सहस	-11.2039
▁सुक्ति	-11.2039
▁पुलस्त्य	-11.204
ानामर्थ	-11.2041
द्युम्न	-11.2041
▁अणु	-11.2043
दहन	-11.2043
ोन्म	-11.2045
ादयस्च	-11.2046
▁पुनर्न	-11.2048
▁द्विविधं	-11.2048
स्मृत्य	-11.2049
समानाधिकरण	-11.2049
ेद्वा	-11.2051
▁अभिज्ञा	-11.2051
निन्द	-11.2051
ध्याहार	-11.2052
मावह	-11.2052
ाह्लाद	-11.2054
▁एततस्ति	-11.2054
▁देहिनाम्	-11.2054
रौद्र	-11.2055
मित्युक्तं	-11.2055
▁विदु	-11.2055
▁सेयं	-11.2056
योगाद	-11.2058
▁स्रेयः	-11.2058
▁स्रोष्य	-11.2058
ाकासस्य	-11.2062
▁सुमहा	-11.2063
सहस्रेण	-11.2063
थर्वण	-11.2064
▁संमुख	-11.2064
▁स्वविषय	-11.2066
ुपादाय	-11.2067
▁हनूम	-11.2067
रजो	-11.2068
मित्यादिना	-11.2068
▁नित्यम्	-11.2068
▁ब्रह्महत्या	-11.2071
बुद्धिर्	-11.2071
स्मिंस्च	-11.2072
▁समनन्तर	-11.2073
▁प्रतिलभते	-11.2073
▁यतस्त	-11.2074
▁चिन्तित	-11.2076
कार्मुक	-11.208
ानुचर	-11.208
▁वङ्ग	-11.208
▁साध्ये	-11.2082
जानन्	-11.2083
ाहवनीय	-11.2084
▁भवितु	-11.2086
हसित	-11.2087
▁श्री	-11.2089
▁वर्जित	-11.209
ासनि	-11.209
दर्सिनः	-11.209
नुबन्ध	-11.2091
▁मुनिस्रेष्ठ	-11.2093
▁वास्तव	-11.2094
▁भुञ्ज	-11.2094
▁आल	-11.2098
ॄणां	-11.2099
▁पितॄन्	-11.2099
▁चन्द्रमस	-11.21
न्वेष	-11.21
बोध्य	-11.2101
▁दण्डं	-11.2102
स्तेऽ	-11.2104
▁धनंजयः	-11.2104
▁पटल	-11.2106
ास्वास	-11.2107
ादिलक्षण	-11.2108
▁तथागतो	-11.2108
पगत	-11.2109
▁गमनं	-11.2109
▁क्षितौ	-11.2109
चिन्तयत्	-11.211
पीड	-11.2111
▁द्राव	-11.2112
वगाह	-11.2112
च्चानुपलम्भयोगेन	-11.2113
▁सुरेस्वर	-11.2113
▁निषीद	-11.2115
▁गदया	-11.212
▁नत्वा	-11.212
▁इत्येते	-11.2121
▁निपात्यते	-11.2121
ग्रस्त	-11.2121
लङ्घन	-11.2123
स्वामी	-11.2124
▁अधो	-11.2125
दृश	-11.2127
▁सिंहासन	-11.2127
सास	-11.2128
▁अङ्गुल	-11.2129
लक्ष्म	-11.2131
ार्दित	-11.2132
▁नन्वेवं	-11.2134
▁कर्णं	-11.2134
▁महिषी	-11.2136
सर्वत्र	-11.2136
▁राक्षसेन्द्र	-11.2137
▁दुरासद	-11.2137
▁गान्धर्व	-11.2137
▁विद्म	-11.2138
ावुप	-11.2138
मुहूर्त	-11.2139
वर्तयति	-11.2139
ोपस्थित	-11.2142
▁स्तेन	-11.2142
▁त्वदीय	-11.2142
सन्देह	-11.2143
▁भगवांस्त	-11.2144
▁सहृदय	-11.2145
▁जाया	-11.2145
▁प्रकल्प	-11.2145
▁अस्विना	-11.2149
ावचर	-11.2149
▁इतः	-11.2151
सोभा	-11.2152
सूचन	-11.2156
▁सोभा	-11.2156
▁जुष	-11.2157
▁तदयुक्तम्	-11.2157
मखिलं	-11.2159
▁देवर्षि	-11.2159
▁विरुध्यते	-11.216
▁वाक्यभेद	-11.2161
नासिक	-11.2161
▁सामन्त	-11.2161
सङ्	-11.2161
▁बभूवुः	-11.2165
संयोगात्	-11.2166
▁पूर्वपद	-11.2168
ादु	-11.2171
साधने	-11.2171
▁दातव्यं	-11.2171
मानीय	-11.2172
▁ह्र	-11.2173
संक्रान्त	-11.2174
▁मेने	-11.2176
▁निमज्ज	-11.2177
▁वाचो	-11.2179
सवः	-11.218
▁सर्वभाव	-11.2181
गृह्णाति	-11.2182
▁तेभ्यः	-11.2182
▁कनिष्ठ	-11.2182
मृज्य	-11.2183
▁जुह्व	-11.2184
▁भवनं	-11.2185
स्तेजो	-11.2185
▁युष्माकं	-11.2186
▁जन्मान्तर	-11.2186
▁तादृसं	-11.2186
▁कुप्य	-11.2186
रस्म	-11.2187
▁दर्सयन्	-11.2187
▁चामर	-11.2188
▁महिमा	-11.2188
ायुष्मन्त	-11.219
िष्यतीति	-11.2191
प्रतिषिद्ध	-11.2191
▁महापुराणे	-11.2191
▁ह्यस्य	-11.2191
मुन्	-11.2192
प्राज्ञ	-11.2193
प्राप्तौ	-11.2194
विषाण	-11.2197
▁यातु	-11.2197
र्भ	-11.2199
तिक्रम्य	-11.2204
ाधिवास	-11.2204
ञ्जल	-11.2206
ट्य	-11.2209
कृतौ	-11.2209
सारथि	-11.221
ानीत्य	-11.2211
▁पुरंदर	-11.2212
▁मिथो	-11.2212
▁विन्दति	-11.2213
▁निवारय	-11.2216
▁अण्	-11.2216
न्तीह	-11.2216
जरा	-11.2217
यितव्यं	-11.2218
▁सौमित्रि	-11.2224
▁घण्टा	-11.2227
▁इत्युक्तं	-11.2229
ात्च	-11.223
▁ग्रीवा	-11.2231
धित	-11.2232
▁निघ्न	-11.2233
यावत्	-11.2233
व्यवधान	-11.2236
▁तल्लक्षण	-11.2236
▁वृन्दावन	-11.2237
मुद्ग	-11.2237
▁मत्सर	-11.2238
लघु	-11.2238
▁सम्प	-11.224
स्येह	-11.224
▁कायस्य	-11.2243
कुटी	-11.2245
मोचन	-11.2246
▁अनुत्तरां	-11.2248
योगाद्	-11.2251
संनिधौ	-11.2253
▁स्रेष्ठा	-11.2253
ुका	-11.2253
▁अन्यतर	-11.2253
▁त्रिदिव	-11.2257
वपुः	-11.2259
तिलक	-11.226
▁जेतु	-11.226
▁रात्रिं	-11.226
ानुकम्प	-11.2261
▁आहुः	-11.2262
निधे	-11.2263
ग्नये	-11.2263
वासित	-11.2264
▁तस्मात	-11.2266
मीह	-11.2269
ाज्जात	-11.2269
गुल	-11.2269
ासत्ता	-11.227
▁विद्व	-11.2271
कै	-11.2273
▁वाराणसी	-11.2274
▁महति	-11.2274
▁मीमांस	-11.2276
भ्यर्च्य	-11.2276
हेतवः	-11.2279
रायण	-11.228
▁विमर्स	-11.2281
कारिणा	-11.2281
▁हठ	-11.2282
▁कलिङ्ग	-11.2282
पत्स्यते	-11.2283
▁राजकुल	-11.2283
▁तथागता	-11.2284
▁कटक	-11.2285
पुरी	-11.2288
मुण्ड	-11.2288
निसा	-11.229
▁प्रलम्ब	-11.2292
▁महासुर	-11.2292
क्ष्व	-11.2293
▁वदन्	-11.2294
▁त्रयस्त्रिंस	-11.2297
▁पायस	-11.2299
द्भव	-11.2299
▁ब्रह्मचारिण	-11.23
गणाः	-11.2301
▁मर	-11.2302
ोपगम	-11.2303
▁सत्वानां	-11.2303
▁उत्तरस्य	-11.2307
भ्व	-11.2307
▁लील	-11.2307
स्रवणात्	-11.2307
▁सन्तान	-11.2308
दोषेण	-11.231
नुपलम्भयोगेन	-11.2313
पत्तेः	-11.2313
▁च्छन्द	-11.2314
▁पूर्णा	-11.2317
▁तदनेन	-11.2317
▁मृत्युर्	-11.2318
▁निवेदयेत्	-11.2318
प्प	-11.2319
▁संक्रुद्ध	-11.2319
जगद्	-11.2319
न्यथ	-11.232
कुन्तल	-11.232
▁कुटिल	-11.2321
ङ्गि	-11.2322
▁कस्माद्	-11.2323
▁मुनीन्द्र	-11.2323
▁द्विजोत्तमाः	-11.2324
ानुरोधेन	-11.2324
मपेक्षते	-11.2324
ेन्द्रस्य	-11.2328
▁संहर	-11.2328
▁वैखानस	-11.233
▁सर्वेण	-11.2334
▁प्रधानस्य	-11.2334
▁सात्वत	-11.2334
ादिवाक्य	-11.2336
▁सदृसं	-11.2337
ात्मता	-11.2337
▁रक्षति	-11.2338
विद्वान्	-11.2338
भरत	-11.2339
▁ग्रन्थि	-11.2339
ज्यते	-11.2339
▁सर्वेऽपि	-11.2339
वरोध	-11.2339
वर्णित	-11.234
तेर	-11.2342
पङ्क्ति	-11.2345
▁मेध्य	-11.2346
▁हृष्टा	-11.2346
▁महर्षयः	-11.2347
मुत्पादयति	-11.2347
स्तिष्ठति	-11.2349
वक्ष	-11.2349
ोद्दिष्ट	-11.235
चेष्टित	-11.2351
मन्तर्	-11.2353
▁समनु	-11.2353
स्तनु	-11.2355
▁प्रभास	-11.2358
त्वात्तद	-11.2358
▁विरक्त	-11.2359
पुरोहित	-11.2367
ादिविषय	-11.2368
▁विरहित	-11.2373
भिषिच्य	-11.2373
रर्थ	-11.2374
▁तद्गत	-11.2376
गाद	-11.2376
▁प्रभाते	-11.2377
▁यावता	-11.2378
वाहिनी	-11.2378
पदिस्यते	-11.2378
▁प्रज्ञया	-11.2379
स्विना	-11.2382
ात्तत्र	-11.2382
▁दृस्यमान	-11.2385
▁प्राणातिपात	-11.2386
ांसो	-11.2387
▁यथान्यायं	-11.2388
ामलक	-11.2388
ैर्नि	-11.239
▁प्रियो	-11.2391
धनुर्	-11.2391
▁महाभूत	-11.2391
▁व्रजे	-11.2392
निलय	-11.2393
▁देहिन	-11.2394
▁आयुः	-11.2395
ात्परि	-11.2395
द्द्विज	-11.2396
ास्माकं	-11.2396
सङ्कर	-11.2397
ाख्यायते	-11.2397
ादिदोष	-11.2397
समन्त	-11.2398
्भ	-11.2398
ापत्य	-11.2401
▁तेभ्य	-11.2402
मूर्ध्व	-11.2403
देवदत्त	-11.2404
ोक्त्या	-11.2404
विनीत	-11.2406
वृत्तिर	-11.2406
▁मुनयो	-11.2407
▁अनात्म	-11.2407
▁सिक्षित	-11.2408
▁पठित	-11.2409
▁संभु	-11.241
निषेवित	-11.241
ामीत्य	-11.2411
प्रतिभान	-11.2414
सेवन	-11.2415
▁हृत्	-11.2415
▁ब्रूया	-11.2416
▁मृद्	-11.2417
▁दैवं	-11.2418
हेतुर्	-11.2421
▁प्रारब्ध	-11.2421
सृक्	-11.2422
▁गतौ	-11.2423
ाञ्छ	-11.2424
▁पुत्राणां	-11.2424
भरण	-11.2426
तपो	-11.2427
धिर	-11.2428
विवर्जित	-11.2434
स्चायं	-11.2434
विज्ञेय	-11.2436
धत्त	-11.2436
ात्मैव	-11.2436
▁निर्वेद	-11.2436
▁साध्याभाव	-11.2441
▁सत्तम	-11.2442
▁प्रव्रज	-11.2443
▁पाटल	-11.2443
पारग	-11.2444
▁वेष्ट	-11.2446
भूतेन	-11.2447
प्रवीर	-11.2447
मवाप्य	-11.2448
विसद	-11.2449
विकल्पः	-11.2451
▁तत्रेति	-11.2451
▁साध्यसाधन	-11.2451
पचय	-11.2451
कांक्ष	-11.2452
जस्र	-11.2454
▁केलि	-11.2455
▁हितम्	-11.2455
विरचित	-11.2455
वराह	-11.2457
मागच्छ	-11.2458
▁महाबाहुर्	-11.2459
ाधिकरणे	-11.2463
▁चरता	-11.2463
▁वैष्णवं	-11.2464
▁तद्यद	-11.2465
पुरुषार्थ	-11.2465
ित्यत्र	-11.2467
▁लोचनम्	-11.2468
▁चासौ	-11.247
▁द्विजाति	-11.2471
मित्येवं	-11.2471
▁भोति	-11.2472
युतम्	-11.2473
सुधा	-11.2474
ोजसा	-11.2475
▁नरव्याघ्र	-11.2475
स्तत्रैव	-11.2476
▁कथमपि	-11.2476
▁उभयत्र	-11.2477
▁व्यवदान	-11.2478
▁आग	-11.2478
▁सन्तो	-11.2479
▁कांस्य	-11.2481
धातोर्	-11.2481
▁परिगृह्णाति	-11.2481
खेद	-11.2481
▁व्यञ्जक	-11.2483
धेर्	-11.2483
प्रणास	-11.2483
चिन्त	-11.2484
ीयाः	-11.2487
दिग	-11.249
रन्य	-11.2493
िष्यमाण	-11.2494
रजः	-11.2495
▁प्रतिपादन	-11.2495
▁विकास	-11.2496
▁आधि	-11.2497
तथैव	-11.2497
मिथ	-11.2499
▁भगवती	-11.2501
मुदार	-11.2502
▁वैसेषिक	-11.2502
ुपलभ्य	-11.2503
▁अरुण	-11.2504
▁तद्विद	-11.2504
▁दैत्येन्द्र	-11.2505
ह्राद	-11.2505
ीभवति	-11.2506
▁सिथिल	-11.2506
▁स्रावय	-11.2507
▁निपातित	-11.2507
▁भर्तारं	-11.2508
पथ्य	-11.2509
सङ्कया	-11.251
ीणां	-11.251
▁स्रेष्ठो	-11.2511
लाघव	-11.2512
गस्त्य	-11.2514
▁उत्तरे	-11.2515
▁सिच	-11.2516
▁बर्ह	-11.2517
▁निर्वप	-11.2517
ाजौ	-11.2519
महिष	-11.2519
ायुष्मान्	-11.252
मसेष	-11.2524
▁द्रौपदी	-11.2525
तण्डुल	-11.2525
नृण	-11.2525
्वेति	-11.2529
▁विकल्पः	-11.2529
▁सिक्त	-11.253
व्याघ्र	-11.253
▁तत्त्वज्ञान	-11.2531
मतीत	-11.2533
▁मघव	-11.2533
▁प्रच्छन्न	-11.2534
वर्धनम्	-11.2535
वधे	-11.2535
घ्राण	-11.2536
▁निर्वाणं	-11.2537
ुच्यमान	-11.2538
▁कुबेर	-11.2539
▁सृगाल	-11.254
▁स्वभावतः	-11.2541
ह्रियते	-11.2542
▁पापक	-11.2543
कम्पित	-11.2543
▁स्रोत्रविज्ञान	-11.2543
▁व्याख्याय	-11.2543
व्याहार	-11.2544
▁सोधन	-11.2544
ेष्यते	-11.2544
▁जृम्भ	-11.2546
▁सूत्रकार	-11.2546
▁संदिग्ध	-11.2547
यिष्य	-11.2548
ावेक	-11.255
संक्लेस	-11.255
▁नरोत्तम	-11.255
▁लिप्यते	-11.255
मुत्सृज	-11.2551
ग्नय	-11.2552
▁परिष्वज्य	-11.2553
प्रासाद	-11.2554
मुकुल	-11.2554
स्तस्मै	-11.2554
पीन	-11.2554
▁निम्न	-11.2556
▁गुणैः	-11.2557
▁परिव्राजक	-11.2559
▁मृत्यो	-11.2559
ङ्गल	-11.256
▁मूर्च्छ	-11.2561
संसयम्	-11.2563
स्वभावो	-11.2564
व्रीड	-11.2565
▁तुरग	-11.2565
रेणु	-11.2566
▁त्राय	-11.2566
र्हत्त्व	-11.2566
ुद्यान	-11.2571
ुण	-11.2572
▁आयतन	-11.2572
▁महान्त	-11.2573
▁बहव	-11.2573
▁मायोपम	-11.2576
▁अभूषि	-11.2576
प्राप	-11.2578
ाण्यपि	-11.2578
▁चमू	-11.2579
▁विवर्त	-11.2581
ह्ण	-11.2581
स्तेजस	-11.2581
▁विसद	-11.2582
मृत्	-11.2583
ार्जव	-11.2583
ादिर्	-11.2586
▁भजते	-11.2589
▁गृ	-11.259
▁स्फुटम्	-11.2591
त्वमित्य	-11.2591
▁विप्रेन्द्र	-11.2593
भवन्ति	-11.2598
▁तूर्य	-11.26
ान्य्	-11.2601
समाचार	-11.2601
▁सुमह	-11.2601
ादीनामपि	-11.2602
▁एतस्मिन्नन्तरे	-11.2602
नुरूप	-11.2604
ासीत	-11.2606
खिलं	-11.2607
▁भवेय	-11.2608
▁प्रस्थ	-11.2608
द्राक्ष	-11.2609
ापकर्ष	-11.2609
द्गुरु	-11.2609
▁तस्मिन्समये	-11.261
कृत्यं	-11.2612
▁धीरा	-11.2612
दृष्टिः	-11.2615
▁धन्या	-11.2616
▁रसातल	-11.2617
मृण	-11.2617
प्यत्र	-11.262
▁हरी	-11.262
ग्रन्थि	-11.2621
संसदि	-11.2621
▁ममैव	-11.2624
▁दुर्जन	-11.2625
विज्ञाय	-11.2625
▁दसन	-11.2627
▁तथागतः	-11.2627
वगन्तव्य	-11.2628
वसो	-11.2628
▁पर्यव	-11.2628
▁देवानामिन्द्र	-11.2628
▁प्रहीण	-11.2628
सिरः	-11.2629
पपात	-11.2631
गोचरः	-11.2637
▁मृता	-11.2637
▁ब्रह्माणं	-11.2638
▁वर्धय	-11.264
भेदस्य	-11.264
सत्तमः	-11.264
▁कौतूहल	-11.2641
ाकुला	-11.2641
ाख्यानं	-11.2642
ोच्चारण	-11.2643
चक्षुर्	-11.2643
▁परिच्छेद	-11.2644
धातुर	-11.2644
▁विवस	-11.2646
समन्वय	-11.2646
सुष्क	-11.2647
ावस्थायां	-11.2649
▁नित्यमेव	-11.2651
ाद्यभाव	-11.2652
▁स्तेय	-11.2655
▁अनया	-11.2656
कलेवर	-11.2656
वदति	-11.2657
मीक्ष	-11.2658
संभवे	-11.2659
▁पृष्ठे	-11.266
मार्त	-11.2662
▁वृद्धिं	-11.2663
ोदयः	-11.2663
मधुना	-11.2664
▁आयुर्	-11.2664
▁तावदेव	-11.2665
ोऽस्व	-11.2667
▁प्रभवति	-11.2669
▁चेतस	-11.2669
च्या	-11.2669
महायान	-11.2671
मूर्ध	-11.2671
ादिह	-11.2672
ावृता	-11.2674
▁आत्मानम	-11.2674
▁विद्युत्	-11.2676
▁कम्बल	-11.2677
▁रुद्ध	-11.2677
▁कूटस्थ	-11.2677
विनोद	-11.2678
वाची	-11.2678
▁विदूषक	-11.2678
▁एवमेतत्	-11.2679
▁दह्यमान	-11.2679
गुरो	-11.268
▁सहैव	-11.268
▁तच्	-11.268
विवेस	-11.268
▁मन्तव्य	-11.2682
मभवत्	-11.2682
▁तुष्टि	-11.2686
भिरिव	-11.2688
क्रान्ति	-11.2689
▁यथायोगं	-11.2689
गन्तव्य	-11.269
▁मते	-11.269
जीवन	-11.269
ब्रवीद	-11.2692
▁नेत्रे	-11.2694
भिषेक	-11.2696
▁लीलया	-11.2697
विस्रान्त	-11.2697
▁कर्त्तव्य	-11.2698
▁निरूपित	-11.2698
▁सक्तिर	-11.2699
▁वैडूर्य	-11.2699
▁प्रविसति	-11.2699
▁अन्नं	-11.2699
▁निहता	-11.2702
▁अध्वर	-11.2702
▁धर्मदेसना	-11.2704
पुरोगमाः	-11.2705
▁ज्वाल	-11.2706
कर्मणाम्	-11.2706
▁पिण्डपात	-11.2707
▁व्याल	-11.2708
सेषेण	-11.2709
▁परिकीर्तिता	-11.2711
चेष्ट	-11.2714
ाऽत्म	-11.2715
▁गर	-11.2715
▁कृत्रिम	-11.2715
▁बहू	-11.2715
▁तदर्ध	-11.2717
ानुभावेन	-11.2718
▁वार्ता	-11.2718
▁हृद्	-11.2718
मकरोत्	-11.272
▁सख्या	-11.272
वच्छिन्न	-11.272
▁महाघोर	-11.2723
▁कोमल	-11.2724
▁सर्वरत्न	-11.2725
▁एकत्र	-11.2725
विमर्स	-11.2727
▁हान	-11.2727
▁पूर्वत्र	-11.2728
▁घृतेन	-11.273
▁युज	-11.2732
▁भूपते	-11.2733
पतन्त	-11.2734
धन्वन	-11.2736
▁निर्मम	-11.2736
धुन	-11.2738
▁स्पृहा	-11.2739
▁मुहुर्	-11.2739
▁ह्यर्थ	-11.2743
पूर्वकत्व	-11.2743
न्मद	-11.2744
▁प्रददौ	-11.2744
▁कुवलय	-11.2747
नाह	-11.2749
धिष्ठ	-11.2749
▁वार्य	-11.2751
वैषम्य	-11.2751
▁वृतः	-11.2753
▁दूरत	-11.2756
▁वज्रेण	-11.2757
▁तदास्रय	-11.2757
▁महाबाहुः	-11.2757
▁विसंयुक्तः	-11.2758
संहत	-11.2759
▁पूरय	-11.2761
▁निवार्य	-11.2763
▁कस्यचिद्	-11.2764
▁दीपन	-11.2765
▁सुभाषित	-11.2766
निर्जित	-11.2766
ृषी	-11.2768
्येते	-11.2768
▁पर्येष	-11.2769
▁बिल	-11.277
▁गायत्र	-11.277
▁त्री	-11.2771
▁स्लोकः	-11.2773
▁कुमारो	-11.2773
सद्य	-11.2774
मासीत्	-11.2775
ोत्कण्ठ	-11.2776
▁लक्षित	-11.2777
लक्षणेन	-11.2777
सालि	-11.2778
ग्रहणम्कर्तव्यम्	-11.2778
▁प्रकृष्ट	-11.2779
स्तोम	-11.2781
ष्यन्ति	-11.2782
बिन्द	-11.2786
▁सर्वसत्त्वानां	-11.2787
▁सान्द्र	-11.2787
ोत्तरम्	-11.2789
संबन्धि	-11.2789
बभौ	-11.279
▁हरेत्	-11.2793
▁कलाप	-11.2793
ितव्य	-11.2794
▁प्रसज्यते	-11.2794
▁हस्तौ	-11.2795
▁तत्पद	-11.2795
▁भावयेत्	-11.2795
मक्ष	-11.2796
वदत्	-11.2797
वसिष्ठ	-11.28
्येक	-11.2801
मालिन	-11.2802
▁सत्यम	-11.2802
▁कार्यम	-11.2802
▁सक्तो	-11.2802
▁सर्वात्मना	-11.2803
▁व्रजति	-11.2804
मोचय	-11.2805
▁रुरु	-11.2806
▁प्रतिष्ठापयति	-11.2807
▁क्लीब	-11.2807
▁विमुख	-11.2808
▁चतुर्धा	-11.2808
▁अस्माकम	-11.2809
तूर्य	-11.281
▁बलिना	-11.281
ृते	-11.2811
द्रष्टृ	-11.2811
मित्यपि	-11.2812
▁चित्तम	-11.2813
▁प्रचक्षते	-11.2814
ेऽस्ति	-11.2815
▁तैरेव	-11.2815
▁उपस्थ	-11.2816
▁चेतो	-11.2816
ैस्चापि	-11.2816
▁वदत	-11.2817
▁पोषध	-11.2817
महाबल	-11.2818
▁प्रकृतिसून्य	-11.2819
▁पारं	-11.2819
फेन	-11.2819
▁गृह्णा	-11.282
ग्रतः	-11.282
ास्त्रेण	-11.2821
लिख	-11.2822
संमित	-11.2822
मूलक	-11.2822
▁निराह	-11.2823
ापात	-11.2824
▁वयः	-11.2824
प्येष	-11.2825
▁तावुभौ	-11.2827
▁क्रियमाणे	-11.2827
▁वदतां	-11.2827
रोहति	-11.2828
▁वस्तुनो	-11.2829
क्षू	-11.2831
रवि	-11.2833
▁उन्मत्त	-11.2836
▁रेणु	-11.2838
▁ओम्	-11.2838
▁भीता	-11.2839
तुमुल	-11.2839
रचित	-11.2841
▁सूत्रेण	-11.2841
म्यथा	-11.2842
त्यथ	-11.2845
मर्जुन	-11.2846
▁अवतार	-11.2846
▁तारक	-11.2848
▁लिङ	-11.2848
▁साङ्ख्य	-11.2848
▁भगवते	-11.2848
बृंहित	-11.285
तत्त्वज्ञ	-11.285
चित्तेन	-11.2851
देवताः	-11.2853
कपि	-11.2854
▁योगिनः	-11.2855
▁उपकार	-11.2857
वर्मा	-11.286
▁याता	-11.2861
▁प्राक्तन	-11.2861
▁पार्वती	-11.2861
▁द्वितीयो	-11.2862
▁विमर्द	-11.2865
स्वभावता	-11.2866
पार्षद	-11.2866
▁ज्ञातु	-11.2867
▁स्वपर	-11.2867
स्रमण	-11.2867
▁मिथ्याज्ञान	-11.2868
▁पूर्ववद्	-11.2868
▁मन्दिर	-11.2869
▁माक्षिक	-11.2869
ययुः	-11.2871
गर्त	-11.2872
ञ्चि	-11.2873
▁अमर	-11.2873
▁गम्यमान	-11.2874
ापक	-11.2875
न्तेऽ	-11.2875
▁पसव	-11.2877
त्मानं	-11.2878
▁धारणा	-11.288
▁संदेहः	-11.288
पूजयेत्	-11.2881
▁प्राति	-11.2881
ादर्स	-11.2881
▁साक्षा	-11.2881
▁षड्विध	-11.2882
ीभूता	-11.2882
प्रतियोगि	-11.2883
▁रतः	-11.2883
व्रज्या	-11.2884
▁सिरस	-11.2884
न्नित्य	-11.2885
ापहार	-11.2885
संभ्रम	-11.2887
विड	-11.2888
▁आर्द्र	-11.2889
▁निरर्थक	-11.2889
तिक्त	-11.2891
▁व्युत्पत्ति	-11.2892
नियोग	-11.2892
्त्र	-11.2892
▁विधानेन	-11.2894
▁वाव	-11.2894
ितुमर्हसि	-11.2895
▁हैम	-11.2895
पीड्य	-11.2895
▁जहार	-11.2896
▁वायस	-11.2896
द्देस	-11.2899
भुञ्ज	-11.2899
▁संहिता	-11.2901
ाग्रज	-11.2901
▁भगवन्तमेतदवोचत्	-11.2901
हीनं	-11.2902
ष्यते	-11.2903
▁आस्ते	-11.2904
द्विप्र	-11.2907
▁सलिलं	-11.2907
प्रवर्तते	-11.2908
▁अन्तःपुर	-11.2908
▁पराजय	-11.291
▁त्रिभिर्	-11.291
▁नारदः	-11.2911
▁प्रासादिक	-11.2911
▁सप्तधा	-11.2912
▁काचिद	-11.2914
मुने	-11.2915
▁विस्रुतः	-11.2916
ोक्तेः	-11.2916
▁वृष्ट	-11.2916
▁यन्ति	-11.2917
भिभूय	-11.2917
योर्मध्ये	-11.2919
सिद्धत्वात्	-11.2919
वसाद्	-11.292
सुन्दरी	-11.292
▁विरोधि	-11.292
▁युद्धाय	-11.2922
ुच्यत	-11.2922
वैलक्षण्य	-11.2926
ाभिहत	-11.2926
▁गौ	-11.2927
ानुस्मृति	-11.2927
▁पूर्वोत्तर	-11.2928
स्वाहा	-11.293
माहवे	-11.2931
ोपधान	-11.2933
▁तिसृ	-11.2935
▁भावस्य	-11.2935
तिरेक	-11.2936
पस्यत	-11.2936
नुव्यवसाय	-11.2938
स्मीति	-11.2938
▁रक्षसा	-11.2938
▁तज्ज्ञ	-11.2938
▁इत्येतद	-11.2939
मागता	-11.2943
गत्या	-11.2945
▁युञ्ज	-11.2947
िच्छा	-11.2947
मख	-11.2947
सायक	-11.2948
▁किञ्चन	-11.2948
विवर्त	-11.2949
भूम्य	-11.295
्महे	-11.2951
▁कुक्कुट	-11.2952
प्रतिष्ठा	-11.2954
▁बहि	-11.2954
▁साल्व	-11.2954
▁पितुर	-11.2954
▁पराङ्मुख	-11.2955
संग	-11.2957
विसाल	-11.2958
▁बृहती	-11.2962
▁बध्नाति	-11.2963
▁विसर्ग	-11.2963
▁सज्जन	-11.2964
▁नृसंस	-11.2964
▁परिदेव	-11.2964
विच्छिन्न	-11.2965
▁सासने	-11.2965
▁नरवाहनदत्त	-11.2967
विसेषणम्	-11.2968
पुराणे	-11.297
▁पुलक	-11.2972
स्त्वत्	-11.2974
▁हिरण्मय	-11.2974
मुपपद्यते	-11.2976
ित्येत	-11.2977
▁विप्रलम्भ	-11.2978
हारिण	-11.2979
स्वयम्	-11.2979
धृक्	-11.2979
ूयमान	-11.2979
ाङ्गीकार	-11.298
निर्दिस	-11.2981
▁क्वचि	-11.2981
संहृत	-11.2983
▁कतर	-11.2984
निनाद	-11.2985
▁जनकाय	-11.2987
दध्य	-11.2989
ोऽहम्	-11.2989
▁पात्रे	-11.299
ोषण	-11.2991
▁ब्रुव	-11.2992
भ्यागत	-11.2992
▁स्यात्तदा	-11.2994
▁तूप	-11.2995
▁संस्थिता	-11.2995
▁षष्ट	-11.2995
▁भुवः	-11.2995
▁क्षाम	-11.2996
▁किम्तर्हि	-11.2998
▁तदन	-11.2999
ुष्य	-11.3
▁अहम्	-11.3001
▁ज्योतिष्	-11.3001
▁प्रकीर्तिताः	-11.3001
बोधक	-11.3002
न्मही	-11.3002
चिन्तन	-11.3005
▁सङ्कित	-11.3006
सखी	-11.3006
▁सकृदागामिफल	-11.3007
▁इतरथा	-11.3007
ैषी	-11.3008
▁चञ्चल	-11.3008
नोक्त	-11.3009
▁अस्मि	-11.3009
▁चतुर्थे	-11.301
▁संमोह	-11.301
भिरिति	-11.3011
▁कृतानि	-11.3011
▁ततस्तस्य	-11.3012
बिल	-11.3012
▁स्वस्व	-11.3014
▁केनचिद	-11.3014
चन	-11.3015
▁सूद	-11.3016
▁सोऽयम	-11.3016
ालिक	-11.3017
▁परतन्त्र	-11.3018
कीर्त्य	-11.3018
▁नभो	-11.3018
वेस्मनि	-11.3019
▁कर्णे	-11.3019
▁अचि	-11.3021
▁प्रती	-11.3022
▁भूतल	-11.3023
▁सुद्धोदन	-11.3024
▁अन्तरङ्ग	-11.3025
▁अदृस्य	-11.3026
ेन्सुः	-11.3027
वसीयते	-11.3028
▁विक्षिप्त	-11.303
योनौ	-11.3031
▁प्रतिष्ठापित	-11.3032
▁भक्षित	-11.3033
▁लुक्	-11.3034
क्रय	-11.3034
मनीष	-11.3035
▁सूप	-11.3035
▁संप्रस्थित	-11.3035
भव्य	-11.3035
▁व्यवच्छेद	-11.3036
▁विषण्ण	-11.3036
▁ह्रीं	-11.3037
▁सौचं	-11.3037
पतेर्	-11.3037
▁मान्य	-11.3037
▁तृप्य	-11.3039
ष्टाङ्ग	-11.3039
व्याप्त्य	-11.304
▁पचति	-11.304
▁पिप्पल	-11.3041
▁दृष्ट्व	-11.3041
ाङ्गार	-11.3041
रद	-11.3042
▁निपतित	-11.3042
स्मिञ्	-11.3043
देष	-11.3043
वृषभ	-11.3043
ूणां	-11.3045
ेक्षणः	-11.3045
▁भिक्ष	-11.3045
▁लोष्ट	-11.3046
▁क्रव्याद	-11.3046
▁तस्थु	-11.3047
क्ष्यति	-11.3049
▁प्रायो	-11.305
▁चिन्तयामास	-11.3052
ाप्नुया	-11.3052
पीह	-11.3053
मक्षर	-11.3053
निर्यात	-11.3054
▁पञ्चविंसति	-11.3056
▁विस्रुत	-11.3058
त्तम	-11.3058
ात्मनाम्	-11.3058
▁गुरोर्	-11.3058
ोऽल्प	-11.3059
▁कितव	-11.3061
वेगेन	-11.3061
ान्योन्य	-11.3062
ातपत्र	-11.3063
▁प्रकल्पयेत्	-11.3065
▁तदिदम	-11.3066
नाव	-11.3068
च्छेद्य	-11.3068
रप	-11.3069
ावरणं	-11.3069
ुत्साह	-11.3071
स्तथापि	-11.3073
ऽर्थ	-11.3073
▁चतुर्थं	-11.3075
▁यथाभूत	-11.3075
▁भूतिति	-11.3077
स्चल	-11.3077
▁प्रभेद	-11.3078
म्स्यात्	-11.3079
ोऽर्जुन	-11.3079
▁हर्म्य	-11.308
▁कोऽयं	-11.308
र्थापत्ति	-11.3081
प्ल	-11.3082
ऽनघ	-11.3082
ल्लिख	-11.3084
तिदेस	-11.3084
मुपलभ्य	-11.3085
कार्याणि	-11.3088
▁तस्माच्च	-11.3088
ार्थक्रिया	-11.3088
चेतना	-11.3089
जन्मना	-11.3091
▁विंस	-11.3091
ज्ञाप्य	-11.3092
र्चिष	-11.3092
च्छेत्	-11.3094
▁तद्भव	-11.3094
▁आपः	-11.3095
ददाति	-11.3095
ायामिति	-11.3096
वत्त्वं	-11.3096
तस्माद्	-11.3096
तुङ्ग	-11.3097
ाक्षो	-11.3097
कालीन	-11.3098
▁मुनिर्	-11.3099
मन्तं	-11.3099
स्तीर	-11.31
▁मर्त	-11.3102
▁तदङ्ग	-11.3102
▁धात्वर्थ	-11.3103
▁नासौ	-11.3103
मुपलभते	-11.3103
▁मुहूर्तं	-11.3104
▁त्रिर	-11.3104
▁कृष्ट	-11.3107
▁सारद	-11.3107
▁धनद	-11.3109
▁कुत्स	-11.3111
▁सुकृतं	-11.3113
व्याध	-11.3114
▁कथमिति	-11.3114
▁निष्काम	-11.3115
▁बृहद	-11.3116
▁लुप्त	-11.3117
▁यज्ञेन	-11.3117
▁रभस	-11.3119
▁स्रोतव्य	-11.3119
ाङ्घ्रि	-11.3119
विचिकित्स	-11.3121
योर्न	-11.3122
ानुपलब्ध	-11.3123
ात्यन्तिक	-11.3124
▁मृतं	-11.3125
▁नितम्ब	-11.3126
▁वत्सर	-11.3126
▁कील	-11.3127
पनीत	-11.3127
▁विस्मृत	-11.3127
▁कौस्तुभ	-11.3128
▁वक्तव्या	-11.313
ास्यन्ति	-11.3133
▁पसून्	-11.3133
विद्याधर	-11.3134
▁सुस्राव	-11.3134
चिन्तयन्	-11.3136
घाट	-11.3136
▁रम्यं	-11.3136
▁मुहुर	-11.3139
▁तिथि	-11.314
धवल	-11.314
▁भ्रातरं	-11.314
ाभावेऽपि	-11.3141
▁मिथ्यात्व	-11.3141
विषयत्वं	-11.3141
▁गर्ह	-11.3142
कुण्ड	-11.3145
▁कुरुक्षेत्र	-11.3145
▁जितेन्द्रियः	-11.3145
▁भयात्	-11.3147
▁अनृत	-11.3147
र्गल	-11.3148
नारी	-11.315
▁तदर्थं	-11.315
मवस्था	-11.3151
▁ऋषयो	-11.3151
मूषा	-11.3152
कपोल	-11.3152
मर्स	-11.3152
विधाय	-11.3156
मुपसंहरति	-11.3156
धेः	-11.3156
क्षोभ्य	-11.3159
▁यजते	-11.3159
चीर्ण	-11.316
▁महानुभाव	-11.3161
ेस्वरस्य	-11.3161
▁प्राङ्मुख	-11.3162
▁सोऽथ	-11.3163
मत्या	-11.3163
भिप्रेत्य	-11.3164
लाभे	-11.3164
▁वदसि	-11.3165
▁कायिक	-11.3166
विभागे	-11.3166
▁पुत्राः	-11.3169
▁यस्मा	-11.317
हेतुत्वात्	-11.3171
तीक्ष्ण	-11.3171
षद	-11.3171
▁नागराज	-11.3172
दसन	-11.3172
मग्ने	-11.3172
▁कनीय	-11.3173
ाप्याय	-11.3173
▁पृच्छामि	-11.3174
वस्तू	-11.3175
▁अप्राप्त	-11.3176
भिमन्त्र्य	-11.3177
▁किर	-11.3178
सारित	-11.3179
▁विसाख	-11.3179
▁कुरव	-11.3179
ख्याति	-11.3181
ग्रास	-11.3182
▁सुदुर्लभ	-11.3183
▁भयम्	-11.3184
ानयन	-11.3185
▁ग्रस्त	-11.3185
सम्भार	-11.3185
राजि	-11.3186
ार्थमेव	-11.3187
ेष्टि	-11.3187
▁एकादेस	-11.3188
▁गर्ग	-11.3188
▁वनवास	-11.3189
दृस्यन्त	-11.319
▁वाल	-11.3191
▁मन्म	-11.3192
▁निर्दोष	-11.3193
स्तीर्य	-11.3194
मुह	-11.3194
▁अर्थस्य	-11.3194
▁पूर्वपक्षे	-11.3194
▁तार्क्ष्य	-11.3196
▁तमसा	-11.3196
चिकित्स	-11.3197
▁गिरः	-11.3198
जग्म	-11.3199
कर्तार	-11.32
पराक्रमः	-11.32
द्वारे	-11.3201
▁स्वकं	-11.3201
मनुप	-11.3202
▁योगिनां	-11.3205
च्छादय	-11.3206
▁तज्	-11.3206
▁ख्याति	-11.3209
▁मूक	-11.3211
▁नक्त	-11.3212
क्वचित्	-11.3216
परस्पर	-11.3216
▁उष	-11.3218
▁गच्छन्	-11.3219
न्तीत्य	-11.3221
समारोप	-11.3221
▁एतौ	-11.3222
▁कामरूप	-11.3225
▁संरब्ध	-11.3225
▁कर्माण्य	-11.3226
▁तदेतद्	-11.3227
▁तत्स्वभाव	-11.3227
▁त्यजेत्	-11.3227
ऽइत्यादि	-11.3229
ादुत्तर	-11.3229
▁प्रतिपत्तव्य	-11.323
क्ष्यामि	-11.323
▁साला	-11.323
▁वीरौ	-11.3231
विवेच	-11.3231
नुसासन	-11.3233
जटा	-11.3233
▁प्रत्युक्त	-11.3234
विस्तीर्ण	-11.3234
▁क्षेत्रे	-11.3235
▁प्राप्नुया	-11.3235
सनि	-11.3236
▁मध्यतो	-11.3236
रिष्यते	-11.3237
धेनु	-11.3238
येयुः	-11.3239
ोऽनन्त	-11.3239
काक	-11.3239
▁जिह्वाविज्ञान	-11.324
▁युज्य	-11.324
▁क्षुत्	-11.324
ीरित	-11.3241
▁दुर्जय	-11.3242
▁आयुध	-11.3242
▁निन्दा	-11.3243
▁गर्दभ	-11.3245
▁सोभते	-11.3246
▁धारयेत्	-11.3247
▁कीर्तन	-11.3247
विदा	-11.3247
▁किञ्चि	-11.3249
स्येत्यर्थः	-11.3249
▁तत्त्वेन	-11.3249
▁स्वास्रय	-11.325
ाङ्गुष्ठ	-11.3251
ाम्र	-11.3252
▁पोत	-11.3253
मंस	-11.3254
ार्चित	-11.3254
ुक्थ	-11.3254
▁ज्ञास्य	-11.3254
▁कर्मपथ	-11.3254
विनि	-11.3256
न्नृप	-11.3258
▁मृगया	-11.326
राज्ञा	-11.3261
▁बुद्धिमान्	-11.3262
▁सांप्रतम्	-11.3265
▁यदृच्छया	-11.3265
▁स्युर	-11.3265
भयात्	-11.3266
मद्भुत	-11.3267
कस्मात्	-11.3267
▁क्रियतां	-11.3269
मसक्य	-11.327
कुञ्चित	-11.3271
▁मुख्यार्थ	-11.3271
▁अज्ञात	-11.3271
▁वाजि	-11.3273
▁रसेन	-11.3274
विक्लव	-11.3275
कास्यप	-11.3276
भानु	-11.3276
ेतानि	-11.3276
▁स्ल	-11.3276
ान्तःकरण	-11.3277
▁देवेसि	-11.3278
ऽधुना	-11.3279
▁अचल	-11.328
▁खुर	-11.3281
रित्र	-11.3281
▁कपिला	-11.3281
▁प्रहित	-11.3281
▁सपथ	-11.3283
▁पञ्चविध	-11.3283
पित्र	-11.3285
संध्य	-11.3285
▁प्रतीक	-11.3285
▁पुष्पित	-11.3286
प्रकारेण	-11.3287
▁क्ष्मा	-11.3287
विषयता	-11.3287
ाच्युत	-11.3288
▁मनुः	-11.3288
▁हनुम	-11.329
ाच्छब्द	-11.329
ाहार्य	-11.329
पुंस	-11.3291
▁रत्य	-11.3292
ागतम्	-11.3293
निवृत्तौ	-11.3293
▁अग्न	-11.3294
नादर	-11.3294
▁निबन्धन	-11.3295
ाढ्या	-11.3296
ए	-11.3297
▁भासते	-11.3298
प्रसङ्गेन	-11.3299
ाग्न्य	-11.3299
▁राधेय	-11.3299
▁अहि	-11.3299
▁वन्ध्या	-11.3299
▁सृण्व	-11.3299
▁सक्यः	-11.3299
▁वासर	-11.33
कृत्त	-11.3301
▁वन्य	-11.3302
ाद्व्य	-11.3303
भूतानां	-11.3304
वच्छेद	-11.3305
▁स्वकार्य	-11.3306
भावस्वभाव	-11.3306
व्याख्या	-11.3309
▁व्याज	-11.3312
नार्थं	-11.3312
▁संभाव्य	-11.3314
▁यथाकामं	-11.3314
▁सेक	-11.3314
विषयत्वेन	-11.3316
▁पृतना	-11.3319
▁भीमो	-11.3319
पिटक	-11.3322
▁अयमर्थः	-11.3322
▁पुण्डरीकाक्ष	-11.3323
▁कृत्वाऽ	-11.3323
च्छील	-11.3325
भिनिर्हार	-11.3326
▁अदिति	-11.3326
▁वैकुण्ठ	-11.3327
स्तर्हि	-11.3327
ाकर्ण्य	-11.3327
च्चक्र	-11.333
▁किंचि	-11.333
परिच्छिन्न	-11.333
▁निःस्रेयस	-11.333
▁हेतुमाह	-11.3331
▁संस्थाप्य	-11.3332
▁सृणुष्व	-11.3332
▁तूर्णं	-11.3332
द्युतिः	-11.3333
ोपसोभित	-11.3334
▁अनर्थक	-11.3334
सब्दात्	-11.3336
▁कीदृसं	-11.3336
▁पुराणं	-11.3338
▁वक्तुम्	-11.3339
ाहुर	-11.334
▁सर्षप	-11.3343
षट्क	-11.3344
बर्हि	-11.3345
▁कुड्य	-11.3346
▁मासे	-11.3346
मृत्तिक	-11.3346
▁मामक	-11.3348
य्	-11.3348
▁काण	-11.335
▁स्नापय	-11.335
ागच्छ	-11.335
▁कुमारभूत	-11.3352
येयं	-11.3352
▁जहाति	-11.3354
▁चिति	-11.3354
निर्वाह	-11.3355
जानत	-11.3355
▁कौमार	-11.3355
ैर्धर्म	-11.3355
▁अगस्त्य	-11.3355
पेक्ष्य	-11.3357
संक्रम	-11.3357
समु	-11.3357
न्यतरस्याम्	-11.3358
▁प्रतिषिध्यते	-11.3361
ाप्रामाण्य	-11.3361
▁बृहस्पते	-11.3361
▁बिभ्र	-11.3361
▁परया	-11.3361
मथापि	-11.3364
▁निस	-11.3365
▁चक्रुः	-11.3368
▁फण	-11.3368
ाचरेत्	-11.3369
सीम	-11.3373
▁सभ्य	-11.3373
▁सनैर्	-11.3373
▁मनस्विन	-11.3373
▁जिज्ञासा	-11.3374
हनि	-11.3374
र्षी	-11.3375
ावस्यं	-11.3376
▁कया	-11.3379
निरुक्त	-11.338
▁एतस्मिन्	-11.338
खात	-11.3383
▁व्यध	-11.3383
▁कृतान्त	-11.3384
▁सार्धम	-11.3385
स्विनौ	-11.3387
यावद	-11.3388
कुञ्जर	-11.3388
▁सुदुर्	-11.3388
▁वर्ति	-11.3388
▁यसस्विनी	-11.3388
मनर्थक	-11.3389
▁मृणाल	-11.3392
हेतव	-11.3392
▁दैन्य	-11.3393
सङ्गम	-11.3396
निर्भास	-11.3397
निवृत्त्यर्थ	-11.3398
ाध्यवसाय	-11.3398
येच्च	-11.3398
ाश्च	-11.3398
सुभग	-11.3403
गमने	-11.3404
ामर्ष	-11.3404
ाभिज्ञ	-11.3405
▁अनुत्पन्न	-11.3406
▁कायविज्ञान	-11.3406
फलक	-11.3408
मवेक्ष्य	-11.3409
▁षण्णा	-11.341
▁कण्डू	-11.3411
▁बहिर्धासून्यता	-11.3411
▁धेहि	-11.3413
ास्तां	-11.3415
▁उपपत्ति	-11.3416
ोऽस्तीति	-11.3417
▁रेच	-11.3419
▁तरल	-11.342
▁सिवाय	-11.342
धिदैव	-11.3422
व्यञ्जक	-11.3423
द्भि	-11.3426
सहितं	-11.3426
▁निरूप्य	-11.3427
व्यति	-11.3431
▁नोपलभ्यन्ते	-11.3431
ज्वाला	-11.3432
▁परिष	-11.3433
▁निष्कल	-11.3433
▁सङ्गम	-11.3434
लिक	-11.3435
▁ज्योतिष	-11.3436
▁समाः	-11.3437
ासंस	-11.3439
▁विलस	-11.3439
मेरु	-11.3439
▁पतिर्	-11.3441
▁संस्रय	-11.3442
▁सुखाय	-11.3444
▁भगवद	-11.3444
भगवन्बोधिसत्त्वो	-11.3444
▁दर्पण	-11.3445
तीरे	-11.3445
▁सैन्यं	-11.3446
▁भविष्यामि	-11.3446
▁ज्वलन्त	-11.3447
नुप्रास	-11.3447
क्लिन्न	-11.3447
क्ख	-11.3448
कुष्ठ	-11.3448
ादावपि	-11.3449
▁कुन्द	-11.3449
▁विनोद	-11.3451
▁नरसिंह	-11.3451
▁सिद्धार्थ	-11.3452
▁दास्यामि	-11.3452
दष्ट	-11.3454
▁तयो	-11.3455
▁नैरृत	-11.3457
▁जज्ञिरे	-11.3458
▁पयस	-11.3458
▁तदुक्त	-11.3459
व्रतम्	-11.3459
लालस	-11.3459
प्यस्ति	-11.3461
▁उपचार	-11.3461
▁संवर्तते	-11.3461
विभूषितम्	-11.3462
गतेन	-11.3462
▁बोध्यङ्ग	-11.3464
▁अस्वमेध	-11.3465
▁समासः	-11.3466
नापि	-11.3466
▁एवमन्य	-11.3468
▁मुदिता	-11.3469
▁नीलोत्पल	-11.3469
▁समासतः	-11.347
▁पृष्टः	-11.347
र्पण	-11.347
▁अङ्गुष्ठ	-11.3473
▁सर्वाकारज्ञताया	-11.3475
▁विनापि	-11.3475
▁महतीं	-11.3475
▁सन्निहित	-11.3476
▁तदु	-11.3476
मात्रमेव	-11.3479
मास्रिताः	-11.348
ाङ्गत्व	-11.3481
खण्डे	-11.3483
द्धर्म	-11.3484
▁परस्मैपद	-11.3485
ात्मनेपद	-11.3485
ाब्धि	-11.3485
वैष्णव	-11.3486
ुदीरित	-11.3487
▁बुद्धधर्मा	-11.3488
सकृद	-11.349
मौलि	-11.3491
▁दयिता	-11.3492
▁सर्वधर्माणां	-11.3493
▁द्वादसाह	-11.3494
▁कुलाल	-11.3494
▁षट्त्रिंस	-11.3494
▁गीयते	-11.3495
▁सून्यतासून्यता	-11.3495
ार्चि	-11.3498
स्वीकार	-11.3499
ञि	-11.3499
▁साधयेत्	-11.3499
▁उषस	-11.3499
ेऽर्थ	-11.35
भेदाद्	-11.35
िष्यामीति	-11.3502
▁पुरुषोत्तमः	-11.3502
▁परिकल्प	-11.3503
▁मञ्च	-11.3503
मतं	-11.3503
विवर्जितः	-11.3504
ुपलभ्यते	-11.3504
▁यान्य	-11.3504
▁वन्दित्वा	-11.3504
▁परित्यज	-11.3504
मिन्दु	-11.3507
कल्पनया	-11.3507
ात्सु	-11.3508
▁दुहितर	-11.3508
▁समथ	-11.3509
रिक	-11.351
▁स्थायि	-11.3511
स्छिन्न	-11.3511
्रियते	-11.3512
राण	-11.3512
स्वातन्त्र्य	-11.3512
तदर्थ	-11.3513
राहित्य	-11.3513
प्ति	-11.3515
ित्थं	-11.3516
▁पृथिवीधातु	-11.3517
पीडा	-11.3517
▁दर्सयितु	-11.3517
▁क्य	-11.3517
क्षिति	-11.3518
▁अनिमित्त	-11.352
ोपलभ्य	-11.352
त्यद्भुत	-11.3521
ीभव	-11.3522
धौत	-11.3522
▁यत्पर	-11.3524
[...]
