<unk>	0
<s>	0
</s>	0
<pad>	0
्य	-0
्र	-1
▁स	-2
्त	-3
्व	-4
▁प	-5
ान	-6
▁त	-7
र्	-8
▁व	-9
ति	-10
▁क	-11
▁न	-12
ित	-13
त्	-14
्या	-15
म्	-16
मा	-17
▁च	-18
स्	-19
▁प्र	-20
▁य	-21
▁अ	-22
▁द	-23
▁म	-24
न्	-25
ार	-26
स्य	-27
्ष	-28
▁भ	-29
ाद	-30
ष्	-31
स्त	-32
क्ष	-33
▁वि	-34
ां	-35
न्त	-36
त्र	-37
ाव	-38
द्	-39
त्त	-40
ेन	-41
र्व	-42
ाम	-43
ते	-44
ाय	-45
ास	-46
प्र	-47
▁इ	-48
त्व	-49
ेव	-50
त्य	-51
क्त	-52
वि	-53
▁र	-54
▁ग	-55
ाप	-56
▁ह	-57
▁ब	-58
▁ज	-59
स्च	-60
नि	-61
ुर	-62
्ञ	-63
ाः	-64
र्थ	-65
ष्ट	-66
मि	-67
द्ध	-68
▁ए	-69
ेष	-70
ात्	-71
भि	-72
ङ्	-73
था	-74
या	-75
▁नि	-76
मु	-77
च्	-78
िक	-79
ोऽ	-80
ज्ञ	-81
पि	-82
ना	-83
रि	-84
र्म	-85
सं	-86
यो	-87
▁आ	-88
ता	-89
▁सं	-90
न्द	-91
ान्	-92
▁उ	-93
▁सर्व	-94
तः	-95
▁ध	-96
▁इति	-97
▁सु	-98
ाह	-99
ेत	-100
▁स्व	-101
स्व	-102
ेद	-103
नु	-104
न्य	-105
ाण	-106
ात	-107
▁स्	-108
ान्त	-109
धि	-110
▁वा	-111
▁ल	-112
ृत	-113
ाल	-114
ैव	-115
दि	-116
र्त	-117
ञ्	-118
ङ्ग	-119
च्छ	-120
▁मह	-121
सि	-122
कार	-123
द्य	-124
ानि	-125
व्य	-126
▁एव	-127
द्व	-128
▁भव	-129
▁पर	-130
भाव	-131
ूप	-132
ाग	-133
मान	-134
▁पु	-135
्रि	-136
ेण	-137
ोप	-138
ाध	-139
ाज	-140
न्न	-141
्रह	-142
यं	-143
दा	-144
स्या	-145
स्र	-146
▁स्र	-147
ल्	-148
ुः	-149
▁तु	-150
तो	-151
ष्ठ	-152
ये	-153
्वा	-154
िर	-155
▁मा	-156
सु	-157
्म	-158
र्ण	-159
्यते	-160
त्प	-161
ैः	-162
ब्	-163
स्थ	-164
ुप	-165
ेस	-166
ुक्त	-167
्यं	-168
भू	-169
ुण	-170
न्ति	-171
मित	-172
▁कि	-173
न्ध	-174
ती	-175
क्र	-176
नः	-177
रण	-178
्ड	-179
ोक	-180
ादि	-181
ने	-182
नं	-183
▁सम	-184
त्त्व	-185
वा	-186
द्र	-187
ीय	-188
ृष्ट	-189
ञ्च	-190
▁हि	-191
▁देव	-192
पर	-193
ानां	-194
ुद्ध	-195
▁कु	-196
▁प्रति	-197
रो	-198
त्वा	-199
▁सा	-200
▁द्व	-201
ुष	-202
ग्	-203
ीर	-204
त्स	-205
ेति	-206
▁सि	-207
भ्य	-208
भव	-209
र्ग	-210
यः	-211
माण	-212
ेषु	-213
▁तथा	-214
▁तत्र	-215
सा	-216
प्त	-217
▁पू	-218
र्स	-219
▁ते	-220
▁कृ	-221
▁त्व	-222
नो	-223
िता	-224
▁तद	-225
मे	-226
स्तु	-227
ष्य	-228
च्च	-229
▁क्ष	-230
स्मा	-231
कृ	-232
मेव	-233
म्ब	-234
ृह	-235
रे	-236
ण्ड	-237
▁यथा	-238
▁सू	-239
र्ष	-240
मिति	-241
ित्य	-242
ल्प	-243
रा	-244
ध्य	-245
त्या	-246
हि	-247
नी	-248
▁परि	-249
▁व्य	-250
ार्थ	-251
ृत्त	-252
तं	-253
रूप	-254
तु	-255
▁पुर	-256
▁राज	-257
ष्ण	-258
ानु	-259
ान्य	-260
कु	-261
र्ध	-262
गव	-263
▁इत्य	-264
▁वै	-265
क्षण	-266
न्द्र	-267
ेऽ	-268
ज्ञान	-269
लं	-270
▁भू	-271
सेष	-272
पु	-273
ब्द	-274
ात्म	-275
ितः	-276
र्य	-277
▁यो	-278
क्	-279
ापि	-280
िव	-281
▁स्थ	-282
▁कार	-283
रं	-284
▁कथ	-285
कं	-286
▁मु	-287
चित	-288
ला	-289
त्क	-290
्रह्म	-291
चि	-292
ीव	-293
▁सह	-294
स्मि	-295
का	-296
▁धर्म	-297
▁उप	-298
▁ज्ञ	-299
ोर	-300
▁भवति	-301
लि	-302
ाति	-303
ंस	-304
योग	-305
स्म	-306
▁तस्य	-307
देव	-308
प्रति	-309
र्ज	-310
प्य	-311
▁समा	-312
ितं	-313
▁स्या	-314
यति	-315
▁भगव	-316
िण	-317
मो	-318
▁पूर्व	-319
नम्	-320
स्ति	-321
ग्र	-322
म्भ	-323
ामि	-324
ीत	-325
▁अथ	-326
ोष	-327
न्व	-328
्रिय	-329
भिः	-330
ेय	-331
▁ना	-332
ुत	-333
ोध	-334
▁किं	-335
कृत	-336
▁ख	-337
सू	-338
ेत्	-339
न्ते	-340
स्त्र	-341
ोधि	-342
न्म	-343
चार	-344
मः	-345
▁प्रत्य	-346
र्थः	-347
ीति	-348
▁ब्रह्म	-349
ैर	-350
न्त्र	-351
रः	-352
्यां	-353
सम	-354
िः	-355
▁लोक	-356
दं	-357
वृत्त	-358
वाच	-359
र्द	-360
पू	-361
गत	-362
ीन	-363
ाणि	-364
त्म	-365
ञ्ज	-366
ुव	-367
▁एवं	-368
्रे	-369
वर्त	-370
कास	-371
ग्रह	-372
हार	-373
व्या	-374
ानं	-375
▁व्या	-376
फल	-377
▁तेन	-378
▁कर्म	-379
ितम्	-380
ाम्	-381
▁स्म	-382
▁दृष्ट	-383
ुं	-384
▁मे	-385
सः	-386
▁एत	-387
ाप्त	-388
लोक	-389
ङ्क	-390
ाद्	-391
▁भाव	-392
▁स्त	-393
▁अन	-394
▁क्र	-395
ित्त	-396
ेक	-397
सो	-398
मुप	-399
▁पुन	-400
▁घ	-401
सत्त्व	-402
णि	-403
र्ह	-404
्याय	-405
ले	-406
ायां	-407
रु	-408
ोक्त	-409
म्य	-410
त्वं	-411
▁नाम	-412
ोद	-413
▁दि	-414
ैक	-415
▁साध	-416
हं	-417
▁एक	-418
परि	-419
द्या	-420
सी	-421
तिः	-422
मं	-423
ाद्य	-424
तां	-425
मात्र	-426
▁रूप	-427
ज्	-428
▁पृ	-429
त्वात्	-430
▁रा	-431
यित	-432
पद	-433
▁द्र	-434
क्य	-435
द्वि	-436
▁वृ	-437
ाभ	-438
च्यते	-439
ख्य	-440
थ्या	-441
धान	-442
हित	-443
▁बोधि	-444
र्मा	-445
्त्	-446
▁तस्मा	-447
▁वेद	-448
▁ब्र	-449
मन	-450
ीं	-451
पा	-452
सिद्ध	-453
▁चोर	-454
कः	-455
्रेच	-456
्रेच्त्	-457
दर्स	-458
ेषां	-459
पत्त	-460
से	-461
ावि	-462
दु	-463
णं	-464
▁तथ	-465
त्प्र	-466
▁चोर्रेच्त्	-467
र्भ	-468
ेक्ष	-469
▁पञ्च	-470
▁बुद्ध	-471
षु	-472
▁सर	-473
ित्र	-474
प्	-475
धर्म	-476
ोग	-477
ेह	-478
▁दु	-479
ज्य	-480
जन	-481
▁कृत	-482
ुःख	-483
▁काल	-484
को	-485
▁गृह	-486
▁बह	-487
ोऽपि	-488
धा	-489
स्त्व	-490
मुख	-491
लक्षण	-492
▁त्रि	-493
▁यदि	-494
मुक्त	-495
दृ	-496
युक्त	-497
लो	-498
िं	-499
सार	-500
▁का	-501
ाप्य	-502
बन्ध	-503
▁यु	-504
▁ष	-505
देस	-506
ान्तर	-507
▁पुरुष	-508
▁तं	-509
यम	-510
▁द्वि	-511
चन	-512
कल्प	-513
▁अनु	-514
▁सो	-515
▁ऽ	-516
ाभि	-517
भेद	-518
यम्	-519
ूल	-520
▁ततः	-521
▁त्र	-522
कम्	-523
्वि	-524
▁भि	-525
▁गुण	-526
वे	-527
▁यथ	-528
री	-529
पाद	-530
गुण	-531
त्न	-532
सब्द	-533
यि	-534
यु	-535
त्तर	-536
▁पुत्र	-537
▁पथ्या	-538
▁महा	-539
▁स्रु	-540
च्य	-541
येत्	-542
▁मृ	-543
र्वि	-544
क्षे	-545
▁ये	-546
▁तत	-547
▁अत्र	-548
▁अन्य	-549
ुरु	-550
णा	-551
मह	-552
ास्र	-553
बुद्ध	-554
भूत	-555
पुत्र	-556
▁विष	-557
▁यद	-558
ैर्	-559
▁अपि	-560
भा	-561
ेः	-562
▁सिद्ध	-563
ानाम	-564
▁जग	-565
विष	-566
मास	-567
िका	-568
ित्	-569
ेत्य	-570
्यो	-571
स्प	-572
स्ते	-573
मव	-574
न्या	-575
ीप	-576
ृण	-577
ज्ज	-578
ाया	-579
त्वेन	-580
माह	-581
▁या	-582
कर	-583
न्नि	-584
▁याव	-585
ख्या	-586
▁हेत	-587
करण	-588
ाह्म	-589
द्ग	-590
वः	-591
मित्य	-592
▁तदा	-593
▁प्रज्ञ	-594
▁सब्द	-595
▁ह्य	-596
द्यते	-597
योः	-598
▁पृथ	-599
ग्नि	-600
▁कर्त	-601
ान्न	-602
मपि	-603
▁प्रस	-604
ारमित	-605
मनु	-606
ण्य	-607
िताः	-608
▁दर्स	-609
स्वर	-610
▁पुनः	-611
तया	-612
ष्यति	-613
▁ति	-614
▁ज्ञान	-615
विध	-616
चर	-617
▁अव	-618
▁पा	-619
▁सुख	-620
प्रत्य	-621
▁विसेष	-622
▁बोधिसत्त्व	-623
▁यत्र	-624
बल	-625
▁योग	-626
ितो	-627
▁जीव	-628
णे	-629
ीम	-630
समा	-631
▁कथं	-632
वाद	-633
क्षिण	-634
ब्र	-635
ब्ध	-636
न्तर	-637
ैत	-638
ासु	-639
काल	-640
्ये	-641
▁ततो	-642
▁ताव	-643
्यादि	-644
ोः	-645
ित्व	-646
ाणां	-647
▁पि	-648
ातु	-649
नां	-650
▁काम	-651
▁आह	-652
▁इत्या	-653
वस	-654
वी	-655
भ्र	-656
▁चि	-657
व्यं	-658
दान	-659
▁ऋ	-660
के	-661
▁तत्	-662
▁समु	-663
सह	-664
क्ति	-665
▁निर	-666
लु	-667
गृह	-668
ाप्	-669
▁सत्य	-670
िते	-671
▁दृ	-672
्रिया	-673
धिक	-674
साध	-675
िति	-676
▁पाद	-677
ध्या	-678
▁उवाच	-679
पुर	-680
ाण्ड	-681
▁चैव	-682
ध्व	-683
षे	-684
स्तथा	-685
▁पस्य	-686
क्ष्य	-687
▁सप्त	-688
ासि	-689
▁प्रा	-690
मित्त	-691
ैस्च	-692
▁मम	-693
▁चतु	-694
▁पित	-695
ष्प	-696
▁जन	-697
लभ	-698
▁एष	-699
सम्	-700
▁ब्राह्म	-701
कर्म	-702
▁दुःख	-703
ुम	-704
भाग	-705
ज्ञा	-706
▁मन	-707
ट्	-708
णम्	-709
▁विस्व	-710
मेत	-711
▁कृष्ण	-712
ण्	-713
र्थं	-714
र्न	-715
▁साम	-716
▁भ्र	-717
▁फल	-718
▁प्रज	-719
▁तस्या	-720
ान्व	-721
र्प	-722
▁चा	-723
सौ	-724
णां	-725
▁सम्	-726
मी	-727
▁इव	-728
िय	-729
क्षि	-730
▁सर्वे	-731
ली	-732
▁छ	-733
▁कृत्वा	-734
▁ग्र	-735
वेद	-736
पूर्व	-737
राज	-738
▁रु	-739
णः	-740
त्पाद	-741
▁गो	-742
▁क्व	-743
ास्च	-744
हो	-745
नेन	-746
▁मू	-747
त्थ	-748
वर्ण	-749
द्द	-750
वो	-751
▁स्री	-752
▁नृ	-753
▁यः	-754
नास	-755
▁प्राप्त	-756
रोध	-757
▁भवि	-758
विसेष	-759
द्भ	-760
ल्य	-761
▁अभि	-762
मार	-763
▁प्राण	-764
वृ	-765
ेऽपि	-766
▁महास	-767
त्तम	-768
तीति	-769
▁युक्त	-770
न्त्य	-771
माद	-772
▁प्रथ	-773
तोऽ	-774
▁कल्प	-775
स्मिन्	-776
मानं	-777
▁चित्त	-778
▁सौ	-779
ह्	-780
▁स्यात्	-781
गम	-782
र्हि	-783
▁सी	-784
न्तु	-785
▁येन	-786
▁सम्य	-787
▁सत	-788
▁मान	-789
ीयते	-790
▁दस	-791
▁वर	-792
काम	-793
▁चर	-794
ोह	-795
▁वक्त	-796
▁व्र	-797
त्वाद	-798
ेष्व	-799
मू	-800
दी	-801
ष्या	-802
ायते	-803
हेत	-804
▁वीर	-805
धार	-806
ेर	-807
व्यम्	-808
▁सत्त्व	-809
षि	-810
▁राजा	-811
▁भूत	-812
प्रस	-813
▁भिक्ष	-814
वान्	-815
ास्व	-816
न्तं	-817
▁बल	-818
▁संस	-819
स्चि	-820
तर	-821
ायु	-822
ीनां	-823
ृद	-824
की	-825
सर्व	-826
ष्म	-827
▁विव	-828
न्तः	-829
▁वर्त	-830
ादृ	-831
कल	-832
न्ना	-833
जा	-834
▁यस्य	-835
▁बहु	-836
पन्न	-837
▁कार्य	-838
▁त्वं	-839
▁विद	-840
भिर	-841
ताम्	-842
▁व्यव	-843
ौर	-844
ेवं	-845
चित्त	-846
त्वे	-847
▁प्रमाण	-848
साम	-849
▁प्रव	-850
▁लि	-851
ारि	-852
ासं	-853
▁अप	-854
र्घ	-855
▁गच्छ	-856
भ्यः	-857
▁तव	-858
▁कुर	-859
▁मया	-860
▁सुर	-861
▁पुनर	-862
ानुप	-863
▁तद्व	-864
ल्ल	-865
▁चे	-866
मिव	-867
▁दोष	-868
▁तप	-869
प्राप्त	-870
सल	-871
▁नित्य	-872
▁नो	-873
▁को	-874
कृति	-875
क्ष्म	-876
ाभाव	-877
चित्	-878
▁सोऽ	-879
स्थान	-880
स्कार	-881
णो	-882
भवति	-883
▁मध	-884
▁दी	-885
ाग्	-886
णी	-887
▁यज्ञ	-888
स्यते	-889
▁दृष्ट्वा	-890
▁स्प	-891
क्रम	-892
रिति	-893
▁तत्क	-894
पक्ष	-895
ैष	-896
सेन	-897
्री	-898
ृत्य	-899
▁पाप	-900
नाम्	-901
▁कल	-902
ान्ति	-903
सून्य	-904
ृति	-905
▁तेषां	-906
पति	-907
र्क	-908
ुद	-909
त्रं	-910
▁नर	-911
न्द्रिय	-912
▁भेद	-913
▁विध	-914
▁राम	-915
▁मध्य	-916
ाना	-917
द्धि	-918
ापारमित	-919
भ्यो	-920
सर	-921
नाय	-922
च्छेद	-923
दिति	-924
ताम	-925
भय	-926
▁पद	-927
▁भार	-928
ाङ्ग	-929
मभि	-930
▁मन्त्र	-931
दृष्ट	-932
यते	-933
▁विष्ण	-934
बोध	-935
▁रथ	-936
्याद	-937
यन्ति	-938
तम्	-939
हर	-940
▁अस	-941
ीड	-942
▁दू	-943
वत्	-944
▁रस	-945
्याः	-946
वास	-947
▁नार	-948
ेन्द्र	-949
▁द्वित	-950
षेध	-951
िल	-952
▁इह	-953
▁आत्म	-954
जः	-955
त्पत्त	-956
पर्य	-957
▁कुल	-958
िकं	-959
नोति	-960
▁सुभ	-961
ुह	-962
नाद	-963
भ्या	-964
▁यद्य	-965
मात्म	-966
ब्रवी	-967
्ण	-968
िन	-969
मन्य	-970
र्माण	-971
▁वे	-972
्ल	-973
▁प्रज्ञापारमित	-974
▁वद	-975
ज्र	-976
ताः	-977
ित्वा	-978
▁क्रिय	-979
▁विप्र	-980
तम	-981
मां	-982
पात	-983
स्चैव	-984
ग्ध	-985
▁ई	-986
▁कौ	-987
▁वर्ण	-988
ेयं	-989
▁देस	-990
▁निर्व	-991
स्यति	-992
भो	-993
▁भा	-994
▁खलु	-995
कर्त	-996
▁उक्त	-997
योर	-998
ायाः	-999
ास्त	-1000
जात	-1001
▁तां	-1002
▁तद्	-1003
▁अत	-1004
▁मनो	-1005
न्तो	-1006
ात्र	-1007
▁अर्थ	-1008
ात्मा	-1009
▁करो	-1010
▁ननु	-1011
भास	-1012
च्छ्र	-1013
सिष्ट	-1014
▁भवेत्	-1015
▁जात	-1016
गो	-1017
स्वभाव	-1018
ुर्	-1019
▁यदा	-1020
नाम	-1021
नय	-1022
भूते	-1023
▁दान	-1024
सहस्र	-1025
▁तत्त	-1026
वं	-1027
▁गन्ध	-1028
▁भु	-1029
मात्	-1030
▁कर	-1031
योज	-1032
वार	-1033
्याह	-1034
▁प्रती	-1035
▁वच	-1036
नुप	-1037
मप	-1038
ादिति	-1039
धात	-1040
नात्	-1041
▁वृत्त	-1042
वेस	-1043
सिक	-1044
▁नृप	-1045
सत	-1046
▁फ	-1047
समु	-1048
▁सर्वं	-1049
िनी	-1050
▁सून्य	-1051
धिष्ठ	-1052
▁उद	-1053
▁सदा	-1054
यात्	-1055
यामास	-1056
▁ऊ	-1057
वद	-1058
▁के	-1059
▁लक्षण	-1060
▁विर	-1061
▁सहस्र	-1062
व्यः	-1063
▁दिव	-1064
ाग्र	-1065
मय	-1066
नीय	-1067
काः	-1068
यित्वा	-1069
▁तत्स	-1070
माय	-1071
▁विस	-1072
ुम्	-1073
▁हरि	-1074
ाक्ष	-1075
▁स्फ	-1076
्यः	-1077
▁इन्द्र	-1078
▁वाच	-1079
▁धर्मा	-1080
▁मन्य	-1081
▁बाल	-1082
ाद्व	-1083
▁पृथिव	-1084
त्रे	-1085
▁घट	-1086
कुल	-1087
▁ब्राह्मण	-1088
▁महासत्त्व	-1089
▁विधि	-1090
▁धार	-1091
रणं	-1092
भाष	-1093
जो	-1094
व्र	-1095
म्त	-1096
कस्य	-1097
ायं	-1098
ेष्ठ	-1099
त्त्वा	-1100
▁ग्रह	-1101
▁प्रत्यक्ष	-1102
▁मि	-1103
जं	-1104
▁चक्ष	-1105
▁भवन्ति	-1106
ाधिक	-1107
स्तस्य	-1108
▁प्रवि	-1109
▁मां	-1110
ज्ञानं	-1111
▁स्य	-1112
न्ती	-1113
नस्य	-1114
्रह्	-1115
कृत्य	-1116
▁चक्र	-1117
ृतं	-1118
ारं	-1119
विषय	-1120
णाम	-1121
ीक्ष	-1122
▁सरीर	-1123
विद	-1124
▁सम्यक्	-1125
▁स्वभाव	-1126
च्छि	-1127
▁दक्षिण	-1128
मृ	-1129
▁देह	-1130
▁भविष्यति	-1131
▁स्रो	-1132
बोधि	-1133
मन्त्र	-1134
▁कस्य	-1135
स्रु	-1136
कत्व	-1137
म्बन्ध	-1138
▁सृण	-1139
▁सक्त	-1140
▁मो	-1141
▁रक्ष	-1142
र्वा	-1143
ांस्च	-1144
▁पाण्ड	-1145
▁जि	-1146
ित्यं	-1147
▁मुक्त	-1148
धी	-1149
▁मुख	-1150
सुद्ध	-1151
घ्	-1152
माः	-1153
भु	-1154
यन्	-1155
▁नी	-1156
नम	-1157
▁सार	-1158
ादस	-1159
यत	-1160
विर	-1161
▁बाह	-1162
क्ल	-1163
ब्रह्म	-1164
र्च	-1165
मल	-1166
▁कारण	-1167
ास्य	-1168
▁सः	-1169
्यव	-1170
ेषाम	-1171
▁वाक्य	-1172
ात्त	-1173
पाल	-1174
भ्यां	-1175
▁नास्ति	-1176
स्क	-1177
▁वास	-1178
र्ध्व	-1179
क्रान्त	-1180
▁हे	-1181
लिङ्ग	-1182
▁ता	-1183
▁नैव	-1184
▁काय	-1185
▁की	-1186
▁तिष्ठ	-1187
दोष	-1188
▁यज	-1189
▁वार	-1190
पद्य	-1191
हे	-1192
▁भो	-1193
ष्ट्र	-1194
स्तत्र	-1195
▁पार्थ	-1196
दे	-1197
▁विद्या	-1198
मार्ग	-1199
▁वस्तु	-1200
मिदं	-1201
▁प्राप्	-1202
▁कुर्व	-1203
▁तत्त्व	-1204
दत्त	-1205
▁पूज	-1206
▁नव	-1207
दस	-1208
स्यापि	-1209
ंह	-1210
त्रि	-1211
ुल	-1212
▁परं	-1213
सय	-1214
वृत्ति	-1215
▁पक्ष	-1216
▁सुद्ध	-1217
▁सेष	-1218
▁नम	-1219
जि	-1220
प्रमाण	-1221
ग्राह	-1222
वाह	-1223
ष्टा	-1224
स्त्य	-1225
▁केव	-1226
स्त्रि	-1227
प्रभ	-1228
र्थे	-1229
▁वज्र	-1230
कारण	-1231
जान	-1232
▁सास्त्र	-1233
▁तद्य	-1234
▁सिर	-1235
▁पति	-1236
▁नान	-1237
▁मनु	-1238
▁प्रय	-1239
रम्	-1240
▁सक	-1241
घ्र	-1242
ाहा	-1243
च्छति	-1244
र्मि	-1245
▁च्	-1246
▁सति	-1247
▁सान्त	-1248
त्वम्	-1249
▁किम	-1250
ष्टं	-1251
▁नोप	-1252
▁सै	-1253
त्पन्न	-1254
सृ	-1255
तेः	-1256
▁किञ्च	-1257
▁महार	-1258
▁यत्	-1259
तुर	-1260
▁नास	-1261
▁वस	-1262
▁चन्द्र	-1263
▁भावः	-1264
ङ्कार	-1265
लम्भ	-1266
निर	-1267
ूढ	-1268
लम्	-1269
▁तथैव	-1270
स्मै	-1271
वर	-1272
ुक्तं	-1273
स्यैव	-1274
▁प्रण	-1275
▁स्रुत्वा	-1276
नन्द	-1277
▁जान	-1278
व्यव	-1279
बाह	-1280
▁इत्यर्थः	-1281
▁लोके	-1282
मुद	-1283
्यात्	-1284
ुना	-1285
पेक्ष	-1286
काय	-1287
▁सङ्	-1288
मुच्यते	-1289
ष्व	-1290
दार्थ	-1291
▁निष्	-1292
▁त्य	-1293
स्था	-1294
▁विनि	-1295
ष्यन्ति	-1296
धिप	-1297
▁तत्प	-1298
▁भी	-1299
कि	-1300
ूर	-1301
स्मिन्न	-1302
मौ	-1303
▁प्रवर्त	-1304
पृ	-1305
▁अवि	-1306
▁वर्ष	-1307
क्तं	-1308
▁लो	-1309
यत्	-1310
▁न्य	-1311
पार	-1312
▁मार्ग	-1313
▁चेत	-1314
न्थ	-1315
ानाम्	-1316
▁इत्यादि	-1317
्यम्	-1318
स्थित	-1319
स्तं	-1320
दाय	-1321
यौ	-1322
नव	-1323
ामिति	-1324
ुध	-1325
▁प्रभ	-1326
स्पर्स	-1327
लः	-1328
▁क्षे	-1329
▁प्रिय	-1330
ासी	-1331
▁स्वर्ग	-1332
मति	-1333
▁प्रि	-1334
ज्यते	-1335
▁कुरु	-1336
▁पद्	-1337
हा	-1338
ेनैव	-1339
क्रिय	-1340
बि	-1341
▁बन्ध	-1342
▁बाध	-1343
ेते	-1344
▁तच्च	-1345
ायाम	-1346
ित्या	-1347
▁कर्ण	-1348
▁परम	-1349
ीज	-1350
ग्न	-1351
▁विषय	-1352
▁ब्रह्	-1353
्यामि	-1354
पञ्च	-1355
सुख	-1356
▁निस्च	-1357
षा	-1358
गन्ध	-1359
मण्ड	-1360
▁गुर	-1361
निः	-1362
▁प्रह	-1363
पो	-1364
▁केन	-1365
▁अति	-1366
त्यन्त	-1367
केन	-1368
्यान	-1369
ोऽयं	-1370
▁नाग	-1371
दुःख	-1372
धे	-1373
लम्ब	-1374
▁पुण्य	-1375
▁तृत	-1376
करो	-1377
ग्ने	-1378
संस	-1379
टि	-1380
▁लिङ्ग	-1381
ादेव	-1382
ाच्च	-1383
मस	-1384
▁दुर	-1385
▁जा	-1386
▁स्त्री	-1387
▁संप्र	-1388
धिः	-1389
▁हृद	-1390
ष्यते	-1391
▁बि	-1392
▁दण्ड	-1393
यव	-1394
▁इत्युक्त	-1395
मस्य	-1396
▁इदं	-1397
ीत्य	-1398
दार	-1399
चित्र	-1400
ूर्ण	-1401
त्ते	-1402
ताप	-1403
▁अन्त	-1404
दौ	-1405
तिर	-1406
▁सङ्क	-1407
ुक	-1408
ह्य	-1409
वण	-1410
▁सूत्र	-1411
▁भक्त	-1412
ान्ते	-1413
निमित्त	-1414
बह	-1415
प्रसङ्ग	-1416
पद्यते	-1417
▁सूर्य	-1418
▁प्रकास	-1419
▁कदा	-1420
जय	-1421
▁ओ	-1422
▁प्रतिष्ठ	-1423
मध्य	-1424
▁अग्नि	-1425
ैर्व	-1426
▁राज्ञ	-1427
▁साक्ष	-1428
▁षड	-1429
तिं	-1430
धर्मा	-1431
▁विपु	-1432
क्षेप	-1433
▁स्वयं	-1434
पारमित	-1435
नेक	-1436
वाक्य	-1437
्यु	-1438
गण	-1439
▁तथागत	-1440
▁पार	-1441
▁आत्	-1442
▁क्षि	-1443
रिव	-1444
▁इद	-1445
कार्य	-1446
▁चेत्	-1447
ृतम्	-1448
▁विज्ञ	-1449
त्सु	-1450
▁जल	-1451
▁सुभूते	-1452
▁नः	-1453
ाहं	-1454
थं	-1455
वच	-1456
▁विज्ञान	-1457
प्रा	-1458
ामु	-1459
र्दि	-1460
ारण	-1461
िनः	-1462
ण्ठ	-1463
तेऽ	-1464
भ्युप	-1465
ार्थं	-1466
मार्थ	-1467
तस्च	-1468
▁लभ	-1469
भूव	-1470
ृतः	-1471
▁प्रद	-1472
स्तेन	-1473
▁स्वाहा	-1474
स्यं	-1475
कर्ष	-1476
ाभ्यां	-1477
याम	-1478
▁स्वरूप	-1479
▁श	-1480
निर्व	-1481
ाने	-1482
धातु	-1483
▁विभ	-1484
क्षित	-1485
तिष्ठ	-1486
▁सर्वत्र	-1487
गा	-1488
चेत	-1489
▁पर्य	-1490
▁उच्यते	-1491
पत्ति	-1492
मादि	-1493
ेदं	-1494
▁केस	-1495
▁आर	-1496
▁पुष्प	-1497
▁द्रष्ट	-1498
▁प्रकृति	-1499
▁सृ	-1500
▁तर्हि	-1501
▁अह	-1502
▁हृ	-1503
चिद	-1504
▁किम्	-1505
▁भगवान	-1506
▁ब्रू	-1507
▁नित्यं	-1508
घात	-1509
▁गौ	-1510
ुन	-1511
तार	-1512
मूल	-1513
मान्	-1514
▁द्विज	-1515
रेण	-1516
प्रत्यय	-1517
▁सद	-1518
▁पस्च	-1519
▁त्वया	-1520
▁मद	-1521
▁चित्र	-1522
भावः	-1523
▁भाग	-1524
▁अस्य	-1525
ब्रवीत्	-1526
▁सिव	-1527
▁वन	-1528
▁द्वितीय	-1529
तन	-1530
▁तृ	-1531
ुच्यते	-1532
सुर	-1533
चक्र	-1534
ुट	-1535
स्वरूप	-1536
▁विकल्प	-1537
सां	-1538
लब्ध	-1539
▁करोति	-1540
▁भगवान्	-1541
▁युग	-1542
▁पर्व	-1543
▁तत्प्र	-1544
▁हेतु	-1545
▁बृह	-1546
▁निः	-1547
रेक	-1548
ग्रहण	-1549
पूर्ण	-1550
प्राय	-1551
मेक	-1552
▁कस्चि	-1553
▁संसार	-1554
▁चिन्त	-1555
तीत्य	-1556
द्भव	-1557
▁यत्त	-1558
ीर्ण	-1559
▁दीर्घ	-1560
▁हो	-1561
थः	-1562
लभ्यते	-1563
देह	-1564
▁निमित्त	-1565
▁विह	-1566
▁भर	-1567
बद्ध	-1568
मत	-1569
स्यां	-1570
▁राग	-1571
ुण्ड	-1572
येन	-1573
त्ति	-1574
ान्तं	-1575
▁व्रज	-1576
स्न	-1577
▁एते	-1578
ादी	-1579
▁यस्मा	-1580
▁रुद्र	-1581
▁नान्य	-1582
त्सर्व	-1583
▁करण	-1584
▁दिव्य	-1585
लित	-1586
मानः	-1587
▁धू	-1588
▁वृद्ध	-1589
ोक्तं	-1590
▁तस्माद	-1591
ाग्नि	-1592
▁वाय	-1593
दः	-1594
कृतं	-1595
▁निय	-1596
▁ततोऽ	-1597
मम्	-1598
▁भवे	-1599
चे	-1600
प्ति	-1601
▁संस्कार	-1602
ूष	-1603
▁अङ्ग	-1604
मानो	-1605
▁ध्व	-1606
▁भृ	-1607
▁क्षण	-1608
▁अष्ट	-1609
स्तदा	-1610
▁विद्य	-1611
वन	-1612
क्षा	-1613
▁चो	-1614
ैर्य	-1615
धाय	-1616
▁तद्वि	-1617
▁रत्न	-1618
▁मात	-1619
▁स्याद	-1620
स्फ	-1621
ापर	-1622
स्तद	-1623
▁राक्ष	-1624
▁तदेव	-1625
▁मृग	-1626
्यस्य	-1627
▁सख	-1628
बाध	-1629
भोग	-1630
▁जन्म	-1631
स्पर	-1632
वै	-1633
▁गुरु	-1634
▁ने	-1635
▁प्राय	-1636
सक्त	-1637
▁अहं	-1638
▁गोप	-1639
संज्ञ	-1640
दर्सन	-1641
हम्	-1642
▁अयं	-1643
▁रो	-1644
ादाय	-1645
वीर	-1646
▁विना	-1647
▁चेति	-1648
ष्टि	-1649
▁ज्यो	-1650
ाकार	-1651
ित्यर्थः	-1652
▁विस्त	-1653
नाग	-1654
▁आद	-1655
न्द्रिया	-1656
िके	-1657
ैत्य	-1658
▁युद्ध	-1659
ौक	-1660
▁दत्त	-1661
▁रज	-1662
▁विद्यते	-1663
द्वा	-1664
▁मूल	-1665
▁सत्र	-1666
भिन्न	-1667
वत्स	-1668
टी	-1669
रस	-1670
ान्या	-1671
ूह	-1672
ुप्त	-1673
▁योऽ	-1674
चक्ष	-1675
गच्छ	-1676
सङ्क	-1677
भिचार	-1678
ान्नि	-1679
स्ता	-1680
राग	-1681
सित	-1682
ैत्र	-1683
भावात्	-1684
हेतु	-1685
▁मोक्ष	-1686
ोड	-1687
भिर्	-1688
रेत्	-1689
ाव्य	-1690
क्यं	-1691
▁दार	-1692
र्ति	-1693
ाद्ध	-1694
पुरुष	-1695
▁क्रम	-1696
ूर्व	-1697
भूष	-1698
ान्ध	-1699
योगेन	-1700
▁पूर्वं	-1701
▁सक्र	-1702
▁मन्द	-1703
▁जायते	-1704
▁वचन	-1705
▁रूपं	-1706
▁समान	-1707
येद	-1708
नाः	-1709
पाय	-1710
मिच्छ	-1711
िकी	-1712
▁मधु	-1713
थि	-1714
कौ	-1715
ूय	-1716
जे	-1717
▁मुनि	-1718
▁सम्यक्सं	-1719
▁अस्ति	-1720
▁स्वप्	-1721
ीया	-1722
थो	-1723
मोक्ष	-1724
िकल्प	-1725
धर	-1726
▁भद्र	-1727
ट्ट	-1728
सङ्	-1729
▁नमः	-1730
▁ताम	-1731
स्वरः	-1732
▁गा	-1733
▁प्रवृत्त	-1734
▁हर	-1735
▁देवा	-1736
ृता	-1737
त्तमम्	-1738
▁करि	-1739
▁मनः	-1740
▁अपर	-1741
▁ध्यान	-1742
▁भोग	-1743
▁क्ल	-1744
ान्तः	-1745
▁उत्त	-1746
वाय	-1747
भावे	-1748
्वल	-1749
सत्व	-1750
▁पुरा	-1751
▁उत्तर	-1752
ोत्त	-1753
▁लक्ष्म	-1754
ादान	-1755
ैर्म	-1756
▁स्रुत	-1757
ुभ	-1758
▁यच्च	-1759
ादिक	-1760
▁वसु	-1761
▁तम	-1762
▁चिर	-1763
▁तौ	-1764
ैस्त	-1765
ीयं	-1766
▁अतो	-1767
स्स	-1768
▁सामान्य	-1769
ष्यामि	-1770
यान	-1771
कृता	-1772
यामि	-1773
्याव	-1774
योजन	-1775
▁दैव	-1776
मिद	-1777
यस्य	-1778
▁पूर्ण	-1779
▁परस्पर	-1780
▁तादृ	-1781
ोऽप्य	-1782
ाधि	-1783
ष्टो	-1784
▁स्था	-1785
▁द्रव्य	-1786
▁भर्त	-1787
ादौ	-1788
▁सां	-1789
ापेक्ष	-1790
विव	-1791
म्प	-1792
▁भूमि	-1793
▁सृणु	-1794
मर्थ	-1795
ासुर	-1796
▁अस्व	-1797
▁वृष	-1798
फलं	-1799
वती	-1800
▁पस्यति	-1801
ाम्य	-1802
वान	-1803
▁बोधिसत्त्वो	-1804
विज्ञान	-1805
िरि	-1806
मास्र	-1807
िकः	-1808
▁साध्य	-1809
ादिषु	-1810
तुः	-1811
▁वाच्य	-1812
▁अप्र	-1813
ेहि	-1814
ात्मनः	-1815
▁चत्व	-1816
▁कृता	-1817
तन्त्र	-1818
ह्व	-1819
चिन्त	-1820
ीण	-1821
▁मित्र	-1822
▁गण	-1823
▁स्राव	-1824
ाता	-1825
ात्प्र	-1826
ादीनां	-1827
▁मृत्य	-1828
माना	-1829
▁स्थित	-1830
▁पत	-1831
▁पादस्	-1832
▁गत्वा	-1833
पः	-1834
माने	-1835
्रुव	-1836
ञ्छ	-1837
ासन	-1838
भूमि	-1839
▁अतः	-1840
▁गत	-1841
▁जाति	-1842
▁नु	-1843
▁तस्मिन्	-1844
गता	-1845
वम्	-1846
ानन्द	-1847
▁आदि	-1848
▁प्राप्नोति	-1849
ायण	-1850
विस	-1851
▁प्रधान	-1852
चिर	-1853
▁विन	-1854
मृत	-1855
▁परा	-1856
मध	-1857
▁बुद्धि	-1858
▁ॐ	-1859
▁मय	-1860
ज्ञात	-1861
व्यति	-1862
▁पौ	-1863
▁त्वा	-1864
मिह	-1865
हिता	-1866
▁दृस्य	-1867
जीव	-1868
ास्रय	-1869
पत	-1870
न्यो	-1871
▁यत	-1872
न्धि	-1873
ीनाम	-1874
ष्क	-1875
▁आस	-1876
▁क्रिया	-1877
▁अब्	-1878
गम्य	-1879
गु	-1880
▁अनेन	-1881
प्रयोग	-1882
▁सोम	-1883
स्कृत	-1884
िणः	-1885
त्ता	-1886
▁तेज	-1887
षी	-1888
कारः	-1889
ार्य	-1890
गतं	-1891
▁सव	-1892
स्तथ	-1893
त्रा	-1894
▁ग्राह	-1895
▁दुर्	-1896
▁अध	-1897
▁रात्र	-1898
क्षु	-1899
भूतं	-1900
वादि	-1901
भावेन	-1902
▁भगवन्	-1903
लास	-1904
जग	-1905
ेत्यर्थः	-1906
ारः	-1907
▁विपुला	-1908
र्धं	-1909
▁प्राद	-1910
यन	-1911
मित्र	-1912
चार्य	-1913
▁प्रयोग	-1914
▁स्रेष्ठ	-1915
स्त्वं	-1916
▁मण्ड	-1917
प्रतिषेध	-1918
ेषा	-1919
▁प्राग	-1920
▁भिन्न	-1921
द्यो	-1922
▁मुह	-1923
न्वि	-1924
▁मोह	-1925
निस्च	-1926
▁समन्त	-1927
ूत	-1928
भे	-1929
▁ती	-1930
क्षं	-1931
▁बभूव	-1932
▁दृस्यते	-1933
▁हस्त	-1934
स्थाप	-1935
▁चापि	-1936
▁लब्ध	-1937
ेतु	-1938
▁तथापि	-1939
▁वाम	-1940
▁जर	-1941
यितुं	-1942
दो	-1943
र्देस	-1944
पे	-1945
वचन	-1946
विरोध	-1947
ष्टे	-1948
यन्त	-1949
द्वार	-1950
▁भीम	-1951
धिष्ठिर	-1952
▁कस्मा	-1953
मर	-1954
कुर्व	-1955
▁धन	-1956
▁कुसल	-1957
ाभ्या	-1958
द्दि	-1959
लय	-1960
पस्य	-1961
▁भारत	-1962
ीष	-1963
प्रकास	-1964
कृते	-1965
दृस	-1966
द्रा	-1967
▁पितृ	-1968
▁वीर्य	-1969
▁हिर	-1970
▁तेऽ	-1971
्यार्थ	-1972
संयुक्त	-1973
ाद्वि	-1974
▁सूर	-1975
स्चित्त	-1976
▁ऐ	-1977
सति	-1978
ाणाम	-1979
▁सम्बन्ध	-1980
▁फलं	-1981
ेना	-1982
द्धर्म	-1983
काङ्	-1984
गतः	-1985
संभव	-1986
▁गम	-1987
माव	-1988
स्मिं	-1989
▁प्रथम	-1990
भावो	-1991
▁स्क	-1992
▁सिंह	-1993
खण्ड	-1994
▁भाष	-1995
वाः	-1996
▁चार	-1997
कर्ण	-1998
वर्ष	-1999
▁कुर्या	-2000
मात्रं	-2001
न्यं	-2002
यमेव	-2003
मित्यर्थः	-2004
ड्	-2005
ैर्वि	-2006
▁वेदित	-2007
निष्ठ	-2008
तान	-2009
प्रकार	-2010
▁प्रसाद	-2011
म्न	-2012
्यति	-2013
त्पत्ति	-2014
क्षिप्त	-2015
प्रह	-2016
▁ज्ञानं	-2017
सत्य	-2018
रुण	-2019
ेस्वर	-2020
▁महाराज	-2021
▁जय	-2022
▁वर्तते	-2023
तस्य	-2024
▁गङ्ग	-2025
▁तानि	-2026
ादयः	-2027
▁क्रोध	-2028
दन्त	-2029
▁रम	-2030
▁प्रत्या	-2031
▁गर्भ	-2032
▁स्रुति	-2033
▁न्याय	-2034
▁यं	-2035
न्दु	-2036
मप्य	-2037
ासौ	-2038
विद्या	-2039
ारो	-2040
स्तव	-2041
लक्ष	-2042
संबन्ध	-2043
▁कः	-2044
वर्तते	-2045
▁मध्ये	-2046
कट	-2047
कथ	-2048
स्तीति	-2049
म्बु	-2050
▁सीत	-2051
▁वयं	-2052
भिस्च	-2053
ोत्तर	-2054
▁कृतं	-2055
ीः	-2056
ीता	-2057
ोऽनु	-2058
िद	-2059
ग्राम	-2060
नैः	-2061
लोक्य	-2062
▁प्रयोज	-2063
▁सेव	-2064
लब्	-2065
▁खल	-2066
▁वत्स	-2067
▁पव	-2068
▁नच	-2069
▁हेतोः	-2070
▁महाम	-2071
▁कुतः	-2072
▁प्रो	-2073
▁प्रकृत	-2074
▁रक्त	-2075
सास्त्र	-2076
▁चित्	-2077
र्स्व	-2078
▁साधु	-2079
मन्त	-2080
▁ततस्च	-2081
क्षो	-2082
ख्यान	-2083
▁स्न	-2084
दाह	-2085
िक्	-2086
च्छिन्न	-2087
काले	-2088
नौ	-2089
ायत	-2090
घट	-2091
नक	-2092
▁निर्म	-2093
▁एवमुक्त	-2094
ात्मना	-2095
ुमर्ह	-2096
▁योज	-2097
ुतम्	-2098
▁नग	-2099
▁क्लेस	-2100
▁तया	-2101
कुसल	-2102
▁वित	-2103
▁युधिष्ठिर	-2104
परं	-2105
▁बोध	-2106
ङ्गी	-2107
ेया	-2108
▁वध	-2109
▁निह	-2110
द्रूप	-2111
हः	-2112
▁विज	-2113
संस्कार	-2114
▁प्राह	-2115
बोधिसत्त्व	-2116
कू	-2117
न्तरं	-2118
▁सक्ति	-2119
▁ग्राम	-2120
▁द्वे	-2121
ालं	-2122
त्तु	-2123
मथ	-2124
▁नै	-2125
िना	-2126
▁पट	-2127
▁सील	-2128
▁च्द्	-2129
▁प्रजाप	-2130
्यत	-2131
मद	-2132
निय	-2133
मेय	-2134
▁व्यति	-2135
▁सङ्ग	-2136
▁प्राप्य	-2137
ीये	-2138
▁प्रोक्त	-2139
▁कार्यं	-2140
ुरुष	-2141
पत्	-2142
माल	-2143
ेत्यादि	-2144
▁गति	-2145
गं	-2146
▁बहि	-2147
तौ	-2148
कैः	-2149
क्लेस	-2150
ाधिकरण	-2151
द्भाव	-2152
ून्य	-2153
पुष्प	-2154
▁भुव	-2155
ुत्वा	-2156
गे	-2157
स्याः	-2158
व्यक्त	-2159
संयोग	-2160
ुक्तम्	-2161
▁दद्या	-2162
▁किल	-2163
थे	-2164
रूपं	-2165
ोऽन्य	-2166
▁स्रद्ध	-2167
▁आकास	-2168
▁सक्य	-2169
▁ब्रह्मा	-2170
िको	-2171
▁ले	-2172
▁राजन्	-2173
पूज	-2174
▁वक्ष	-2175
▁प्रसिद्ध	-2176
▁स्थान	-2177
ूर्त	-2178
ासा	-2179
▁षष्ठ	-2180
क्रम्य	-2181
▁सत्व	-2182
र्माणि	-2183
षय	-2184
▁वह्	-2185
पाप	-2186
▁पृथिवी	-2187
▁सय	-2188
▁नन्द	-2189
गः	-2190
गर्भ	-2191
र्नि	-2192
दात्त	-2193
▁यस्च	-2194
स्रेष्ठ	-2195
▁माय	-2196
▁सिक्ष	-2197
िर्य	-2198
▁आयु	-2199
▁अन्यथा	-2200
▁पार्थिव	-2201
▁सोक	-2202
▁पुण	-2203
सरीर	-2204
▁कस्च	-2205
ुर्य	-2206
नानि	-2207
कारेण	-2208
हरति	-2209
िरे	-2210
द्वै	-2211
▁साल	-2212
▁इत्येव	-2213
कीर्त	-2214
▁चैत	-2215
▁भ्रात	-2216
खि	-2217
सै	-2218
ायोग	-2219
▁निष	-2220
▁त्वां	-2221
▁तेषाम	-2222
▁स्थाप	-2223
▁तत्रैव	-2224
ुषा	-2225
ाद्या	-2226
▁वासु	-2227
ाणं	-2228
▁संसयः	-2229
▁कुलपुत्र	-2230
▁तृतीय	-2231
ोऽथ	-2232
त्यादि	-2233
स्थितः	-2234
▁ह्र	-2235
रिक्त	-2236
लोप	-2237
मानस्य	-2238
▁तन्म	-2239
हृद	-2240
▁ज्ञात	-2241
▁प्रतिषेध	-2242
ची	-2243
ाद्र	-2244
ान्तरे	-2245
ङ्घ	-2246
▁भविष्य	-2247
▁संघ	-2248
▁तार	-2249
▁कुस	-2250
▁द्वादस	-2251
▁गु	-2252
साधन	-2253
्येन	-2254
▁धर्मं	-2255
▁औ	-2256
▁समनुप	-2257
संघ	-2258
▁भूय	-2259
▁त्रै	-2260
ष्टः	-2261
▁क्षेत्र	-2262
▁बद्ध	-2263
साः	-2264
रस्य	-2265
▁सुवर्ण	-2266
▁चतुर	-2267
▁ध्रुव	-2268
▁गृही	-2269
▁सर्वज्ञ	-2270
तस्त	-2271
कीर्ण	-2272
भार	-2273
▁मिथ्या	-2274
▁व्यवहार	-2275
▁तन्न	-2276
ैवं	-2277
▁समुद्र	-2278
पी	-2279
▁समन्व	-2280
भिध	-2281
मात्रेण	-2282
▁चेद	-2283
क्रिया	-2284
▁स्फुट	-2285
र्षभ	-2286
हृ	-2287
ताव	-2288
▁वी	-2289
▁सृष्ट	-2290
ब्राह्म	-2291
▁सर्वेषां	-2292
स्यो	-2293
ान्म	-2294
ून	-2295
घ्न	-2296
▁उत्प	-2297
सम्बन्ध	-2298
िणी	-2299
▁वात	-2300
▁छन्द	-2301
िकम्	-2302
ासां	-2303
▁विवि	-2304
ध्यति	-2305
▁प्रीति	-2306
▁परमार्थ	-2307
▁पिण्ड	-2308
स्रो	-2309
स्कन्ध	-2310
पूर	-2311
खिल	-2312
ादेस	-2313
िताम्	-2314
ाध्य	-2315
▁नील	-2316
ुणा	-2317
सूत्र	-2318
ऽइ	-2319
रात्र	-2320
ितेन	-2321
विन्द	-2322
त्पर	-2323
चन्द्र	-2324
ानव	-2325
पित	-2326
▁षट्	-2327
▁स्मर	-2328
▁कीर्त	-2329
▁वृक्ष	-2330
▁चान्य	-2331
▁यतः	-2332
मानि	-2333
श्	-2334
▁केवल	-2335
▁यत्क	-2336
न्नं	-2337
▁समाधि	-2338
द्वय	-2339
पत्तेः	-2340
▁देवी	-2341
सून्यता	-2342
सङ्ग	-2343
्याण	-2344
भी	-2345
▁मानुष	-2346
वृद्ध	-2347
राष्ट्र	-2348
चः	-2349
▁कुमार	-2350
▁विविध	-2351
साद	-2352
्यात्म	-2353
क्व	-2354
तायां	-2355
धः	-2356
क्षय	-2357
ख्यं	-2358
ेक्ष्य	-2359
संस्पर्स	-2360
जम्	-2361
ेयम्	-2362
लाप	-2363
▁वो	-2364
▁वरुण	-2365
पत्य	-2366
द्रव्य	-2367
▁दोषः	-2368
ैति	-2369
▁तत्कस्य	-2370
▁संयोग	-2371
सान	-2372
द्भि	-2373
ीर्य	-2374
त्स्व	-2375
▁धनु	-2376
▁कथम्	-2377
▁ज्ञा	-2378
द्ब	-2379
▁सूद्र	-2380
ितानि	-2381
▁तद्यथा	-2382
▁विरोध	-2383
▁इत्याह	-2384
▁कू	-2385
▁भगवानाह	-2386
तप	-2387
तृ	-2388
ेतद	-2389
▁महाभ	-2390
▁महाबल	-2391
क्षर	-2392
ांसि	-2393
▁तन्	-2394
भूता	-2395
▁द्वार	-2396
▁ज्योति	-2397
ैर्न	-2398
भवत्	-2399
ादु	-2400
ङ्क्त	-2401
▁संनि	-2402
प्रि	-2403
▁तान्	-2404
▁गिर	-2405
▁पसु	-2406
▁पृष्ठ	-2407
▁क्षत्र	-2408
▁काले	-2409
विद्य	-2410
▁मूर्ध	-2411
▁त्यक्त	-2412
▁स्रोत्र	-2413
वर्ग	-2414
ासः	-2415
ेभ्यो	-2416
▁नमो	-2417
▁नन्व	-2418
▁वायु	-2419
क्षत्र	-2420
▁स्पर्स	-2421
▁अय	-2422
ध्यते	-2423
चय	-2424
▁प्रत्यय	-2425
▁प्रतिपाद	-2426
विधि	-2427
पाक	-2428
▁अज	-2429
▁कट	-2430
▁रि	-2431
िकाः	-2432
त्त्वं	-2433
दीप	-2434
▁दद	-2435
स्ताव	-2436
वर्ज	-2437
ानी	-2438
▁पिता	-2439
ृतो	-2440
भिप्राय	-2441
च्छा	-2442
▁स्तो	-2443
▁तै	-2444
पृथ	-2445
▁सत्यं	-2446
▁आर्य	-2447
त्वाच्च	-2448
ृताः	-2449
गतो	-2450
▁लक्ष	-2451
सर्ग	-2452
▁पिब	-2453
न्द्रि	-2454
▁विद्व	-2455
म्व	-2456
ितैः	-2457
भौ	-2458
▁सङ्ख	-2459
र्ब	-2460
ाण्य	-2461
मोह	-2462
▁स्मृति	-2463
▁एतद	-2464
र्भव	-2465
▁सकल	-2466
िनो	-2467
ांस	-2468
स्थं	-2469
▁मनसा	-2470
▁कत	-2471
▁नापि	-2472
▁स्रीम	-2473
प्रती	-2474
▁चरति	-2475
विसिष्ट	-2476
कारं	-2477
साल	-2478
▁अनि	-2479
▁भूत्वा	-2480
ुरूप	-2481
स्छ	-2482
▁दृढ	-2483
त्त्र	-2484
▁भवेद	-2485
ऽपि	-2486
खा	-2487
▁दध	-2488
भक्त	-2489
▁प्राप	-2490
कृष्ट	-2491
▁दीप	-2492
▁आत्मा	-2493
युः	-2494
गृह्य	-2495
विकल्प	-2496
त्वस्य	-2497
▁कान्त	-2498
▁पठ	-2499
▁प्रज्ञापारमिता	-2500
नित्य	-2501
▁वासुदेव	-2502
नेह	-2503
▁वह	-2504
क्राम	-2505
प्स	-2506
ांसु	-2507
्यास	-2508
▁नाव	-2509
धिकरण	-2510
त्वादि	-2511
बहु	-2512
▁च्छ	-2513
▁वक्ष्य	-2514
▁पद्म	-2515
न्ता	-2516
▁सर्वा	-2517
▁ततस्त	-2518
ादे	-2519
ुति	-2520
ग्रहः	-2521
तेषु	-2522
त्येव	-2523
निष	-2524
परा	-2525
ङ्गं	-2526
▁स्ना	-2527
लेन	-2528
▁राघ	-2529
▁गुह	-2530
ही	-2531
र्गुण	-2532
▁वर्ध	-2533
▁बीज	-2534
▁अभ्य	-2535
▁दैत्य	-2536
▁देवाः	-2537
क्षेत्र	-2538
गति	-2539
ंसति	-2540
म्ना	-2541
▁भवित	-2542
▁पात	-2543
ागर	-2544
मेवं	-2545
▁निज	-2546
▁तर	-2547
▁यौ	-2548
▁व्यक्त	-2549
ितस्य	-2550
ादित्य	-2551
▁पौर	-2552
ात्स	-2553
ुषु	-2554
▁देवता	-2555
▁अहो	-2556
धौ	-2557
▁दूष	-2558
ेभ्यः	-2559
▁धात	-2560
▁तन्नि	-2561
समन्व	-2562
पुण	-2563
पिण्ड	-2564
पदं	-2565
ासो	-2566
वस्य	-2567
▁सूत	-2568
्रज	-2569
▁विचार	-2570
▁याति	-2571
ान्वि	-2572
▁क्रीड	-2573
मब्रवीत्	-2574
▁विसिष्ट	-2575
▁परम्	-2576
▁धि	-2577
स्रय	-2578
▁गतः	-2579
▁दूर	-2580
▁परमे	-2581
जी	-2582
▁द्रो	-2583
▁गव	-2584
▁पी	-2585
▁व्याख्या	-2586
ैरपि	-2587
चा	-2588
ेऽप्य	-2589
▁यद्व	-2590
▁तस्म	-2591
्यम	-2592
भं	-2593
▁भय	-2594
▁तेषु	-2595
▁मात्र	-2596
धाव	-2597
▁कृते	-2598
▁यत्प	-2599
▁वचनं	-2600
▁मैत्र	-2601
▁पाल	-2602
र्थम्	-2603
▁मौ	-2604
▁महाप	-2605
▁रणे	-2606
▁प्रकरण	-2607
साह	-2608
▁सुखं	-2609
मण	-2610
▁सर्ग	-2611
ूनां	-2612
▁चोद	-2613
सब्देन	-2614
ेन्द्रिय	-2615
▁संज्ञ	-2616
ोऽव	-2617
▁प्रणि	-2618
▁जु	-2619
▁संभव	-2620
ितां	-2621
ान्प्र	-2622
ग्व	-2623
ण्ट	-2624
▁समनुपस्यति	-2625
▁जना	-2626
▁अधि	-2627
▁संबन्ध	-2628
▁सस्त्र	-2629
त्वात्त	-2630
र्द्ध	-2631
रथ	-2632
ितौ	-2633
▁षोड	-2634
▁ऊर्ध्व	-2635
▁वः	-2636
केस	-2637
ादय	-2638
ायै	-2639
विष्ट	-2640
ित्यादि	-2641
▁सोभ	-2642
तानि	-2643
▁वान	-2644
▁प्रत्येक	-2645
व्यो	-2646
ाहि	-2647
▁प्रामाण	-2648
ेष्ट	-2649
▁महाव	-2650
▁तदि	-2651
▁विनास	-2652
▁सन्त	-2653
धानं	-2654
▁क्	-2655
▁स्कन्ध	-2656
▁चित्तं	-2657
▁हिरण्य	-2658
स्येति	-2659
▁मधुर	-2660
पथ	-2661
ार्त	-2662
प्रामाण	-2663
कम	-2664
याति	-2665
▁गृह्ण	-2666
▁कृत्	-2667
रति	-2668
दाति	-2669
जाः	-2670
ाट	-2671
▁महि	-2672
िरूप	-2673
▁प्रे	-2674
लोके	-2675
▁समं	-2676
प्तं	-2677
▁गाय	-2678
▁बाण	-2679
राः	-2680
▁परमं	-2681
▁कौसिक	-2682
▁बोधिसत्त्वस्य	-2683
▁सकृ	-2684
सत्त	-2685
▁दास	-2686
त्वम	-2687
ोपसं	-2688
लव	-2689
हितं	-2690
ञ्जलि	-2691
▁क्षु	-2692
▁साव	-2693
▁भुक्त	-2694
▁कन्या	-2695
▁सस	-2696
संनि	-2697
▁सार्धं	-2698
माप्	-2699
दम्	-2700
ृद्ध	-2701
▁रे	-2702
रत्न	-2703
▁सन्नि	-2704
र्जु	-2705
▁मरु	-2706
▁दत्त्वा	-2707
▁वस्त्र	-2708
▁नाना	-2709
▁दर्सयति	-2710
▁विष्णु	-2711
ोऽभि	-2712
विभाग	-2713
▁बलि	-2714
▁तुल्य	-2715
▁विरुद्ध	-2716
▁एवम	-2717
▁गच्छति	-2718
ामा	-2719
कृतः	-2720
सिष्ठ	-2721
▁तयो	-2722
सहस्राणि	-2723
ित्वं	-2724
स्यामि	-2725
▁मनुष्य	-2726
▁सच	-2727
▁क्षीर	-2728
▁भज	-2729
▁समास	-2730
नाव	-2731
▁कुम्भ	-2732
▁कर्तृ	-2733
द्देस	-2734
ानेन	-2735
लभ्य	-2736
ोऽसि	-2737
▁जाय	-2738
र्थो	-2739
ज्ञाय	-2740
▁पाव	-2741
▁द्य	-2742
▁कार्या	-2743
▁सूक्ष्म	-2744
▁विस्र	-2745
▁क्रियते	-2746
व्यवहार	-2747
योप	-2748
निर्	-2749
▁तीर्थ	-2750
मेतद	-2751
बुद्धि	-2752
मांस	-2753
ृते	-2754
▁तस्मि	-2755
▁दुष्	-2756
ानो	-2757
प्रवृत्त	-2758
▁निवर्त	-2759
ध्यात्म	-2760
म्बर	-2761
सम्भव	-2762
▁द्वौ	-2763
▁तस्मै	-2764
▁इत्यत्र	-2765
▁निवृत्त	-2766
गृह्ण	-2767
▁क्रुद्ध	-2768
तीं	-2769
▁यावद	-2770
यिष्यति	-2771
सेव	-2772
धू	-2773
ाज्	-2774
▁युव	-2775
वाक	-2776
ापत्त	-2777
ार्थः	-2778
▁यस	-2779
▁नाय	-2780
भः	-2781
▁क्वचित्	-2782
▁गिरि	-2783
▁पृथक्	-2784
▁तू	-2785
ोऽन	-2786
▁स्मृतः	-2787
ारूप	-2788
▁लौक	-2789
▁द्वा	-2790
न्ये	-2791
▁कपि	-2792
पक्षे	-2793
स्थाय	-2794
तेन	-2795
स्माकं	-2796
▁क्वचि	-2797
्वाल	-2798
धो	-2799
▁ही	-2800
मेन	-2801
वसाय	-2802
ोपाय	-2803
▁अथा	-2804
ोऽस्ति	-2805
म्प्र	-2806
▁असं	-2807
▁विल	-2808
▁सन्ति	-2809
त्यं	-2810
मोद	-2811
सन्नि	-2812
▁मुख्य	-2813
सब्दः	-2814
▁वक्तव्यम्	-2815
चिन्त्य	-2816
ुर्व	-2817
▁धृत	-2818
करोति	-2819
त्वि	-2820
र्या	-2821
सिद्धि	-2822
▁लघ	-2823
ानुमान	-2824
▁एवमेव	-2825
रोप	-2826
▁आग	-2827
▁खल्व	-2828
▁देवि	-2829
▁अयम	-2830
▁जप	-2831
ाहरण	-2832
▁चाप	-2833
बिम्ब	-2834
स्थि	-2835
▁सन्द	-2836
सामर्थ	-2837
ान्तरं	-2838
सास	-2839
भूय	-2840
लक्षणं	-2841
ेभ्य	-2842
ृष	-2843
ान्स	-2844
नया	-2845
▁केवलं	-2846
िन्न	-2847
स्राव	-2848
ूपि	-2849
▁गन्धर्व	-2850
▁समुप	-2851
▁सुचि	-2852
पत्तिः	-2853
साम्	-2854
▁तात	-2855
▁यू	-2856
▁हित	-2857
▁प्रत्यु	-2858
जन्म	-2859
धिकार	-2860
ूयते	-2861
▁किन्तु	-2862
▁यद्यपि	-2863
सम्य	-2864
त्वाद्	-2865
▁अन्तर	-2866
मयं	-2867
स्तो	-2868
▁निरा	-2869
▁मयि	-2870
▁चतुर्थ	-2871
▁क्षिप्र	-2872
ील	-2873
ोत्पाद	-2874
ाप्नोति	-2875
▁कुत	-2876
चतु	-2877
▁मनसिक	-2878
ज्ञे	-2879
िभिः	-2880
सन	-2881
काङ्क्ष	-2882
▁ययौ	-2883
कोट	-2884
▁भोज	-2885
▁माध	-2886
▁सृङ्ग	-2887
▁तो	-2888
▁अन्व	-2889
हत	-2890
वित्	-2891
्न	-2892
▁माया	-2893
ामुप	-2894
ोति	-2895
्राज	-2896
▁चै	-2897
प्राण	-2898
कत्वं	-2899
िकां	-2900
▁पृष्ट	-2901
त्स्य	-2902
सिख	-2903
▁साह	-2904
▁राव	-2905
▁क्रमेण	-2906
▁इयं	-2907
वोच	-2908
सोभ	-2909
ादिभिः	-2910
ब्दा	-2911
त्वादिति	-2912
बु	-2913
लक	-2914
मत्र	-2915
ैर्द	-2916
नर	-2917
▁कर्माणि	-2918
दानीं	-2919
▁भक्ष	-2920
▁लु	-2921
▁उभय	-2922
▁सर्वभूत	-2923
सत्	-2924
दृस्य	-2925
▁सीघ्र	-2926
▁तच्छ	-2927
वस्थ	-2928
▁अद्य	-2929
पदे	-2930
तय	-2931
गृहीत	-2932
▁युज्यते	-2933
▁पदार्थ	-2934
ताया	-2935
▁लाभ	-2936
▁पुरुषो	-2937
ामी	-2938
्रा	-2939
तत्त्व	-2940
▁यावत्	-2941
ात्मानं	-2942
▁तद्ध	-2943
ोध्य	-2944
▁चकार	-2945
मनो	-2946
ष्ठा	-2947
व्याः	-2948
▁दुर्ग	-2949
▁निरोध	-2950
सक्ति	-2951
ांस्त	-2952
लब्धि	-2953
▁प्रास	-2954
▁महाय	-2955
▁धनं	-2956
ालम्ब	-2957
▁विचित्र	-2958
न्मह	-2959
ङ्गः	-2960
प्रणि	-2961
श्च	-2962
▁व्यभिचार	-2963
प्रज्ञ	-2964
माप	-2965
▁स्वेत	-2966
कूल	-2967
ोद्ध	-2968
ग्रीव	-2969
▁पार्स्व	-2970
दन	-2971
षः	-2972
द्भिः	-2973
ोच	-2974
यितु	-2975
▁महाबाह	-2976
लेष	-2977
टे	-2978
्यै	-2979
द्वीप	-2980
मादाय	-2981
▁व्यु	-2982
▁वापि	-2983
▁देवानां	-2984
क्रमः	-2985
▁जुह	-2986
पत्र	-2987
वादः	-2988
ूं	-2989
ुरा	-2990
ष्टम्	-2991
▁एषा	-2992
▁ख्या	-2993
▁हन्त	-2994
▁वाक्यं	-2995
▁हंस	-2996
कोप	-2997
▁कुसु	-2998
र्मह	-2999
▁हरे	-3000
ोऽत्र	-3001
▁दुः	-3002
ङ्गु	-3003
योक्त	-3004
▁विसेषण	-3005
▁वन्द	-3006
▁वर्ज	-3007
▁ऋष	-3008
मेतत्	-3009
केत	-3010
नाथ	-3011
▁मणि	-3012
ात्मक	-3013
▁समस्त	-3014
▁स्थितः	-3015
स्चेति	-3016
ध्ये	-3017
पर्या	-3018
येति	-3019
▁इमे	-3020
ञ्जन	-3021
न्मा	-3022
▁नरा	-3023
विधान	-3024
ादिव	-3025
▁गज	-3026
यिष्यन्ति	-3027
ान्मह	-3028
ग्रहणम्	-3029
▁यतो	-3030
▁विच	-3031
भिर्व	-3032
लाः	-3033
▁स्वप्न	-3034
ाये	-3035
ीयः	-3036
लेप	-3037
चनं	-3038
▁कण्ठ	-3039
ापरि	-3040
▁यम	-3041
▁कर्मणा	-3042
▁हर्ष	-3043
▁सत्या	-3044
ौष	-3045
▁इत्येत	-3046
ेयः	-3047
▁मर्त	-3048
ृज	-3049
मित्याह	-3050
▁महान	-3051
तेति	-3052
▁उत्स	-3053
▁मन्त	-3054
देवं	-3055
साव	-3056
न्यत्र	-3057
▁ज्ये	-3058
▁प्रथमं	-3059
सेत्	-3060
▁यस्या	-3061
कां	-3062
▁स्फुर	-3063
▁यत्न	-3064
ज्ञः	-3065
ेतर	-3066
▁मेघ	-3067
ानः	-3068
▁दर्सन	-3069
सीद	-3070
ून्	-3071
कर्तृ	-3072
म्भीर	-3073
ौघ	-3074
कारो	-3075
मुत्प	-3076
▁ज्ञात्वा	-3077
▁कथयति	-3078
ाणे	-3079
ासून्य	-3080
▁पित्र	-3081
▁प्रवर्तते	-3082
▁साक्षात्	-3083
▁तृष्ण	-3084
ुस्च	-3085
▁धर्मो	-3086
ामह	-3087
▁स्थिर	-3088
▁अक्ष	-3089
पर्व	-3090
▁ददर्स	-3091
▁भवत्य	-3092
न्यः	-3093
▁पाणि	-3094
मस्ति	-3095
▁कालेन	-3096
ायुष्म	-3097
▁घृत	-3098
▁पूर	-3099
न्यस्य	-3100
▁सेषः	-3101
पट	-3102
भुव	-3103
लङ्कार	-3104
नुयात्	-3105
लम्भयोगेन	-3106
ोऽस्मि	-3107
तिति	-3108
▁मार	-3109
ीतं	-3110
कृष्ण	-3111
विधं	-3112
िणा	-3113
ोत्स	-3114
ध्यायः	-3115
▁स्लोक	-3116
▁त्री	-3117
▁यद्	-3118
▁निर्दि	-3119
▁तम्	-3120
दध	-3121
▁इष्ट	-3122
मुक्तं	-3123
▁पुरुषः	-3124
▁नियम	-3125
▁नू	-3126
ख्याय	-3127
योर्	-3128
ेणैव	-3129
▁काञ्च	-3130
▁वसिष्ठ	-3131
क्ष्यामि	-3132
दुप	-3133
बीज	-3134
िकार	-3135
▁निर्	-3136
▁कारणं	-3137
ासिद्ध	-3138
देसे	-3139
स्थानं	-3140
▁हा	-3141
▁घ्र	-3142
▁दुर्य	-3143
▁सुत	-3144
दण्ड	-3145
ष्ये	-3146
▁पाण्डव	-3147
▁येषां	-3148
ाध्याय	-3149
▁संवि	-3150
हितः	-3151
भ्युपग	-3152
▁भगवता	-3153
माणं	-3154
▁परिणाम	-3155
▁धीम	-3156
▁यथाव	-3157
▁सत्	-3158
नार्थ	-3159
ेता	-3160
▁सम्भव	-3161
कुट	-3162
प्रतिष्ठ	-3163
नीं	-3164
▁दानि	-3165
▁सहसा	-3166
लोच	-3167
▁जगत्	-3168
▁भार्या	-3169
नुव	-3170
▁जगाम	-3171
यी	-3172
ोऽहं	-3173
▁कृप	-3174
▁एतेन	-3175
ूर्ध्व	-3176
▁उत	-3177
▁साधन	-3178
▁बुध	-3179
लस्य	-3180
▁अनुप	-3181
▁कर्मा	-3182
तामुप	-3183
ुत्र	-3184
▁सर्वाणि	-3185
नात	-3186
मम	-3187
कृत्	-3188
▁भरत	-3189
▁वचः	-3190
र्द्र	-3191
स्रवण	-3192
ङ्कुर	-3193
▁सन	-3194
▁धर्मः	-3195
निवृत्त	-3196
कानां	-3197
▁दुर्योध	-3198
रुड	-3199
कान्	-3200
ानन्त	-3201
▁चोप	-3202
वद्	-3203
त्थाय	-3204
स्योप	-3205
लाय	-3206
स्मृति	-3207
णेन	-3208
▁आद्य	-3209
▁स्वर	-3210
▁बोधिसत्व	-3211
धं	-3212
▁अर्ध	-3213
▁तत्सर्व	-3214
च्छ्रुत्वा	-3215
न्द्व	-3216
▁दह	-3217
त्यु	-3218
जाल	-3219
पीड	-3220
▁तनु	-3221
मभ्य	-3222
लिष्ट	-3223
प्रयुक्त	-3224
▁कस्चित्	-3225
चोद	-3226
▁दृष्टान्त	-3227
▁विम	-3228
▁भग	-3229
▁भिक्षु	-3230
▁सर्वदा	-3231
मुत्तमम्	-3232
सुभ	-3233
▁वाह	-3234
ज्ञाप	-3235
द्वित	-3236
ैर्ग	-3237
ास्	-3238
सञ्	-3239
ज्ञो	-3240
पदेस	-3241
णाम्	-3242
▁सर्वसत्त्व	-3243
ैषा	-3244
स्ततः	-3245
ाख्य	-3246
▁व्याप्त	-3247
▁प्राप्ते	-3248
▁त्या	-3249
स्चर	-3250
स्त्री	-3251
ग्रे	-3252
▁तिष्ठति	-3253
▁चास्य	-3254
मिन्द्र	-3255
सन्त	-3256
र्म्	-3257
न्याय	-3258
▁प्रया	-3259
प्रसिद्ध	-3260
▁ण	-3261
क्ता	-3262
लभते	-3263
▁प्रयत्न	-3264
भिधान	-3265
ाल्	-3266
ितु	-3267
ष्मा	-3268
▁सम्ब	-3269
पदार्थ	-3270
▁स्यादिति	-3271
न्यथा	-3272
प्रतिपाद	-3273
ौद्र	-3274
षो	-3275
लाभ	-3276
स्ये	-3277
लक्षणम्	-3278
▁तुल	-3279
▁तस्याः	-3280
▁अन्यत्र	-3281
▁हेतुः	-3282
▁सुक्ल	-3283
नन्त	-3284
▁ब्रुव	-3285
▁नाभि	-3286
▁निवेद	-3287
स्वि	-3288
▁प्ल	-3289
▁यानि	-3290
▁तदुप	-3291
▁यान्ति	-3292
▁सम्प्र	-3293
▁अग्ने	-3294
▁पदं	-3295
ध्यान	-3296
▁जिह्व	-3297
▁तेनैव	-3298
धेय	-3299
ोऽप	-3300
षां	-3301
नू	-3302
ोच्यते	-3303
▁वने	-3304
▁लभते	-3305
मर्ह	-3306
▁सर्वस्य	-3307
▁रूपेण	-3308
ास्या	-3309
▁भवतीति	-3310
▁संवत्स	-3311
परीत	-3312
चरेत्	-3313
▁यक्ष	-3314
ात्मान	-3315
ात्मनि	-3316
▁सोऽपि	-3317
ितर	-3318
विरुद्ध	-3319
गेन	-3320
▁गता	-3321
माग	-3322
करणं	-3323
▁दुःखं	-3324
▁अभाव	-3325
▁आस्र	-3326
मुखं	-3327
▁पृच्छ	-3328
हस्त	-3329
रूपेण	-3330
▁धा	-3331
चल	-3332
पायन	-3333
कृतिः	-3334
निष्	-3335
कानि	-3336
ुरिति	-3337
द्वती	-3338
मण्डल	-3339
स्मित	-3340
निग्ध	-3341
▁भीष्म	-3342
रोह	-3343
▁सततं	-3344
▁परित्य	-3345
द्म	-3346
▁वैसं	-3347
▁व्यो	-3348
सिंह	-3349
▁वाग	-3350
▁तावद	-3351
▁प्रादुर्	-3352
▁पीड	-3353
▁गद	-3354
▁दे	-3355
प्रण	-3356
▁तस्यैव	-3357
▁कं	-3358
मुत्स	-3359
ङ्गल	-3360
विहार	-3361
ोऽसौ	-3362
त्सं	-3363
वस्तु	-3364
स्चा	-3365
▁सन्	-3366
ष्टौ	-3367
विस्त	-3368
ायाम्	-3369
कम्प	-3370
▁अनेक	-3371
्रं	-3372
▁कुमा	-3373
▁स्यात्त	-3374
किं	-3375
▁हृदय	-3376
▁मत्त	-3377
ष्ठं	-3378
ेच्छ	-3379
▁गौर	-3380
▁स्राद्ध	-3381
र्षि	-3382
▁नात्र	-3383
ब्राह्मण	-3384
ेकं	-3385
यत्य	-3386
▁सेन	-3387
त्वमिति	-3388
▁भक्ति	-3389
मित्यादि	-3390
▁ज्वल	-3391
▁ममा	-3392
जल	-3393
▁मूढ	-3394
ावर्त	-3395
नाति	-3396
▁देवदत्त	-3397
▁नहि	-3398
▁संव	-3399
▁सुमह	-3400
म्भो	-3401
▁मांस	-3402
द्यः	-3403
▁इतर	-3404
भेदेन	-3405
▁नदी	-3406
▁योनि	-3407
▁कोप	-3408
स्पृ	-3409
▁उभ	-3410
निर्देस	-3411
चो	-3412
▁आचार	-3413
▁प्राणि	-3414
ानेक	-3415
▁हेम	-3416
चं	-3417
▁भुवि	-3418
ावर	-3419
▁आसी	-3420
▁सैव	-3421
ास्ते	-3422
▁दानं	-3423
▁पुनर्	-3424
क्षिप	-3425
▁गृहीत्वा	-3426
▁चत्वारि	-3427
तीव	-3428
मिस्र	-3429
र्माणां	-3430
▁तदु	-3431
▁सुक्र	-3432
तरं	-3433
सम्ब	-3434
▁स्रावक	-3435
ीम्	-3436
तुं	-3437
मुवाच	-3438
▁पस्चि	-3439
▁ऽअ	-3440
▁सास	-3441
र्जुन	-3442
दृसं	-3443
▁इत्थ	-3444
▁कुण्ड	-3445
▁ताप	-3446
दक्षिण	-3447
▁स्वं	-3448
▁प्रयोजन	-3449
▁कर्तव्य	-3450
▁त्रयो	-3451
ुतं	-3452
▁केचि	-3453
▁सास्व	-3454
ागत	-3455
▁जघ	-3456
भृ	-3457
ाध्या	-3458
विनास	-3459
खल	-3460
सन्ध	-3461
▁पात्र	-3462
▁कतम	-3463
▁दुष्ट	-3464
सत्त्वा	-3465
▁सर्वथा	-3466
▁ड	-3467
▁उक्तं	-3468
▁प्रमाणं	-3469
सप्त	-3470
मुख्य	-3471
▁प्रव्रज	-3472
ोऽध्यायः	-3473
सस्य	-3474
्मा	-3475
कण्ठ	-3476
ानिति	-3477
▁समर्थ	-3478
▁प्रमा	-3479
ृष्टि	-3480
▁प्राति	-3481
▁विस्म	-3482
थापि	-3483
रूपा	-3484
▁सकु	-3485
मुक्ति	-3486
ावपि	-3487
प्रसाद	-3488
्रियः	-3489
▁नारायण	-3490
▁भुज	-3491
भङ्ग	-3492
जाति	-3493
धिर	-3494
▁प्रकार	-3495
▁दात	-3496
ार्थे	-3497
दय	-3498
स्री	-3499
▁गग	-3500
▁प्रवृत्ति	-3501
▁नरः	-3502
▁विधीयते	-3503
▁स्रवण	-3504
▁आव	-3505
▁वृत्ति	-3506
तेर	-3507
▁कस्यचि	-3508
पदा	-3509
पर्ण	-3510
▁वह्नि	-3511
▁कुरुते	-3512
युत	-3513
▁मरण	-3514
युक्तं	-3515
स्थिता	-3516
स्तस्मा	-3517
▁ट	-3518
प्रत्यक्ष	-3519
कृतम्	-3520
▁विवेक	-3521
▁प्रतिसं	-3522
▁यात	-3523
हास	-3524
भावं	-3525
धन	-3526
नन्तर	-3527
न्दन	-3528
▁प्रभुः	-3529
▁स्वयमेव	-3530
▁हवि	-3531
▁लोकधात	-3532
ीवर	-3533
▁सर्वाकार	-3534
ङ्कु	-3535
ोऽस्य	-3536
▁घो	-3537
▁भोक्त	-3538
गोचर	-3539
▁पीत	-3540
ंच	-3541
ोपदेस	-3542
▁बु	-3543
▁ः	-3544
ैर्भ	-3545
याः	-3546
▁अन्यो	-3547
▁राज्ञा	-3548
ात्म्य	-3549
▁अप्य	-3550
▁सर्प	-3551
▁देहि	-3552
▁कद	-3553
▁भूतानि	-3554
निर्म	-3555
स्थिति	-3556
ताल	-3557
ावृत्त	-3558
▁इत्युक्त्वा	-3559
▁आय	-3560
र्थस्य	-3561
त्मा	-3562
▁समरे	-3563
▁नारद	-3564
▁यदु	-3565
▁वाक	-3566
दर्	-3567
व्यापार	-3568
▁बृहस्प	-3569
▁मै	-3570
मते	-3571
ादपि	-3572
्रियते	-3573
यिष्यामि	-3574
▁विपर्य	-3575
▁नय	-3576
मानेन	-3577
▁यस्तु	-3578
▁सूक्त	-3579
भूत्	-3580
ात्पर	-3581
▁सर्वधर्म	-3582
▁सर्वलोक	-3583
ोक्ष	-3584
ागम	-3585
▁विकार	-3586
▁देवो	-3587
▁सलि	-3588
▁स्नेह	-3589
गाः	-3590
प्ल	-3591
न्द्रियाणि	-3592
▁हत	-3593
▁चिद	-3594
▁मृत	-3595
▁सामर्थ	-3596
िनि	-3597
▁घोर	-3598
ोवाच	-3599
▁जनार्द	-3600
▁भविष्यन्ति	-3601
▁स्थिति	-3602
▁रण	-3603
विचार	-3604
स्चापि	-3605
▁आनन्द	-3606
▁प्रेष	-3607
न्तरेण	-3608
भृत	-3609
ारम्भ	-3610
▁निर्ग	-3611
▁याग	-3612
मेकं	-3613
▁प्रार्थ	-3614
मुखी	-3615
▁तपो	-3616
▁कल्याण	-3617
्याम	-3618
प्रिय	-3619
▁यत्स	-3620
गम्यते	-3621
ादयो	-3622
येत्त	-3623
िरेव	-3624
ृज्य	-3625
ानीति	-3626
▁मन्यते	-3627
▁विक्र	-3628
ल्लोक	-3629
तथ	-3630
▁हृदि	-3631
स्यन्ति	-3632
▁ददाति	-3633
द्युम्	-3634
द्वतीपुत्र	-3635
ध्वं	-3636
▁सिष्य	-3637
कुर	-3638
▁वप	-3639
रक्ष	-3640
कर्मा	-3641
स्चतु	-3642
घा	-3643
▁सक्यते	-3644
▁प्रतिष्ठाप	-3645
▁पुद्ग	-3646
▁यदुत	-3647
ुम्ब	-3648
महं	-3649
भिसं	-3650
▁विसुद्ध	-3651
ेद्य	-3652
▁इत्येवं	-3653
ुषः	-3654
▁बा	-3655
▁सिद्धि	-3656
गुणं	-3657
भाषत	-3658
ालोक	-3659
क्षिप्य	-3660
भाज	-3661
ाविसेष	-3662
▁प्रयु	-3663
ादीनाम	-3664
▁नोपलभ्यते	-3665
▁चक्रे	-3666
▁वल्	-3667
नोऽ	-3668
सामान्य	-3669
▁चात्र	-3670
▁विभाव	-3671
▁सिध्यति	-3672
▁तस्मात्त	-3673
▁सत्त्वा	-3674
न्मात्र	-3675
विष्यति	-3676
ीत्या	-3677
पारमिता	-3678
▁प्रिया	-3679
द्देव	-3680
▁संत	-3681
▁क्षत्रिय	-3682
▁गन्त	-3683
▁त्यज	-3684
▁पत्	-3685
ैते	-3686
साध्य	-3687
▁द्वेष	-3688
ान्वय	-3689
सोक	-3690
▁वेदना	-3691
▁तस्मिन्न	-3692
▁चक्षु	-3693
▁चरण	-3694
साय	-3695
म्तर्हि	-3696
▁भस्म	-3697
मेष	-3698
ानुभव	-3699
▁मुने	-3700
दित	-3701
▁पुण्यं	-3702
▁कालं	-3703
येऽ	-3704
▁निवेस	-3705
पास	-3706
▁परमा	-3707
र्भवति	-3708
द्यु	-3709
स्वास	-3710
▁तदेत	-3711
दर्सनात्	-3712
पन्नः	-3713
प्रत्ययो	-3714
▁मनुष्या	-3715
▁तत्रापि	-3716
प्ता	-3717
हितो	-3718
▁तस्यां	-3719
▁मुहूर्त	-3720
द्रव	-3721
मुच्य	-3722
▁राज्यं	-3723
भूति	-3724
घोष	-3725
▁व्रत	-3726
द्गृह	-3727
▁स्रूयते	-3728
ीयत	-3729
▁कास्य	-3730
भयं	-3731
▁वैस्व	-3732
▁ब्रह्मण	-3733
करः	-3734
▁दन्त	-3735
▁ग्रन्थ	-3736
▁माता	-3737
▁किर	-3738
▁अत्यन्त	-3739
म्च	-3740
▁अस्म	-3741
मुद्र	-3742
ाद्वा	-3743
ादिना	-3744
▁पास	-3745
▁कृतम्	-3746
▁भूप	-3747
ैस्	-3748
ूर्य	-3749
▁वाज	-3750
▁जड	-3751
गते	-3752
प्रयोज	-3753
▁तदनु	-3754
टं	-3755
▁महाभाग	-3756
▁समी	-3757
▁संज्ञा	-3758
णु	-3759
स्कर	-3760
प्रधान	-3761
▁धीर	-3762
तेज	-3763
तायाः	-3764
▁प्रभो	-3765
▁स्पृ	-3766
कत्वेन	-3767
▁महता	-3768
▁खण्ड	-3769
▁महत्	-3770
▁चेन्न	-3771
▁संसय	-3772
द्रु	-3773
▁चण्ड	-3774
ावस्थ	-3775
वासि	-3776
▁साप	-3777
स्येव	-3778
▁निग	-3779
▁पच	-3780
ैरेव	-3781
ानुर	-3782
▁हृष्ट	-3783
जन्य	-3784
▁इन्द्रिय	-3785
ूर्णं	-3786
▁वक्तव्यः	-3787
प्रवेस	-3788
ायुध	-3789
▁पुत्रो	-3790
▁षड्	-3791
ीक्ष्ण	-3792
ारिपुत्र	-3793
ितम	-3794
▁मञ्ज	-3795
निबन्ध	-3796
▁पुराण	-3797
▁महासत्त्वस्य	-3798
ारे	-3799
ान्तो	-3800
▁पाञ्च	-3801
▁इत्युच्यते	-3802
▁प्रायस्चित्त	-3803
िनां	-3804
▁रोग	-3805
▁तद्द	-3806
स्तथैव	-3807
चनम्	-3808
▁कर्ता	-3809
करं	-3810
मुह	-3811
ख्ये	-3812
▁गृह्य	-3813
द्वे	-3814
▁अस्मा	-3815
ोर्	-3816
▁कुर्यात्	-3817
▁सब्दः	-3818
ैरुप	-3819
पते	-3820
▁वरं	-3821
▁सुष	-3822
थ्य	-3823
्वर	-3824
▁स्थिता	-3825
ोद्य	-3826
ीनि	-3827
स्वरं	-3828
▁पाठ	-3829
▁ग्रहण	-3830
▁निरूप	-3831
दानं	-3832
िरोध	-3833
ानपि	-3834
याय	-3835
▁राध	-3836
▁उपसं	-3837
▁परमात्म	-3838
न्तीति	-3839
▁भवान्	-3840
ूनि	-3841
▁वाद	-3842
स्वर्य	-3843
▁पण्ड	-3844
▁देवं	-3845
महे	-3846
▁महीप	-3847
▁मातृ	-3848
▁अना	-3849
▁आयुष्म	-3850
▁प्रेत	-3851
▁विज्ञानं	-3852
ाविव	-3853
ाभेद	-3854
▁एवेति	-3855
तथा	-3856
भ्यं	-3857
▁मति	-3858
▁वैसंपायन	-3859
पूर्वं	-3860
चरण	-3861
▁यद्वा	-3862
ेष्वपि	-3863
स्याप्य	-3864
थाः	-3865
ेर्	-3866
▁निर्वि	-3867
▁सरस्व	-3868
न्स	-3869
गतम्	-3870
▁पुरस्त	-3871
वल्	-3872
त्यर्थः	-3873
▁महात्मनः	-3874
▁सम्यक्संबुद्ध	-3875
▁वय	-3876
▁धूम	-3877
▁वेति	-3878
▁मही	-3879
▁परिह	-3880
▁युक्तं	-3881
▁चन	-3882
▁भूमौ	-3883
चष्टे	-3884
ैनं	-3885
ान्तिक	-3886
▁सक्	-3887
ृतिः	-3888
▁कृच्छ्र	-3889
सिर	-3890
च्छब्द	-3891
▁अल्प	-3892
▁पर्वत	-3893
▁व्याप	-3894
स्थितम्	-3895
ाविति	-3896
▁त्रय	-3897
▁यत्प्र	-3898
▁देवत	-3899
व्याप्त	-3900
▁तस्मात्	-3901
ब्दार्थ	-3902
▁विभाग	-3903
▁स्वयम्	-3904
▁लोह	-3905
मुत्पाद	-3906
न्यां	-3907
▁अन्ये	-3908
प्रसङ्गः	-3909
्नि	-3910
युग	-3911
▁व्यापार	-3912
्यर्थ	-3913
▁लिख	-3914
ोत्प	-3915
कत्वात्	-3916
▁गमि	-3917
ाणाम्	-3918
ेत्त	-3919
मध्ये	-3920
▁नेत्र	-3921
साक्ष	-3922
ामपि	-3923
▁सम्भ	-3924
▁निर्द	-3925
सील	-3926
ानामपि	-3927
▁प्रतिज्ञ	-3928
चर्य	-3929
▁अस्तु	-3930
▁मूर्	-3931
टा	-3932
तैव	-3933
द्वेष	-3934
त्वमेव	-3935
स्तां	-3936
ाव्या	-3937
▁बहुव	-3938
▁प्रज्ञा	-3939
▁आदित्य	-3940
णस्य	-3941
व्यतिरेक	-3942
लेख	-3943
रेन्द्र	-3944
▁ध्या	-3945
▁पापं	-3946
▁प्रपञ्च	-3947
सूद	-3948
्वं	-3949
▁अग	-3950
▁अनन्त	-3951
▁ज्येष्ठ	-3952
▁राजेन्द्र	-3953
क्रोध	-3954
▁लोप	-3955
भिनि	-3956
▁नभ	-3957
ेयो	-3958
▁तृण	-3959
▁निर्ण	-3960
मन्व	-3961
ीयम्	-3962
कुसु	-3963
▁अथवा	-3964
ास्तु	-3965
ादिकं	-3966
▁तन्त्र	-3967
कासं	-3968
ोक्तम्	-3969
नेत्र	-3970
कुमार	-3971
▁दृष्टि	-3972
▁चतुर्वि	-3973
ादेः	-3974
▁सरणं	-3975
▁घ्राण	-3976
▁स्वय	-3977
▁झ	-3978
त्कर्ष	-3979
▁कृतः	-3980
योरपि	-3981
ितया	-3982
▁एका	-3983
प्रसङ्गात्	-3984
क्षः	-3985
▁ससि	-3986
▁हत्वा	-3987
बुध	-3988
मवि	-3989
▁मण	-3990
ामेव	-3991
▁बलं	-3992
▁काव्य	-3993
▁बाहु	-3994
▁सत्क	-3995
मायु	-3996
▁भीमसेन	-3997
▁यव	-3998
ष्यसि	-3999
ंसा	-4000
समये	-4001
▁बाह्य	-4002
ायन्ते	-4003
▁जिन	-4004
ङ्गुल	-4005
▁बोधिसत्त्वेन	-4006
ेनापि	-4007
विसुद्ध	-4008
ऽइति	-4009
द्राज	-4010
मासी	-4011
▁संह	-4012
▁स्थित्वा	-4013
▁सम्यग्	-4014
▁तदपि	-4015
नग	-4016
▁नाति	-4017
गताः	-4018
▁कथा	-4019
▁समवाय	-4020
▁सर्वतः	-4021
मुखः	-4022
▁ज्ञाप	-4023
ात्पर्य	-4024
निरोध	-4025
नुमान	-4026
ायो	-4027
ाहार	-4028
▁एको	-4029
सव	-4030
ितान्	-4031
करणे	-4032
सब्दो	-4033
ह्न	-4034
▁अन्न	-4035
▁ददौ	-4036
ोऽस्तु	-4037
धारण	-4038
सत्तम	-4039
▁पुष्	-4040
प्रतिपत्त	-4041
▁पय	-4042
स्थे	-4043
▁समि	-4044
स्रुति	-4045
ैस्तु	-4046
▁अर्ह	-4047
▁व्यङ्ग	-4048
▁उच्च	-4049
▁तान	-4050
पन्ना	-4051
▁भवतः	-4052
▁विसेषः	-4053
ग्नी	-4054
षिद्ध	-4055
कारणम्	-4056
वर्ध	-4057
▁दिवि	-4058
▁गम्यते	-4059
मर्द	-4060
▁हार	-4061
▁स्थूल	-4062
भ्रम	-4063
सृङ्ग	-4064
प्रहाण	-4065
्येण	-4066
त्यां	-4067
स्वी	-4068
सन्	-4069
ुष्व	-4070
▁तैः	-4071
▁अग्र	-4072
मना	-4073
व्रत	-4074
ितुं	-4075
▁महर्ष	-4076
▁मुञ्च	-4077
▁दा	-4078
▁स्रेय	-4079
ैकं	-4080
▁सर्	-4081
▁दग्ध	-4082
▁भक्त्या	-4083
यैव	-4084
▁सर्वेषु	-4085
▁भूयो	-4086
▁सत्रु	-4087
स्थो	-4088
▁ध्य	-4089
▁गृहे	-4090
▁त्वर	-4091
नेऽ	-4092
मेध	-4093
▁तदेवं	-4094
▁द्वाद	-4095
▁चैक	-4096
▁परमाण	-4097
त्वान्न	-4098
▁सप	-4099
▁सरण	-4100
ङ्क्ते	-4101
ानुसार	-4102
▁सारिपुत्र	-4103
म्ऽ	-4104
ीजं	-4105
भेदः	-4106
कारे	-4107
पात्र	-4108
▁नास्त	-4109
ितोऽ	-4110
्याणि	-4111
▁तयोः	-4112
▁पान	-4113
▁निरु	-4114
ध्र	-4115
ब्ज	-4116
त्रय	-4117
स्त्रं	-4118
▁सिख	-4119
मात्मा	-4120
▁महासत्त्वः	-4121
नीयं	-4122
▁विवक्ष	-4123
▁धातु	-4124
ान्ता	-4125
▁त्यक्त्वा	-4126
यां	-4127
▁अन्तः	-4128
▁स्थात	-4129
चुः	-4130
▁स्रव	-4131
कालं	-4132
कृत्वा	-4133
ादीनि	-4134
▁सभ	-4135
▁सञ्	-4136
▁विस्तरेण	-4137
▁नैत	-4138
ध्	-4139
▁स्निग्ध	-4140
▁याम	-4141
ामर्स	-4142
▁दौ	-4143
प्रय	-4144
हारः	-4145
▁त्वयि	-4146
भाषा	-4147
▁विधान	-4148
ातो	-4149
ान्द	-4150
▁खड्	-4151
मुक्तम्	-4152
▁अभ्या	-4153
सब्दस्य	-4154
ण्व	-4155
गामि	-4156
ान्यं	-4157
▁तिर्य	-4158
मुत्त	-4159
गन्त	-4160
▁प्रवेस	-4161
▁ताः	-4162
द्वयं	-4163
▁करुण	-4164
मधि	-4165
िकित्	-4166
ादृस्य	-4167
ृथ	-4168
ीयो	-4169
द्यं	-4170
ित्याह	-4171
▁वंस	-4172
च्यन्ते	-4173
स्त्वया	-4174
▁पूर्वव	-4175
ोऽय	-4176
भिक्ष	-4177
नादि	-4178
▁गते	-4179
▁स्मृतम्	-4180
▁भगवतः	-4181
▁वाक्	-4182
िकीर्त	-4183
▁क्षत्रि	-4184
्युप	-4185
दर्सना	-4186
डि	-4187
माम्	-4188
▁देवः	-4189
ीयन्ते	-4190
ादुप	-4191
कुम्भ	-4192
▁परिण	-4193
▁प्रतीत्य	-4194
▁अद	-4195
म्या	-4196
▁इच्छ	-4197
ान्तरेण	-4198
ान्सर्व	-4199
सस्च	-4200
▁षोडस	-4201
चितं	-4202
भूतः	-4203
दृष्टि	-4204
▁तपः	-4205
साख	-4206
बहि	-4207
▁वित्त	-4208
▁व्यञ्ज	-4209
▁प्रसन्न	-4210
बाल	-4211
बाण	-4212
तिम्	-4213
▁वैद	-4214
▁ङ	-4215
नयो	-4216
माया	-4217
▁पुनरपरं	-4218
▁कुर्वन्ति	-4219
▁तिल	-4220
▁यत्तु	-4221
समाधि	-4222
▁चल	-4223
मानुष	-4224
मत्त	-4225
यज्ञ	-4226
चर्या	-4227
▁निर्ज	-4228
▁पुंस	-4229
▁से	-4230
▁प्रभाव	-4231
ञ्चि	-4232
▁कुतो	-4233
▁स्वामि	-4234
राम	-4235
▁किञ्चि	-4236
नस्च	-4237
▁गाव	-4238
▁विजान	-4239
▁कवि	-4240
ाविध	-4241
▁चक्षुः	-4242
स्तेषां	-4243
▁पुरो	-4244
▁दिन	-4245
▁भगवन्त	-4246
ाच	-4247
ायतन	-4248
▁कृत्स्	-4249
▁पुरुषं	-4250
▁वर्तमान	-4251
▁जुहो	-4252
▁हरिः	-4253
परिग्रह	-4254
▁यन्न	-4255
▁इत्यत	-4256
न्दो	-4257
▁किंचि	-4258
▁प्रकीर्त	-4259
निरूप	-4260
▁भ्रम	-4261
▁महादेव	-4262
▁भिक्षवः	-4263
नामा	-4264
स्रव	-4265
▁भिक्षुण	-4266
ीव्र	-4267
स्थाने	-4268
▁भूयः	-4269
परीक्ष	-4270
ज्ञता	-4271
नेति	-4272
▁कौर	-4273
न्तरे	-4274
▁संस्कृत	-4275
ेत्याह	-4276
▁तुष्ट	-4277
▁मन्यसे	-4278
ोऽह	-4279
ाद्भ	-4280
▁समन्ततः	-4281
दैव	-4282
▁सम्यक्संबोधि	-4283
्यमान	-4284
▁पूर्वोक्त	-4285
वल	-4286
▁परः	-4287
▁चतुर्द	-4288
मासाद्य	-4289
त्रिंस	-4290
▁पुत्रं	-4291
▁निर्वाण	-4292
▁सतं	-4293
जातीय	-4294
▁मृदु	-4295
▁भगवतो	-4296
ेनेति	-4297
द्रो	-4298
्यास्च	-4299
दाग	-4300
साच	-4301
▁गायत्र	-4302
▁सिद्धान्त	-4303
▁निन्द	-4304
▁दिव्यं	-4305
ह्र	-4306
▁एषः	-4307
र्धर्म	-4308
▁विक	-4309
दर्सनं	-4310
ायः	-4311
ुक्त्वा	-4312
▁कमल	-4313
पुं	-4314
मनि	-4315
▁महान्	-4316
▁स्मृत्य	-4317
ैरि	-4318
ैरिव	-4319
देवः	-4320
त्तरां	-4321
क्रमम्	-4322
मात्मानं	-4323
ातन्त्र	-4324
घो	-4325
▁कृत्व	-4326
पाठ	-4327
पद्यत	-4328
▁धर्मि	-4329
विंस	-4330
क्त्र	-4331
कोटि	-4332
▁दधि	-4333
▁फलम्	-4334
▁चतुर्	-4335
▁कच्च	-4336
ब्रुव	-4337
▁पादौ	-4338
ध्याय	-4339
व्यमिति	-4340
▁गोविन्द	-4341
▁चत	-4342
म्भव	-4343
▁सन्न	-4344
रोग	-4345
दर्सनम्	-4346
ग्रहणं	-4347
▁साय	-4348
▁पवित्र	-4349
▁अती	-4350
▁ईस्वर	-4351
▁काष्ठ	-4352
क्षणं	-4353
विक्त	-4354
ुमर्हति	-4355
ॄणां	-4356
क्षत	-4357
न्वय	-4358
स्थः	-4359
्रियं	-4360
वित	-4361
भावना	-4362
▁इमं	-4363
मतः	-4364
▁महाबलः	-4365
रणे	-4366
▁तपसा	-4367
यस्च	-4368
▁भयं	-4369
लक्ष्म	-4370
▁मूर्त	-4371
ंद	-4372
▁व्यप	-4373
▁राज्य	-4374
स्रुत	-4375
मीति	-4376
▁पंच	-4377
रेव	-4378
▁नाद	-4379
▁वैष्ण	-4380
मभिसं	-4381
र्नाम	-4382
पीति	-4383
ान्येव	-4384
▁सर्वसः	-4385
▁प्रजाः	-4386
ुमर्हसि	-4387
िणो	-4388
▁चक्षुर	-4389
ीकृत	-4390
ृष्ण	-4391
र्जन	-4392
लोचन	-4393
▁मन्ये	-4394
▁समाधिः	-4395
▁पुं	-4396
▁ब्रूहि	-4397
कुस	-4398
रत्	-4399
▁द्रौ	-4400
ध्वज	-4401
▁अध्य	-4402
ज्ञानस्य	-4403
▁स्त्र	-4404
कार्यं	-4405
▁प्रजा	-4406
▁विदुः	-4407
▁आप	-4408
म्वि	-4409
संज्ञा	-4410
▁राजानं	-4411
ुरं	-4412
▁नद	-4413
सिद्धिः	-4414
▁भाष्य	-4415
स्तर	-4416
ात्मनो	-4417
गमन	-4418
▁चाप्य	-4419
संख्य	-4420
हेतुः	-4421
सीति	-4422
ेतत्	-4423
त्तिष्ठ	-4424
भिर्य	-4425
त्वेऽपि	-4426
▁अनित्य	-4427
षं	-4428
वति	-4429
न्दर	-4430
▁रति	-4431
▁राक्षस	-4432
▁भवतु	-4433
ज्ञास	-4434
साहस्र	-4435
ग्मु	-4436
▁भुञ्ज	-4437
रुह्य	-4438
ित्वात्	-4439
कारस्य	-4440
ज्या	-4441
विक्र	-4442
धरा	-4443
▁अस्या	-4444
होत्र	-4445
पाणि	-4446
▁पर्या	-4447
▁वाचा	-4448
▁स्युः	-4449
पृच्छ	-4450
▁राजपुत्र	-4451
▁समाप्त	-4452
▁त्र्य	-4453
कान्त	-4454
स्ततो	-4455
▁प्रात	-4456
वत्त्व	-4457
▁लौकिक	-4458
गुप्त	-4459
▁विहित	-4460
▁हय	-4461
माणः	-4462
▁अतोऽ	-4463
▁गतिः	-4464
द्यत	-4465
▁पुनर्व	-4466
▁उत्	-4467
▁कर्मणि	-4468
समापत्त	-4469
ेषाम्	-4470
▁बोध्य	-4471
▁संग्राम	-4472
ृत्या	-4473
▁मेद	-4474
▁प्रयोजनम्	-4475
संव	-4476
गच्छति	-4477
प्रच्छ	-4478
▁स्नात्वा	-4479
लाद	-4480
ेतं	-4481
पाद्य	-4482
▁तज्	-4483
▁भूष	-4484
▁पत्र	-4485
▁दीप्त	-4486
सान्त	-4487
▁वाच्यम्	-4488
▁प्रजान	-4489
▁रात्रौ	-4490
गमेन	-4491
क्रमेण	-4492
ोपरि	-4493
▁सिन्ध	-4494
▁राज्ञो	-4495
ाक	-4496
रोच	-4497
त्तं	-4498
▁काक	-4499
व्याप	-4500
माणे	-4501
▁गम्य	-4502
ास्रव	-4503
▁भावना	-4504
▁तज्ज	-4505
▁भास	-4506
जायते	-4507
▁नराधिप	-4508
▁प्रदक्षिण	-4509
▁प्राध	-4510
▁विधिः	-4511
बलं	-4512
मेतदवोच	-4513
ान्द्र	-4514
▁विहार	-4515
▁केचित्	-4516
याणां	-4517
तीत्यर्थः	-4518
▁तच्छ्रुत्वा	-4519
धिकं	-4520
ानित्य	-4521
▁विन्द	-4522
सोऽ	-4523
माणो	-4524
▁कदाचि	-4525
लोकं	-4526
क्रुद्ध	-4527
▁तस्मान्न	-4528
ृप	-4529
▁मन्त्रि	-4530
▁राज्ञः	-4531
▁प्रत्येकबुद्ध	-4532
▁यान	-4533
▁सुहृ	-4534
ागतः	-4535
▁वीत	-4536
▁हृदयं	-4537
▁क्षान्ति	-4538
▁प्रतिपत्त	-4539
दीर्घ	-4540
धरः	-4541
स्तिष्ठ	-4542
▁नाप	-4543
▁गृह्यते	-4544
▁पर्याय	-4545
ृष्टं	-4546
▁संयुक्त	-4547
▁पूर्वपक्ष	-4548
लिख	-4549
मानन्द	-4550
स्थौ	-4551
द्वाज	-4552
▁गृहीत	-4553
तिष्ठते	-4554
▁द्विजो	-4555
▁प्राक्	-4556
▁धृतराष्ट्र	-4557
ेयुः	-4558
त्तदा	-4559
ावस	-4560
तीर्थ	-4561
▁मास	-4562
यिष्या	-4563
नार	-4564
सतं	-4565
मुपसं	-4566
▁संयु	-4567
दुर्	-4568
▁सुक	-4569
▁सुध	-4570
ाभावात्	-4571
▁ह्रस्व	-4572
वन्त	-4573
▁सित	-4574
त्तमः	-4575
मूर्त	-4576
▁त्रीणि	-4577
▁इय	-4578
▁हीन	-4579
स्थिताः	-4580
▁वृत्र	-4581
दिव	-4582
मिवा	-4583
ादव	-4584
मुनि	-4585
ामहे	-4586
टः	-4587
▁सनात	-4588
▁प्रभव	-4589
▁गम्भीर	-4590
▁यादृ	-4591
▁द्रोण	-4592
▁दृष्टं	-4593
तुल	-4594
ष्टु	-4595
▁स्थानं	-4596
रैः	-4597
▁स्थितम्	-4598
ीह	-4599
समान	-4600
स्लेष	-4601
त्रापि	-4602
▁प्रताप	-4603
▁अल	-4604
ैर्ह	-4605
▁नक्षत्र	-4606
ावरण	-4607
▁विप	-4608
मात्य	-4609
सृज	-4610
ग्रन्थ	-4611
▁तिर	-4612
्विति	-4613
च्छेदः	-4614
ज्ञाने	-4615
▁तासां	-4616
▁स्नान	-4617
ग्धा	-4618
▁धर्मेण	-4619
द्ब्रह्म	-4620
▁ज्ञेय	-4621
ानिव	-4622
▁पते	-4623
▁सूत्रे	-4624
योर्व	-4625
महि	-4626
नुते	-4627
▁स्मृताः	-4628
▁अम	-4629
▁कुप	-4630
मित्या	-4631
वर्ति	-4632
ङ्ख	-4633
विनि	-4634
व्यभिचार	-4635
रम्भ	-4636
▁स्तु	-4637
▁निष्ठ	-4638
मसि	-4639
ाले	-4640
र्धा	-4641
▁माल	-4642
ामः	-4643
ूणां	-4644
मक	-4645
भावस्य	-4646
भोज	-4647
यन्न	-4648
र्गः	-4649
▁नूनं	-4650
समं	-4651
ेस्च	-4652
▁विधिना	-4653
▁दिसि	-4654
पौ	-4655
पाति	-4656
▁इवा	-4657
िकस्य	-4658
▁विषये	-4659
ीरो	-4660
▁नानु	-4661
▁स्रूय	-4662
मात्मनः	-4663
▁प्रियं	-4664
▁वार्त	-4665
नीया	-4666
पुरं	-4667
भूतो	-4668
▁इत्थं	-4669
▁ऋषि	-4670
ादिः	-4671
▁भगवन्तं	-4672
सत्र	-4673
ैर्ज	-4674
▁सून्या	-4675
स्मर	-4676
वादी	-4677
ेनं	-4678
▁चास	-4679
▁तथाच	-4680
▁सिद्धम्	-4681
▁ताल	-4682
न्नाह	-4683
यन्ती	-4684
▁भवता	-4685
ावयव	-4686
▁नियत	-4687
विधा	-4688
ज्झ	-4689
्यन्ते	-4690
गुर	-4691
द्भगव	-4692
▁महासत्त्वेन	-4693
देसः	-4694
▁नाथ	-4695
ोपादान	-4696
▁पुरुषस्य	-4697
▁कति	-4698
▁मर	-4699
च्युत	-4700
▁छि	-4701
▁भगवां	-4702
▁सिरसा	-4703
मन्त्र्य	-4704
ोऽग्नि	-4705
▁परिकीर्त	-4706
म्नि	-4707
▁असौ	-4708
▁सती	-4709
ाद्यु	-4710
भिप्र	-4711
▁प्राच	-4712
मत्	-4713
▁नास्तीति	-4714
▁दिवा	-4715
ुभौ	-4716
▁पृथग्	-4717
▁प्रसङ्ग	-4718
▁भदन्त	-4719
▁अभ	-4720
▁नाम्ना	-4721
प्रतिषेधः	-4722
कुले	-4723
ामिव	-4724
स्तथागत	-4725
न्येन	-4726
▁सृण्व	-4727
▁परस्य	-4728
▁सैल	-4729
▁प्रथमा	-4730
▁महात्म	-4731
िरु	-4732
कारि	-4733
ुष्य	-4734
▁नरक	-4735
स्तप	-4736
सन्ति	-4737
▁जुहु	-4738
▁याज	-4739
▁विविक्त	-4740
तामुपादाय	-4741
▁सत्त्वानां	-4742
पुनः	-4743
गोप	-4744
ैरव	-4745
▁दै	-4746
ोपपत्त	-4747
▁कर्तव्यं	-4748
मोच	-4749
▁प्रस्	-4750
▁कामं	-4751
▁सुस्र	-4752
▁कामा	-4753
महा	-4754
▁उद्य	-4755
▁सम्यग	-4756
त्सर्वं	-4757
▁कारणम्	-4758
▁स्त्रिय	-4759
योनि	-4760
▁पस्यामि	-4761
▁तत्सर्वं	-4762
विकार	-4763
▁सुप्त	-4764
ार्थम्	-4765
▁पित्त	-4766
▁राष्ट्र	-4767
धिष्ठान	-4768
र्चि	-4769
▁नामा	-4770
दास	-4771
▁कुलदु	-4772
▁अनव	-4773
ित्वेन	-4774
▁पाय	-4775
योग्य	-4776
भूमौ	-4777
▁स्वतन्त्र	-4778
विसेषण	-4779
▁घोष	-4780
▁यया	-4781
त्कर्म	-4782
पाः	-4783
स्वरम्	-4784
▁मृत्यु	-4785
▁चान	-4786
त्तत्र	-4787
▁महामु	-4788
▁यस्मिन्	-4789
वृक्ष	-4790
▁सिक्षित	-4791
त्पु	-4792
ाधार	-4793
▁प्रतिषेधः	-4794
हिते	-4795
▁मनसि	-4796
▁संकल्प	-4797
स्कृत्य	-4798
▁देवदेव	-4799
त्पुरुष	-4800
ैतद	-4801
द्विज	-4802
▁लक्षणं	-4803
हीन	-4804
▁जातु	-4805
ोट	-4806
स्वरो	-4807
▁सरीरं	-4808
▁विद्धि	-4809
▁देवस्य	-4810
र्पण	-4811
▁विसेषतः	-4812
▁सर्वेषाम	-4813
▁सम्यक्संबोध	-4814
▁प्रच	-4815
▁कां	-4816
▁धेन	-4817
न्निव	-4818
▁हस्ति	-4819
▁एताव	-4820
▁संभवति	-4821
कामो	-4822
मङ्ग	-4823
▁अर्थः	-4824
▁लोकस्य	-4825
भगव	-4826
ावृ	-4827
न्दि	-4828
र्ता	-4829
▁वरः	-4830
िकानां	-4831
▁वृष्ण	-4832
ोऽति	-4833
ृम्भ	-4834
ितस्च	-4835
▁इमां	-4836
▁गरुड	-4837
ीते	-4838
मग्नि	-4839
भ्यस्च	-4840
धीः	-4841
▁प्रोक्तं	-4842
गमे	-4843
▁परे	-4844
्ति	-4845
▁चाव	-4846
▁चानु	-4847
विध्य	-4848
▁पस्यन्ति	-4849
स्रः	-4850
▁दुर्लभ	-4851
ुरि	-4852
क्षी	-4853
मती	-4854
▁इत्युप	-4855
णव	-4856
याव	-4857
▁एतत्	-4858
लाघ	-4859
▁नगर	-4860
च्छाद	-4861
र्भाव	-4862
क्रो	-4863
▁उत्पाद	-4864
▁प्रतीयते	-4865
भद्र	-4866
परे	-4867
बला	-4868
▁निर्देस	-4869
▁उद्ध	-4870
▁एवम्	-4871
▁भ्रातृ	-4872
▁पुरः	-4873
▁विष्णो	-4874
स्माद	-4875
ुवे	-4876
यमान	-4877
संख्या	-4878
ाग्रह	-4879
तोऽपि	-4880
▁नास्त्य	-4881
न्मे	-4882
▁कोट	-4883
▁तमेव	-4884
ग्नौ	-4885
▁षण्	-4886
▁अध्यात्म	-4887
षट्	-4888
▁जाता	-4889
ीतः	-4890
▁रह	-4891
माणा	-4892
लानि	-4893
▁भूतानां	-4894
▁तदर्थ	-4895
रौ	-4896
▁प्रल	-4897
▁पौरुष	-4898
फला	-4899
▁सक्यं	-4900
▁क्षिप्रं	-4901
▁सरैः	-4902
मै	-4903
▁कस्चिद	-4904
▁असि	-4905
▁मेऽ	-4906
▁तत्किं	-4907
▁सर्वान्	-4908
पन्नं	-4909
न्त्या	-4910
ालङ्कार	-4911
ामृत	-4912
▁पत्नी	-4913
▁स्मित	-4914
णीय	-4915
▁तादृस	-4916
▁लज्ज	-4917
सूदनः	-4918
▁योजन	-4919
पुट	-4920
ीतो	-4921
▁रवि	-4922
▁रोच	-4923
स्यास्य	-4924
ज्जीव	-4925
▁न्या	-4926
▁कर्तुं	-4927
▁बुद्ध्या	-4928
दर्सि	-4929
▁सन्ध	-4930
र्मु	-4931
▁धाव	-4932
▁पयो	-4933
ाविधि	-4934
▁रामः	-4935
्यर्थं	-4936
हाय	-4937
▁हुत	-4938
त्पूर्व	-4939
▁जह	-4940
▁क्षय	-4941
▁योगी	-4942
▁साख	-4943
लिनी	-4944
भिज्ञ	-4945
▁प्रत	-4946
▁स्वस्ति	-4947
▁मल	-4948
रूपि	-4949
▁क्षिति	-4950
स्तद्व	-4951
चक्षते	-4952
ष्ट्या	-4953
▁निरी	-4954
थु	-4955
▁कूट	-4956
▁पारि	-4957
▁नाराय	-4958
्ठ	-4959
नुः	-4960
▁स्तन	-4961
प्या	-4962
▁समुच्च	-4963
▁क्षिप्त	-4964
पय	-4965
▁तुर	-4966
▁नेति	-4967
गन्धर्व	-4968
मुञ्च	-4969
ानुष्ठ	-4970
▁कार्यकारण	-4971
जु	-4972
▁बोधिसत्त्वानां	-4973
नियम	-4974
▁संजय	-4975
ादा	-4976
धु	-4977
िक्र	-4978
त्परि	-4979
▁नृपः	-4980
िकीर्ष	-4981
स्यात्म	-4982
▁खे	-4983
सुद्धि	-4984
ःऽ	-4985
नयः	-4986
▁जीर्ण	-4987
▁प्रविस्य	-4988
कृतो	-4989
नार्थं	-4990
▁अन्ध	-4991
▁विगत	-4992
तल	-4993
▁सौम्य	-4994
ालि	-4995
▁अध्व	-4996
▁प्रणम्य	-4997
▁ली	-4998
बलेन	-4999
▁कृत्य	-5000
धीयते	-5001
हिताः	-5002
ान्यपि	-5003
▁वेण	-5004
▁गताः	-5005
ार्ध	-5006
▁युक्तः	-5007
▁वक्तव्य	-5008
▁व्याप्ति	-5009
ाथ	-5010
ैर्वा	-5011
च्छन्द	-5012
▁ब्रह्मणः	-5013
गोच	-5014
▁वदन्ति	-5015
▁विभक्त	-5016
ाध्व	-5017
▁रौद्र	-5018
▁धर्मे	-5019
▁द्वितीये	-5020
▁ब्रह्मणो	-5021
त्तस्य	-5022
ामित्र	-5023
व्याघ्र	-5024
▁भ्रान्त	-5025
पान	-5026
▁नरो	-5027
▁द्वितीया	-5028
रीर	-5029
कारणं	-5030
स्फुर	-5031
▁मुखं	-5032
▁युद्धे	-5033
▁लोकं	-5034
ानुपपत्त	-5035
ान्यो	-5036
्यायां	-5037
▁स्थितं	-5038
▁सर्वपाप	-5039
▁सम्बन्धः	-5040
▁सानु	-5041
क्रि	-5042
▁सत्त	-5043
▁परिकल्प	-5044
तेव	-5045
▁गौत	-5046
▁नारी	-5047
▁समव	-5048
▁प्रसू	-5049
▁भिक्षवो	-5050
मात	-5051
रण्य	-5052
▁महे	-5053
▁निवार	-5054
▁मुनी	-5055
▁निद्र	-5056
ुल्ल	-5057
हन	-5058
वेन	-5059
ुरेव	-5060
ात्मन	-5061
▁कपो	-5062
▁अन्या	-5063
ान्ना	-5064
▁वारि	-5065
तथागत	-5066
▁गृ	-5067
▁स्थाने	-5068
▁परीक्ष	-5069
तीनां	-5070
नीत	-5071
▁परो	-5072
क्रमे	-5073
ैषज्य	-5074
द्भूत	-5075
▁कव	-5076
तामिति	-5077
ितार्थ	-5078
स्यात्	-5079
▁राजान	-5080
ैल	-5081
▁जीवित	-5082
▁जानाति	-5083
द्भुत	-5084
ान्ये	-5085
▁भीष्	-5086
▁चिरं	-5087
▁धर्मस्य	-5088
्याभि	-5089
▁सद्धर्म	-5090
कामः	-5091
▁ध्याय	-5092
दाः	-5093
मुखे	-5094
त्याह	-5095
दिष्ट	-5096
▁कंस	-5097
▁प्रामाण्य	-5098
▁नख	-5099
ह्वा	-5100
▁इदानीं	-5101
▁माह	-5102
संग	-5103
▁याच	-5104
ूड	-5105
पर्यन्त	-5106
▁दृष्ट्व	-5107
मव्य	-5108
ुर्म	-5109
तुल्य	-5110
र्भगव	-5111
करुण	-5112
ानन्तर	-5113
▁पितामह	-5114
निर्ण	-5115
▁स्वार्थ	-5116
ुक्ता	-5117
▁बलव	-5118
वर्च	-5119
िनीम्	-5120
▁नष्ट	-5121
▁सृज	-5122
▁पृथग	-5123
पुत्रो	-5124
ल्म	-5125
कारक	-5126
▁परी	-5127
▁दृस्यन्ते	-5128
पुण्य	-5129
लक्षणा	-5130
▁प्रतिभ	-5131
▁ज्ञायते	-5132
टिक	-5133
ाननु	-5134
▁यन्म	-5135
वयव	-5136
▁त्वद	-5137
▁पूज्य	-5138
म्र	-5139
▁नैक	-5140
▁दक्ष	-5141
ुपस्थान	-5142
▁पाञ्चाल	-5143
भिप्रायः	-5144
▁वस्त	-5145
▁समयेन	-5146
वेष्ट	-5147
नुर	-5148
▁द्यु	-5149
▁राघव	-5150
▁मृद	-5151
▁सोध	-5152
न्त्व	-5153
▁सागर	-5154
▁यथोक्त	-5155
ारद्वतीपुत्र	-5156
चेष्ट	-5157
▁निषेध	-5158
ानर्थ	-5159
ीहि	-5160
दस्य	-5161
ित्त्वा	-5162
मानाः	-5163
पाण	-5164
संसार	-5165
परिहार	-5166
▁प्रयुक्त	-5167
▁तेजो	-5168
▁मर्द	-5169
▁दिव्या	-5170
▁भाज	-5171
प्रभाव	-5172
सतसहस्र	-5173
पन्नो	-5174
मानम्	-5175
ाभ्य	-5176
रास	-5177
▁संख्या	-5178
गाह	-5179
सोध	-5180
ावभास	-5181
थैव	-5182
विवर्ज	-5183
▁रथं	-5184
धर्मि	-5185
▁ब्राह्मणा	-5186
▁द्वितीयं	-5187
क्षणम्	-5188
▁स्वर्ण	-5189
▁युष्मा	-5190
▁किञ्चित्	-5191
ोऽर्थ	-5192
साधारण	-5193
दूष	-5194
ापूर्व	-5195
न्द्रियं	-5196
ीत्यर्थः	-5197
ग्रहे	-5198
▁तद्भ	-5199
ुरः	-5200
स्मरण	-5201
▁तस्मात्स	-5202
▁कथय	-5203
कारिण	-5204
▁सिरो	-5205
▁विद्यु	-5206
▁साग	-5207
▁सर्वतो	-5208
षाय	-5209
▁कुट	-5210
प्रत्ययवेद	-5211
▁द्विधा	-5212
▁यदुक्तं	-5213
हृत	-5214
ात्मकं	-5215
▁साक्य	-5216
मया	-5217
ेतां	-5218
▁धर्माः	-5219
ामर	-5220
्वी	-5221
▁स्थितो	-5222
▁काव	-5223
र्ऽ	-5224
द्गुण	-5225
र्कण्ड	-5226
▁उपलभ्यते	-5227
भिधीयते	-5228
▁गोत्र	-5229
▁अव्य	-5230
त्प्रेक्ष	-5231
कस्च	-5232
▁कथम	-5233
▁पसू	-5234
स्त्रिंस	-5235
र्वै	-5236
्यादौ	-5237
घोर	-5238
स्थिते	-5239
▁स्वेद	-5240
▁स्रुतं	-5241
▁स्रुतिः	-5242
▁चाह	-5243
पूज्य	-5244
मिच्छामि	-5245
▁निष्प	-5246
ेनोप	-5247
▁नृण	-5248
▁लघु	-5249
भ्रान्त	-5250
▁तस्मिं	-5251
सक्य	-5252
▁एता	-5253
▁सब्दो	-5254
▁पदम्	-5255
▁निर्या	-5256
▁प्रज्ञायन्ते	-5257
ज्ञया	-5258
रिक्ष	-5259
▁गुणा	-5260
किर	-5261
ेतो	-5262
▁सून्यता	-5263
▁घन	-5264
कासः	-5265
▁समनु	-5266
द्गत	-5267
द्विष	-5268
ितानां	-5269
प्रतियोग	-5270
सूर्य	-5271
भ्याम्	-5272
▁कृष्णं	-5273
ह्नि	-5274
▁समीप	-5275
▁विहाय	-5276
ज्जन	-5277
विभूष	-5278
▁पथि	-5279
स्स्व	-5280
▁कास	-5281
कूट	-5282
▁तूष्ण	-5283
▁प्रत्यव	-5284
चूर्ण	-5285
ादेर	-5286
▁पदे	-5287
▁दत्तं	-5288
▁नान्यत्र	-5289
मेघ	-5290
▁स्वा	-5291
प्रिया	-5292
ङ्गे	-5293
र्वेद	-5294
▁देसे	-5295
▁युक्तम्	-5296
▁रामो	-5297
च्छन्न	-5298
स्यसि	-5299
▁पथ	-5300
▁लील	-5301
ख्यातं	-5302
▁पस्चात्	-5303
मज	-5304
मिमं	-5305
ावेव	-5306
कामेन	-5307
ेतुं	-5308
मार्य	-5309
मुत्तर	-5310
▁द्रष्टव्यम्	-5311
▁रामं	-5312
योध	-5313
लैः	-5314
ानेव	-5315
समर्थ	-5316
प्रतीति	-5317
▁कस्मात्	-5318
▁वेदितव्या	-5319
▁लक्ष्य	-5320
ाऽ	-5321
ाभिर	-5322
ारु	-5323
प्रामाण्य	-5324
योऽ	-5325
कुलं	-5326
गौ	-5327
ण्या	-5328
ृष्ट्वा	-5329
मस्	-5330
▁सखि	-5331
▁विमुक्त	-5332
मूढ	-5333
म्भः	-5334
▁पप्रच्छ	-5335
वचनं	-5336
ख्यात	-5337
▁पारमित	-5338
ब्रह्	-5339
▁यथास	-5340
योज्य	-5341
चितम्	-5342
परिणाम	-5343
ोच्च	-5344
स्थितं	-5345
▁प्रिये	-5346
▁कथितं	-5347
त्यथा	-5348
▁महाते	-5349
क्तः	-5350
▁उत्पन्न	-5351
▁ब्रूमः	-5352
संत	-5353
▁लोभ	-5354
▁ताम्र	-5355
क्त्व	-5356
▁वयम्	-5357
समवाय	-5358
▁कुत्र	-5359
▁मत	-5360
▁तद्ग	-5361
ुषो	-5362
▁युधि	-5363
▁इत्यु	-5364
ाह्	-5365
यतीति	-5366
▁सार्थ	-5367
▁वीर्यवान्	-5368
▁कम्प	-5369
राजस्य	-5370
सीं	-5371
▁उग्र	-5372
▁तेजसा	-5373
ातं	-5374
योगः	-5375
सब्दा	-5376
▁वादि	-5377
▁गात्र	-5378
▁योष	-5379
क्ष्या	-5380
तार्थ	-5381
ेष्वेव	-5382
▁चेष्ट	-5383
र्ष्ण	-5384
स्फुट	-5385
विंसति	-5386
ोत्पत्त	-5387
ोदर	-5388
मुक्त्वा	-5389
वन्द	-5390
▁मुद्र	-5391
▁प्रयच्छ	-5392
ष्णु	-5393
ोऽभू	-5394
▁नैर	-5395
▁क्वचिद	-5396
▁सर्वाः	-5397
▁प्राप्तं	-5398
गुरु	-5399
▁पुत्रः	-5400
क्षणे	-5401
▁पितरं	-5402
▁कास्यप	-5403
▁साक	-5404
ज्येत	-5405
यित्व	-5406
रिष्ट	-5407
▁कारयेत्	-5408
ृतीय	-5409
ोत्क	-5410
च्छेदक	-5411
▁सिरः	-5412
▁गृहं	-5413
▁यथैव	-5414
ङ्गानि	-5415
▁जित	-5416
स्यानु	-5417
नुवन्ति	-5418
प्राप्ति	-5419
▁पङ्क	-5420
ञ्छारद्वतीपुत्र	-5421
▁सुभू	-5422
त्तद	-5423
पदम्	-5424
धात्व	-5425
▁सिध्य	-5426
रोधि	-5427
▁प्रतिबन्ध	-5428
▁वरा	-5429
स्यार्थ	-5430
▁निध	-5431
ृष्टा	-5432
ज्ञानम्	-5433
▁कथ्यते	-5434
मवाप्	-5435
▁विहरति	-5436
ङ्मुख	-5437
मित्यत	-5438
▁आचार्य	-5439
ोऽयम	-5440
▁प्रजापति	-5441
प्रभृति	-5442
▁किमु	-5443
▁कस्यचित्	-5444
चु	-5445
▁विपा	-5446
भवि	-5447
खिलं	-5448
ावती	-5449
दाप	-5450
मनेन	-5451
▁भूरि	-5452
ितव्यं	-5453
्स	-5454
प्प	-5455
▁सूच	-5456
▁समुदाय	-5457
▁इत्यादिना	-5458
जाप	-5459
▁एकं	-5460
▁विसि	-5461
▁ला	-5462
▁संय	-5463
ान्प	-5464
▁कनक	-5465
देवता	-5466
माप्नोति	-5467
▁यां	-5468
▁महाबाहो	-5469
लां	-5470
वैः	-5471
त्यो	-5472
▁भाति	-5473
स्चन्द्र	-5474
▁प्रेक्ष	-5475
वत	-5476
▁सोण	-5477
▁प्रभा	-5478
▁प्रतिपद्य	-5479
मात्रे	-5480
▁तथाहि	-5481
▁योग्य	-5482
नुभव	-5483
ानभि	-5484
▁मघ	-5485
स्पन्द	-5486
प्रणिहित	-5487
लक्षणः	-5488
▁कला	-5489
▁पस	-5490
फलम्	-5491
▁एकैक	-5492
च्यु	-5493
ध्वनि	-5494
▁मथ	-5495
कपाल	-5496
प्सु	-5497
ीकृत्य	-5498
मिक	-5499
▁हन्ति	-5500
भिर्वि	-5501
▁विवाद	-5502
ीत्	-5503
निवेस	-5504
प्रकृति	-5505
रम	-5506
भुज	-5507
मानां	-5508
▁भगवन्न	-5509
▁सत्त्वं	-5510
▁वनं	-5511
क्रान्तः	-5512
ानाधिकरण	-5513
▁बोधिसत्त्वा	-5514
त्प्रत्य	-5515
जसा	-5516
ेसं	-5517
ग्री	-5518
द्व्य	-5519
▁तावत्	-5520
सरण	-5521
▁एवा	-5522
यिष्य	-5523
▁जनाः	-5524
ान्तरा	-5525
▁विकल्पयिष्यन्ति	-5526
▁परिग्रह	-5527
ऽअ	-5528
ेम	-5529
▁स्वयम	-5530
ृक्ष	-5531
द्भिर	-5532
▁नोपैति	-5533
▁स्वप्ने	-5534
मेवेति	-5535
▁ब्रह्मणा	-5536
थम्	-5537
कमिति	-5538
▁अयम्	-5539
परिवार	-5540
ोपम	-5541
ित्यत	-5542
स्मान्	-5543
▁अविद्या	-5544
वाच्य	-5545
▁उपाय	-5546
▁परिवार	-5547
ैरु	-5548
▁रात्रि	-5549
रुप	-5550
▁धरण	-5551
विद्ध	-5552
▁इत्यनेन	-5553
गमा	-5554
कर्मणि	-5555
▁प्रीत	-5556
▁दृष्टा	-5557
त्थान	-5558
दृसः	-5559
रोति	-5560
ुण्य	-5561
▁सुखदुःख	-5562
▁वैस्य	-5563
▁स्वलक्षण	-5564
मन्द	-5565
▁रेव	-5566
र्गृह	-5567
▁प्रत्येकं	-5568
ुद्धं	-5569
संसर्ग	-5570
मस्व	-5571
▁रोद	-5572
राक्ष	-5573
सद	-5574
मिष	-5575
▁पल	-5576
▁द्रव्या	-5577
▁दो	-5578
▁सद्यः	-5579
सेषं	-5580
▁व्यतिरेक	-5581
▁रुद	-5582
ाभिधान	-5583
▁नाहं	-5584
▁नमोऽस्तु	-5585
▁बिभ	-5586
यार्थ	-5587
▁बिभ्र	-5588
▁नरेन्द्र	-5589
▁नाप्य	-5590
▁ददृ	-5591
▁तन्व	-5592
▁वाजि	-5593
▁द्विविध	-5594
▁है	-5595
▁मत्स्य	-5596
तास	-5597
मतो	-5598
मुद्य	-5599
तिस	-5600
ितुम्	-5601
त्यर्थ	-5602
कामा	-5603
ात्म्यं	-5604
ुषे	-5605
ादिर	-5606
▁सब्दस्य	-5607
ज्यं	-5608
सारद्य	-5609
ण्ण	-5610
स्तस्या	-5611
ात्क	-5612
योस्च	-5613
▁क्रमात्	-5614
▁आन	-5615
बुध्य	-5616
वीर्य	-5617
▁मञ्जु	-5618
कृष्य	-5619
▁प्रदीप	-5620
▁ग्राह्य	-5621
▁तत्त्वं	-5622
▁तद्रूप	-5623
नाभि	-5624
▁सुवि	-5625
▁रस्मि	-5626
▁विहर	-5627
▁दुर्म	-5628
▁वक्ष्यति	-5629
ञ्चन	-5630
क्तो	-5631
भ्यास	-5632
व्यानि	-5633
▁सात्य	-5634
▁येऽ	-5635
▁मत्वा	-5636
क्षणः	-5637
▁भरतर्षभ	-5638
मूर्ध	-5639
▁आत्मानं	-5640
र्दूल	-5641
▁बिम्ब	-5642
ैषां	-5643
▁द्रु	-5644
धिं	-5645
नीष	-5646
▁कै	-5647
▁सोच	-5648
बोधिसत्त्वो	-5649
▁किंचित्	-5650
▁महेन्द्र	-5651
गम्	-5652
ल्क	-5653
निषेध	-5654
▁विस्तरः	-5655
▁प्रोक्ता	-5656
▁ब्रह्मचार	-5657
संवेद	-5658
▁स्वाभाव	-5659
▁तद्यथापि	-5660
नोद	-5661
▁प्रवक्ष्यामि	-5662
▁यसो	-5663
भावाद	-5664
मुच्च	-5665
▁वक्ष्यामि	-5666
न्तौ	-5667
स्यन्ते	-5668
▁विमोक्ष	-5669
▁भेदः	-5670
▁कुर्य	-5671
▁व्यस	-5672
क्षिणः	-5673
▁अर	-5674
▁कम	-5675
लोल	-5676
पदेन	-5677
ङ्क्ष	-5678
स्तम	-5679
▁सूल	-5680
प्रथ	-5681
▁वैदेह	-5682
ावा	-5683
दीप्त	-5684
ासिनी	-5685
न्निति	-5686
परम्	-5687
र्जित	-5688
▁पुण्ड	-5689
▁विराज	-5690
िकया	-5691
▁मन्म	-5692
▁विमान	-5693
▁धाम	-5694
▁सुतः	-5695
त्पद्यते	-5696
▁क्रतु	-5697
▁दीक्ष	-5698
पृष्ठ	-5699
▁षष्ठी	-5700
सुत	-5701
विज्ञानं	-5702
▁रत्	-5703
ानन्तरं	-5704
▁सुग्रीव	-5705
ोभ	-5706
▁कठ	-5707
▁संप्राप्त	-5708
केषु	-5709
कारा	-5710
▁माम्	-5711
▁किञ्चिद	-5712
ितृ	-5713
ाधिकार	-5714
प्रत्या	-5715
▁स्मृता	-5716
प्रतिबन्ध	-5717
▁विवाह	-5718
▁तृतीया	-5719
▁ब्राह्मणो	-5720
▁दाह	-5721
प्यते	-5722
▁कालः	-5723
▁स्पष्टम्	-5724
रत	-5725
युक्तम्	-5726
ङ्गिर	-5727
विषया	-5728
ेत्या	-5729
▁दुर्व	-5730
भरण	-5731
▁अमृत	-5732
▁नर्म	-5733
▁सीघ्रं	-5734
▁नौ	-5735
बाहु	-5736
▁सखी	-5737
▁लोकेषु	-5738
षेक	-5739
ख्यानम्	-5740
भवं	-5741
तिसय	-5742
▁कुसलमूल	-5743
सर्प	-5744
स्तत्	-5745
▁योजयति	-5746
द्गल	-5747
ामनु	-5748
त्थाप	-5749
स्याव	-5750
स्वरे	-5751
▁प्रत्यक्षं	-5752
भावन	-5753
ादर्स	-5754
▁चतुः	-5755
▁असिद्ध	-5756
व्यञ्ज	-5757
▁स्वातन्त्र	-5758
मासु	-5759
द्दिस्य	-5760
▁सब्देन	-5761
▁सर्वधर्मा	-5762
परः	-5763
क्रियते	-5764
्यया	-5765
▁एकः	-5766
ासने	-5767
मास्रित्य	-5768
समय	-5769
विषये	-5770
▁यूयं	-5771
पारमितायां	-5772
टक	-5773
▁तर्प	-5774
▁पक्षे	-5775
ेद्व	-5776
विषयं	-5777
▁विपरीत	-5778
म्ल	-5779
ीक्ष्	-5780
मयः	-5781
वाद्य	-5782
▁वृद्धि	-5783
रूपो	-5784
ुपास	-5785
ामृ	-5786
ात्य	-5787
संवाद	-5788
▁जुहोति	-5789
ात्स्व	-5790
▁द्वन्द्व	-5791
स्चक्र	-5792
▁एतच्च	-5793
मसं	-5794
कारी	-5795
क्षीर	-5796
हते	-5797
करम्	-5798
ापं	-5799
▁संब	-5800
लिप्त	-5801
सन्न	-5802
▁विधाय	-5803
दू	-5804
ास्ति	-5805
▁एषां	-5806
विमोक्ष	-5807
▁बुद्धा	-5808
क्षाल	-5809
क्रीड	-5810
कन्या	-5811
यितव्या	-5812
▁वक्त्र	-5813
ुज	-5814
▁महात्मना	-5815
▁मत्	-5816
▁स्पष्ट	-5817
▁तर्क	-5818
ैन	-5819
पुंस	-5820
▁द्वय	-5821
▁सचे	-5822
▁व्याचष्टे	-5823
▁सर्वबुद्ध	-5824
ृतौ	-5825
▁युध्य	-5826
▁कुर्वीत	-5827
▁गच्छन्ति	-5828
▁विभाषा	-5829
गौर	-5830
ज्व	-5831
▁कन्य	-5832
▁नमस्ते	-5833
▁पूजा	-5834
▁चूर्ण	-5835
करा	-5836
▁गुणाः	-5837
करि	-5838
त्याः	-5839
▁क्रमा	-5840
▁दर्सनं	-5841
धेन	-5842
▁धर्मात्मा	-5843
घु	-5844
▁सीता	-5845
▁त्रिविध	-5846
ौप	-5847
चने	-5848
ुरो	-5849
प्रव	-5850
म्वा	-5851
▁पस्या	-5852
▁अधिक	-5853
▁जातः	-5854
ासय	-5855
▁तमो	-5856
▁रज्ज	-5857
▁परमेस्वर	-5858
▁गीत	-5859
▁सोप	-5860
▁तीव्र	-5861
▁महामते	-5862
विन	-5863
▁सरस्वती	-5864
ातृ	-5865
▁कोटि	-5866
▁प्राज	-5867
▁हेत्व	-5868
रूपः	-5869
▁सार्ध	-5870
▁सहस्रसः	-5871
ारोप	-5872
तये	-5873
▁ठ	-5874
ादो	-5875
ादित	-5876
▁स्थिताः	-5877
▁जनः	-5878
▁विसेषेण	-5879
ात्मज	-5880
न्र	-5881
न्द्रियः	-5882
मद्य	-5883
▁विभो	-5884
द्यन्ते	-5885
मिका	-5886
▁सम्भवति	-5887
क्ष्	-5888
▁रोष	-5889
स्तार	-5890
ोत्तम	-5891
कर्तव्य	-5892
▁मी	-5893
▁लभ्यते	-5894
▁नाध	-5895
प्रयोजन	-5896
वात	-5897
ान्र	-5898
▁वृन्द	-5899
▁विदित्वा	-5900
न्मत्त	-5901
ासे	-5902
▁यच्छ	-5903
स्त्वा	-5904
▁परेण	-5905
येत	-5906
▁पूर्ववत्	-5907
त्युप	-5908
▁स्तम्भ	-5909
▁सब्दार्थ	-5910
न्यते	-5911
▁तप्त	-5912
▁दारुण	-5913
स्त्विति	-5914
▁क्षुद्र	-5915
▁अमु	-5916
▁द्विष	-5917
ात्सर्व	-5918
▁चक्षुषा	-5919
▁वक्ष्यमाण	-5920
▁कस्यचिद्वि	-5921
ोभय	-5922
मुखा	-5923
द्यथा	-5924
स्मान्न	-5925
▁दृष्टः	-5926
ादः	-5927
वज्र	-5928
▁चातु	-5929
▁मधुसूदनः	-5930
▁वैराग	-5931
त्तरं	-5932
▁साध्या	-5933
▁दक्षिणा	-5934
हितम्	-5935
▁प्रतीति	-5936
चौ	-5937
र्च्य	-5938
▁बह्व	-5939
प्रकरण	-5940
▁प्रसीद	-5941
ान्यथा	-5942
गृह्णाति	-5943
▁अस्मिन्	-5944
▁धर	-5945
तस्तु	-5946
पुन	-5947
▁प्रज्ञायते	-5948
पं	-5949
▁कफ	-5950
मध्या	-5951
ानीं	-5952
घन	-5953
त्वात	-5954
माण्ड	-5955
द्यमान	-5956
ामो	-5957
कासे	-5958
यितुम्	-5959
▁चैवं	-5960
वृत्तिः	-5961
ात्तु	-5962
▁जघान	-5963
ैस्तथा	-5964
ानुपपत्तेः	-5965
▁पदा	-5966
▁प्रम	-5967
▁निर्भ	-5968
िवी	-5969
▁कृति	-5970
▁चन्द	-5971
▁युक्ता	-5972
तिराह	-5973
▁व्यास	-5974
पात्य	-5975
▁भृत्य	-5976
▁सार्व	-5977
रिद्र	-5978
ानुवाच	-5979
▁हृदये	-5980
वंस	-5981
▁विरा	-5982
द्वह	-5983
▁दाय	-5984
न्यास	-5985
तिष्ठति	-5986
प्रपञ्च	-5987
ार्थो	-5988
▁दिसः	-5989
▁भुक्त्वा	-5990
▁तयोर	-5991
▁प्रकल्प	-5992
ानन	-5993
ारोह	-5994
गात्र	-5995
मेऽ	-5996
▁कर्ष	-5997
▁वेदान्त	-5998
ूक	-5999
र्देव	-6000
▁सुभे	-6001
▁तथेति	-6002
▁वैस्वान	-6003
प्रतिपक्ष	-6004
▁ताड	-6005
न्द्रो	-6006
▁वक्तुं	-6007
▁जाग्र	-6008
▁मुमु	-6009
▁मण्डल	-6010
परिमाण	-6011
द्राक्ष	-6012
समुत्पाद	-6013
यमपि	-6014
ैर्नि	-6015
▁निस	-6016
ालो	-6017
▁वर्ग	-6018
ोरु	-6019
▁यौव	-6020
▁मुनिः	-6021
▁इती	-6022
▁इमा	-6023
ैस्वर्य	-6024
▁धर्माणां	-6025
ोदक	-6026
▁हिंस	-6027
सम्यक्	-6028
▁द्विजाः	-6029
पद्	-6030
▁पक्व	-6031
गुह	-6032
ादं	-6033
▁द्वितीयः	-6034
वत्त	-6035
▁त्रैलोक्य	-6036
मानु	-6037
▁संर	-6038
स्चे	-6039
▁कपाल	-6040
गाय	-6041
दपि	-6042
▁अभू	-6043
▁साद	-6044
▁मिस्र	-6045
▁इत्यादौ	-6046
ान्यत्र	-6047
▁निरस्त	-6048
ावत	-6049
▁भोः	-6050
▁बत	-6051
▁उपास	-6052
ाधन	-6053
ूत्र	-6054
स्चर्य	-6055
▁किमर्थं	-6056
▁सिक्षते	-6057
दारुण	-6058
▁विस्वे	-6059
▁कर्तव्यम्	-6060
ानामा	-6061
विवेक	-6062
▁अथो	-6063
▁स्याद्	-6064
न्नर	-6065
▁गुणः	-6066
निमित्तं	-6067
▁प्रदर्स	-6068
ाणी	-6069
धातुः	-6070
▁बान्ध	-6071
कुला	-6072
▁ऊचुः	-6073
▁विमल	-6074
ितत्वात्	-6075
▁कस्यचिद्विगमेन	-6076
▁कालो	-6077
▁गुप्त	-6078
वदिति	-6079
▁ब्रवी	-6080
▁निर्गुण	-6081
▁ऋत	-6082
र्ह्य	-6083
▁संदेह	-6084
ब्रू	-6085
यर्थ	-6086
▁गुड	-6087
▁सतां	-6088
वस्त्र	-6089
▁पृथिव्या	-6090
ौति	-6091
▁सस्व	-6092
▁स्रोतु	-6093
▁कुले	-6094
स्थाप्य	-6095
निर्मुक्त	-6096
▁पाट	-6097
न्तम्	-6098
ीयमान	-6099
▁संवृ	-6100
▁एतदेव	-6101
▁सुभ्र	-6102
▁जगत	-6103
त्वाव	-6104
▁भार्ग	-6105
▁सात्त्व	-6106
िरं	-6107
ात्मजः	-6108
ेऽथ	-6109
▁भद्रं	-6110
ग्रं	-6111
ायास्च	-6112
ाविद्या	-6113
िराज	-6114
ाग्ने	-6115
मास्थाय	-6116
दित्य	-6117
विधिः	-6118
संयुक्तं	-6119
ोदय	-6120
ागतं	-6121
▁ताद	-6122
▁त्रिषु	-6123
▁कदाचित्	-6124
प्रतिपत्ति	-6125
पतिः	-6126
▁मन्व	-6127
▁लव	-6128
मित्येव	-6129
▁लक्ष्मण	-6130
क्षये	-6131
प्रवृत्ति	-6132
▁कर्तव्यः	-6133
ान्यु	-6134
▁विस्वा	-6135
ापेक्षया	-6136
▁अंस	-6137
▁प्रमाद	-6138
षाण	-6139
ुपरि	-6140
▁सज्ज	-6141
▁हेतो	-6142
ध्यात्	-6143
ान्धार	-6144
▁पर्यव	-6145
▁अत्य	-6146
ञ्चित्	-6147
▁क्षीण	-6148
▁द्विजः	-6149
▁व्यवस्थाप	-6150
ेष्य	-6151
▁करिष्यति	-6152
▁सदस	-6153
▁व्याधि	-6154
स्ती	-6155
ोपलभ्यते	-6156
▁रूढ	-6157
भम्	-6158
भागे	-6159
मुद्ध	-6160
▁स्वरूपं	-6161
जयः	-6162
ज्ञेय	-6163
▁घोरं	-6164
▁दिसो	-6165
ाहु	-6166
विदो	-6167
▁अलं	-6168
▁यन्त्र	-6169
▁स्वभावः	-6170
▁अस्	-6171
▁त्वि	-6172
रात्	-6173
▁एवमुक्त्वा	-6174
रूप्य	-6175
ामिनी	-6176
ासुख	-6177
▁निर्ध	-6178
सञ्ज्ञा	-6179
ज्ञं	-6180
भिर्न	-6181
ूथ	-6182
ङ्का	-6183
▁पाक	-6184
▁स्वर्गं	-6185
दानेन	-6186
▁परतः	-6187
▁सहस्रं	-6188
▁व्रजेत्	-6189
ल्लव	-6190
▁पितुः	-6191
▁परिनिर्व	-6192
ाला	-6193
▁महासत्त्वो	-6194
ग्राह्य	-6195
मप्र	-6196
▁मतिः	-6197
यन्त्य	-6198
▁निर्विकल्प	-6199
हनि	-6200
▁तमा	-6201
▁क्षिप	-6202
▁केत	-6203
क्षया	-6204
न्तीं	-6205
▁खड्ग	-6206
ज्ञानेन	-6207
▁संविद्यते	-6208
मयो	-6209
चरित	-6210
मुदाह	-6211
ृत्वा	-6212
द्वितीय	-6213
▁नृत्य	-6214
पार्स्व	-6215
ुदाह	-6216
र्धासून्य	-6217
प्रत्ययः	-6218
▁स्थातव्य	-6219
ण्म	-6220
मात्मान	-6221
▁लक्षणम्	-6222
▁प्रतिपक्ष	-6223
दृसो	-6224
ाचार	-6225
▁कूप	-6226
ानिमित्त	-6227
▁द्वै	-6228
▁स्थि	-6229
▁नराः	-6230
▁विजय	-6231
मिथ्या	-6232
दिस्यते	-6233
▁सहस्राणि	-6234
ाच्छ	-6235
▁भोजन	-6236
▁सुता	-6237
▁स्येन	-6238
देसो	-6239
▁सब्दा	-6240
ान्तरम्	-6241
▁मुक्ति	-6242
त्तरायां	-6243
▁व्याघ्र	-6244
▁सङ्कल्प	-6245
▁दर्प	-6246
▁धर्म्	-6247
रणम्	-6248
▁हिमव	-6249
▁धृष्ट	-6250
▁कृष्णः	-6251
▁युष्म	-6252
▁संसर्ग	-6253
▁चारु	-6254
▁कर्मण	-6255
▁ज्ञेया	-6256
सम्भ	-6257
▁गौतम	-6258
▁स्मृत्युपस्थान	-6259
येत्स	-6260
▁सुकृत	-6261
नीयः	-6262
▁द्रव	-6263
ानुग्रह	-6264
▁लिङ्गं	-6265
पतिं	-6266
▁समय	-6267
▁खर	-6268
मता	-6269
िकायां	-6270
▁यथोक्तं	-6271
नैव	-6272
▁वाग्	-6273
ान्युप	-6274
▁सुखम्	-6275
▁परां	-6276
▁पृथिवीं	-6277
▁मत्स	-6278
▁स्थिते	-6279
ोक्ता	-6280
▁ओष	-6281
▁दं	-6282
▁हल	-6283
▁सुहृद	-6284
ाली	-6285
▁बहुधा	-6286
रज	-6287
भेदे	-6288
▁सन्देह	-6289
घ्नं	-6290
▁अत्राह	-6291
नान	-6292
ाभरण	-6293
▁मरी	-6294
▁गण्ड	-6295
प्रत्येक	-6296
▁पुनरपि	-6297
▁सिद्धे	-6298
▁तेऽपि	-6299
▁पुनस्च	-6300
▁वाक्यार्थ	-6301
ऽऽ	-6302
्याप	-6303
स्तेऽ	-6304
▁पुनरेव	-6305
▁विग्रह	-6306
▁किय	-6307
महास	-6308
ादन्य	-6309
▁ध्वज	-6310
▁सर्व्व	-6311
नन्दन	-6312
ग्राहक	-6313
वध	-6314
ोत्	-6315
िरित्य	-6316
▁रामस्य	-6317
▁प्रतिभास	-6318
लोभ	-6319
▁विंस	-6320
▁संस्	-6321
चित्तं	-6322
धुना	-6323
ान्सु	-6324
रूपस्य	-6325
▁रसः	-6326
प्रास	-6327
संप्र	-6328
ादन	-6329
क्रमं	-6330
▁लोकः	-6331
▁सदेव	-6332
▁उक्तः	-6333
पदिक	-6334
▁सरो	-6335
▁धर्मराज	-6336
ग्ना	-6337
▁उत्क	-6338
▁तस्यापि	-6339
व्यतिरिक्त	-6340
▁त्वय	-6341
▁स्रिय	-6342
वेष	-6343
▁तल्	-6344
▁सुगत	-6345
▁जग्राह	-6346
व्याध	-6347
▁स्पृह	-6348
▁पृच्छति	-6349
▁लक्ष्यते	-6350
जीवि	-6351
निन्द	-6352
▁जम्ब	-6353
▁पुरं	-6354
हरि	-6355
▁भूतं	-6356
नील	-6357
▁मनस	-6358
▁जन्त	-6359
▁बहवो	-6360
स्थितो	-6361
भवेत्	-6362
▁मार्कण्ड	-6363
र्णव	-6364
▁गृह्णाति	-6365
मेति	-6366
▁समन्वाग	-6367
भेदो	-6368
ास्त्र	-6369
▁ताभ्यां	-6370
ावतार	-6371
णाः	-6372
मावाह	-6373
▁सनैः	-6374
ानम्	-6375
भिर्म	-6376
ाग्रे	-6377
▁रम्य	-6378
गणा	-6379
समुद्र	-6380
ञ्जर	-6381
त्पन्नं	-6382
▁पार्व	-6383
▁मध्या	-6384
गमः	-6385
▁समुद	-6386
▁यस्मि	-6387
▁प्रतिपद्यते	-6388
त्कि	-6389
गोत्र	-6390
▁नैष	-6391
▁पोष	-6392
▁निसि	-6393
सहस्रं	-6394
▁एवमेत	-6395
▁ग्रहणं	-6396
▁इत्याद	-6397
प्रतिभास	-6398
▁प्रोवाच	-6399
▁स्रुत्व	-6400
ाह्व	-6401
कत्वे	-6402
▁भविष	-6403
प्रभृत	-6404
िनं	-6405
धाति	-6406
▁ग्ल	-6407
रूढ	-6408
▁क्लि	-6409
▁अध्या	-6410
▁कर्तु	-6411
▁पिताम	-6412
▁साधारण	-6413
▁पीठ	-6414
डी	-6415
णाय	-6416
▁कन्द	-6417
▁गवां	-6418
िरा	-6419
ित्वे	-6420
्तराष्ट्र	-6421
दल	-6422
चेतन	-6423
येद्	-6424
कुलम्	-6425
्यमिति	-6426
त्पल	-6427
▁सिल	-6428
च्छया	-6429
▁जगाद	-6430
▁स्रम	-6431
युक्ता	-6432
वर्त्त	-6433
ानुपूर्व	-6434
▁प्रजापतिः	-6435
ौज	-6436
ासर	-6437
▁गतिं	-6438
ख्याता	-6439
▁ज्वाल	-6440
▁वीर्यं	-6441
युक्तः	-6442
मुखो	-6443
काण्ड	-6444
द्रुम	-6445
▁सर्पि	-6446
ापर्य	-6447
▁क्षान्त	-6448
▁दक्षिणे	-6449
▁पृथिव्यां	-6450
चिता	-6451
सारि	-6452
दीव	-6453
विदः	-6454
्येव	-6455
▁वानर	-6456
स्रित्य	-6457
▁युद्धं	-6458
▁वल	-6459
तर्क	-6460
▁ज्व	-6461
पर्याय	-6462
▁त्रिंस	-6463
तमा	-6464
▁जी	-6465
ानामि	-6466
▁धात्र	-6467
▁स्वेन	-6468
▁ज्ञानस्य	-6469
▁संवृत्त	-6470
▁स्त्रियः	-6471
पदस्य	-6472
चना	-6473
स्वं	-6474
▁मूर्ति	-6475
पत्नी	-6476
भूतस्य	-6477
▁सिद्धं	-6478
▁तीक्ष्ण	-6479
▁मैत्रेय	-6480
ूनाम	-6481
साधार	-6482
स्मृत्य	-6483
▁परिसुद्ध	-6484
सस्त्र	-6485
▁बन्धु	-6486
नुष्ठ	-6487
कास्य	-6488
▁ह्या	-6489
नोप	-6490
स्तक	-6491
ानाय	-6492
दृष्ट्वा	-6493
मिर	-6494
ावरुण	-6495
▁तदभाव	-6496
ख्येय	-6497
ग्रहणे	-6498
▁नाह	-6499
त्तथा	-6500
स्मिन्नेव	-6501
सोः	-6502
▁ताम्	-6503
▁पञ्चम	-6504
▁देवपुत्र	-6505
द्धा	-6506
▁वणि	-6507
▁सान्ति	-6508
▁द्रष्टुं	-6509
ब्धा	-6510
प्रवि	-6511
▁जीवति	-6512
▁इदान	-6513
▁मूलं	-6514
▁वृथा	-6515
▁सुसं	-6516
▁कुसुम	-6517
ान्तस्य	-6518
▁ज्ञानेन	-6519
िणि	-6520
वेग	-6521
्वे	-6522
दृसी	-6523
▁निप	-6524
▁संयुगे	-6525
▁क्त	-6526
सिष्य	-6527
▁स्वी	-6528
भवा	-6529
▁वध्य	-6530
▁त्याग	-6531
▁स्वल्प	-6532
रपि	-6533
याम्य	-6534
संहार	-6535
▁क्रूर	-6536
▁बुद्धक्षेत्र	-6537
▁भे	-6538
सल्य	-6539
▁त्वाम	-6540
▁प्राव	-6541
▁भिक्षव	-6542
▁द्वाभ्यां	-6543
क्थ	-6544
▁निसा	-6545
▁हव	-6546
▁दुहित	-6547
▁स्रद्धा	-6548
▁दानव	-6549
▁भूते	-6550
नाथः	-6551
▁सुभूतिराह	-6552
कोटी	-6553
धेयं	-6554
▁ध्वनि	-6555
▁याज्ञ	-6556
द्वारेण	-6557
गृहे	-6558
हानि	-6559
ानने	-6560
पृथक्	-6561
ारब्ध	-6562
िकर्म	-6563
▁पपात	-6564
ावय	-6565
ितव	-6566
▁दीन	-6567
त्किं	-6568
▁प्राग्	-6569
▁द्रव्यं	-6570
▁परिपूर्ण	-6571
दृढ	-6572
ावन	-6573
▁चेत्य	-6574
▁देवीं	-6575
▁सर्गः	-6576
द्विसेष	-6577
▁स्वात्म	-6578
▁पराज	-6579
▁अद्या	-6580
▁त्वम्	-6581
सुखं	-6582
▁पर्ष	-6583
स्तम्भ	-6584
▁किमपि	-6585
चक	-6586
न्ध्र	-6587
▁सव्य	-6588
▁तस्माद्	-6589
हम	-6590
िनाम्	-6591
▁होवाच	-6592
▁विस्वं	-6593
▁प्रत्ययो	-6594
▁विपाक	-6595
▁पित्रा	-6596
▁वेत्ति	-6597
▁परस्परम्	-6598
▁अं	-6599
ेषूप	-6600
त्तरा	-6601
ोऽभ्य	-6602
ाद्युप	-6603
▁वारुण	-6604
परित्या	-6605
गद	-6606
वाप	-6607
धिपः	-6608
्यैव	-6609
ादानं	-6610
मिष्यते	-6611
व्यपदेस	-6612
ूर्ध्वं	-6613
वय	-6614
▁देव्या	-6615
पाण्ड	-6616
ासंभव	-6617
णौ	-6618
यतः	-6619
मर्थं	-6620
यितुम	-6621
▁विस्वामित्र	-6622
पेद	-6623
▁पन्थ	-6624
भीर	-6625
ेरिति	-6626
▁असुर	-6627
▁वाचं	-6628
दिह	-6629
तास्च	-6630
▁यद्द	-6631
▁पिष्ट	-6632
▁क्षणिक	-6633
ानुपलम्भ	-6634
मारभ	-6635
▁रसो	-6636
ृष्टः	-6637
▁चाभि	-6638
मवोच	-6639
ौरुष	-6640
धातौ	-6641
प्रमा	-6642
कर्तव्यम्	-6643
▁विनय	-6644
▁कुसलं	-6645
रहित	-6646
क्षेत्रं	-6647
माध	-6648
▁धूप	-6649
▁पतिः	-6650
ेक्षते	-6651
▁ऊर्ध्वं	-6652
▁सुषुप्त	-6653
्याम्	-6654
▁द्व्य	-6655
▁पौर्ण	-6656
सूक्ष्म	-6657
▁स्त्रीणां	-6658
▁कलि	-6659
▁सदृस	-6660
▁ज्ञेयं	-6661
गीत	-6662
▁सोष	-6663
स्यान	-6664
▁युधिष्ठिरः	-6665
ासाम	-6666
▁युक्तो	-6667
▁किमर्थ	-6668
वह	-6669
ासनं	-6670
▁प्रकृते	-6671
चेतसः	-6672
ान्यथ	-6673
▁प्रविष्ट	-6674
ाहुः	-6675
▁दिने	-6676
▁अप्रमाण	-6677
क्रमा	-6678
यनं	-6679
षम्	-6680
▁नित	-6681
ग्निं	-6682
गर	-6683
▁चर्म	-6684
निर्वृत्त	-6685
्ना	-6686
गुणा	-6687
िकाम्	-6688
▁हविष	-6689
ज्योति	-6690
रात्रं	-6691
▁सुभम्	-6692
▁वचो	-6693
ज्वाल	-6694
मुखेन	-6695
गैः	-6696
न्वयः	-6697
मग्र	-6698
संसय	-6699
दधाति	-6700
स्याभि	-6701
ादृष्ट	-6702
▁दिक्षु	-6703
▁कतमा	-6704
दर्सने	-6705
णैः	-6706
▁तृप्त	-6707
ङ्गा	-6708
स्ना	-6709
▁अपरि	-6710
प्रतिभ	-6711
▁प्रकृत्य	-6712
▁रोहि	-6713
▁वक्तव्यं	-6714
जना	-6715
ुक्तः	-6716
लक्ष्य	-6717
▁हु	-6718
ैरिति	-6719
▁कतमः	-6720
▁हित्वा	-6721
योगे	-6722
▁जने	-6723
▁रजत	-6724
च्छ्व	-6725
्यन्त	-6726
ोऽभवत्	-6727
▁मुच्यते	-6728
▁प्रजानाति	-6729
परो	-6730
स्तुत	-6731
▁बहुव्री	-6732
▁मेन	-6733
▁धृति	-6734
मारब्ध	-6735
ान्येन	-6736
स्मीति	-6737
▁एतानि	-6738
क्षेत्रे	-6739
▁सिसु	-6740
योगात्	-6741
▁आर्या	-6742
▁सूक्तेन	-6743
▁भुङ्क्ते	-6744
न्नु	-6745
मितं	-6746
गुप	-6747
▁सृङ्गार	-6748
थी	-6749
ायणः	-6750
▁विज्ञाय	-6751
ुण्ठ	-6752
▁जाग	-6753
वेस्य	-6754
▁मतम्	-6755
समाप्त	-6756
▁यथाविधि	-6757
▁एवमुक्ते	-6758
द्व्या	-6759
क्रामति	-6760
जनं	-6761
ूलं	-6762
णात्	-6763
सीर्ष	-6764
▁सुभा	-6765
▁पुष्क	-6766
▁सम्यक्संबोधौ	-6767
▁युयु	-6768
▁जायन्ते	-6769
त्वमा	-6770
र्घोष	-6771
▁वाव	-6772
▁तरुण	-6773
सून्यत	-6774
▁विवेस	-6775
▁प्रदेस	-6776
▁लेख	-6777
▁स्याम	-6778
▁प्रातः	-6779
▁बुद्धिः	-6780
येत्प	-6781
ेतानि	-6782
▁तन्मे	-6783
▁पर्ण	-6784
विग्रह	-6785
▁उत्तम	-6786
▁चान्ये	-6787
▁लक्ष्मी	-6788
ृणु	-6789
दुष्ट	-6790
▁सूत्रं	-6791
▁पुण्डरी	-6792
ेतौ	-6793
च्यत	-6794
▁नित्या	-6795
▁प्रत्यभि	-6796
▁भूत्	-6797
▁सावित्र	-6798
मुपलम्भयोगेन	-6799
ल्ब	-6800
▁गवेष	-6801
बान्ध	-6802
▁जराम	-6803
ष्टादस	-6804
▁कृष्णो	-6805
▁छन्दसि	-6806
ापो	-6807
▁कार्त	-6808
दर्सनेन	-6809
गाम	-6810
थिल	-6811
मणि	-6812
स्रं	-6813
▁विपर	-6814
सक	-6815
▁द्वीप	-6816
कौसल	-6817
र्तु	-6818
▁जातो	-6819
▁सद्यो	-6820
▁श्र	-6821
ादिष्व	-6822
▁क्षमा	-6823
दात	-6824
▁धी	-6825
▁बहिर	-6826
▁बाष्प	-6827
▁इत्युक्तम्	-6828
भर	-6829
सैः	-6830
▁अनाग	-6831
ानुपलब्ध	-6832
▁स्थितिः	-6833
सतानि	-6834
तद	-6835
▁स्यात्स	-6836
▁अन्योन्य	-6837
▁ब्रह्मोवाच	-6838
ैरा	-6839
प्लु	-6840
▁मोद	-6841
▁वक्र	-6842
गतिः	-6843
स्मात्	-6844
▁मात्रा	-6845
ानामु	-6846
मनुष्य	-6847
ोदाहरण	-6848
▁निग्रह	-6849
▁पुरु	-6850
▁धार्मि	-6851
▁धार्तराष्ट्र	-6852
▁भै	-6853
▁मुख्या	-6854
मित्युच्यते	-6855
ज्ञाः	-6856
▁अस्त	-6857
निस्चय	-6858
्थ	-6859
ज्ञप्त	-6860
त्वमुप	-6861
▁महेस्वर	-6862
▁आगच्छ	-6863
▁ऋद्धि	-6864
धर्माणां	-6865
दति	-6866
▁माताप	-6867
▁सुन्द	-6868
स्थितिः	-6869
▁कर्तव्या	-6870
ृग	-6871
गात्	-6872
विप्र	-6873
मन्तरेण	-6874
▁मर्त्य	-6875
मुत्पद्यते	-6876
▁पे	-6877
हर्ष	-6878
ेऽभि	-6879
ापत्ति	-6880
▁जज्ञे	-6881
विक	-6882
भिस्त	-6883
्रियो	-6884
▁दिक्	-6885
कल्पना	-6886
▁जट	-6887
ॢप्त	-6888
▁क्रो	-6889
▁निबोध	-6890
▁बर्हि	-6891
▁वस्त्व	-6892
▁परित्यज्य	-6893
त्रयं	-6894
▁स्मरण	-6895
▁ध्यानं	-6896
ध्वंस	-6897
ीस्वर	-6898
ञ्जल	-6899
र्भेद	-6900
र्यथा	-6901
वित्त	-6902
पुत्रः	-6903
▁पुत्रा	-6904
▁सर्वार्थ	-6905
कुमा	-6906
▁मन्यन्ते	-6907
ाणा	-6908
विपर्य	-6909
परामर्स	-6910
▁चरन्	-6911
नख	-6912
सिव	-6913
ण्डुल	-6914
मनसिक	-6915
▁भृसं	-6916
पद्यन्ते	-6917
मूर्	-6918
▁जगद	-6919
▁तमः	-6920
▁परिप	-6921
ान्तेन	-6922
▁ऽपि	-6923
▁स्वे	-6924
पेक्षया	-6925
यमा	-6926
भाष्य	-6927
▁सैन्य	-6928
▁ततस्ते	-6929
▁स्थविर	-6930
कामं	-6931
जातं	-6932
▁कर्	-6933
माणस्य	-6934
ादिभ्यः	-6935
▁साधर्म	-6936
▁द्यो	-6937
कत्वाद	-6938
▁सोऽयं	-6939
▁प्रत्युप	-6940
ोर्ध्व	-6941
▁विसर्ज	-6942
▁तथागतस्य	-6943
▁परार्थ	-6944
▁प्रकारेण	-6945
भ्यु	-6946
▁तथाप्य	-6947
न्वा	-6948
▁आकार	-6949
▁मूर्ध्नि	-6950
ौढ	-6951
जायत	-6952
भवन्	-6953
▁व्याध	-6954
▁इन्द्रो	-6955
गल	-6956
पुंगव	-6957
स्ताः	-6958
त्वारि	-6959
त्पत्तिः	-6960
ट्त	-6961
यिता	-6962
सुन्द	-6963
▁पितर	-6964
▁ब्राह्मणः	-6965
ेऽनु	-6966
ोपमा	-6967
▁जल्प	-6968
▁प्रस्न	-6969
▁सादृस्य	-6970
विधौ	-6971
▁तीर	-6972
▁उष्ण	-6973
विसेषेण	-6974
हिंस	-6975
▁घात	-6976
तेऽपि	-6977
स्लोक	-6978
▁भुवन	-6979
▁अदृष्ट	-6980
▁कर्मणः	-6981
▁रूपाणि	-6982
क्म	-6983
तरा	-6984
पङ्क	-6985
▁निपात	-6986
भिर्द	-6987
▁परित	-6988
▁स्रीव	-6989
▁राजन्न	-6990
▁तस्माद्य	-6991
▁वसी	-6992
▁वृक	-6993
▁कण्ट	-6994
▁देवे	-6995
▁चतुष्	-6996
मुपादाय	-6997
▁समाचरेत्	-6998
▁कल्याणमित्र	-6999
▁कृतो	-7000
▁पितॄ	-7001
त्प्रसाद	-7002
▁देवेस	-7003
▁भर्ता	-7004
▁व्योम	-7005
▁प्रतिबिम्ब	-7006
▁सर्वाकारज्ञ	-7007
▁चित	-7008
▁भावो	-7009
▁तृष्णा	-7010
▁प्रागेव	-7011
कुण्ड	-7012
▁सस्य	-7013
त्पादो	-7014
▁विसां	-7015
िनौ	-7016
मान्य	-7017
▁मुखे	-7018
▁गूढ	-7019
▁मज्ज	-7020
भूतानि	-7021
मञ्ज	-7022
▁ऽय	-7023
▁उद्	-7024
स्नेह	-7025
▁गतिम्	-7026
▁प्रसार	-7027
▁तात्पर्य	-7028
सीत	-7029
▁जगतः	-7030
ष्टाङ्ग	-7031
▁चतुर्ण	-7032
▁त्वमेव	-7033
▁संप्रति	-7034
दर	-7035
▁जीवितं	-7036
▁व्यङ्ग्य	-7037
जगाम	-7038
▁लला	-7039
ापरे	-7040
नाभाव	-7041
▁हेतुर	-7042
यता	-7043
सर्ज	-7044
▁भ्राता	-7045
▁बोधिसत्त्वः	-7046
र्यो	-7047
वर्तत	-7048
्याद्य	-7049
▁पुनस्त	-7050
ाविर	-7051
▁समाहितः	-7052
ुषं	-7053
▁उष	-7054
मिष्ट	-7055
▁सर्वकाम	-7056
ङ्गो	-7057
र्मे	-7058
मर्हति	-7059
▁नामरूप	-7060
ारूढ	-7061
दम	-7062
ारुण	-7063
ज्ञां	-7064
न्प्र	-7065
▁दर्भ	-7066
गृहं	-7067
▁बिल	-7068
▁युगप	-7069
▁संभाव	-7070
संबुद्ध	-7071
▁स्यान्न	-7072
िने	-7073
▁वैव	-7074
द्राव	-7075
ोऽन्त	-7076
▁विरु	-7077
न्यस्त	-7078
▁विवक्षित	-7079
लम्बन	-7080
त्वान्	-7081
▁माम	-7082
न्नाम	-7083
▁गुरुः	-7084
▁यज्ञं	-7085
न्योन्य	-7086
▁पाण्डु	-7087
धृ	-7088
▁वाञ्छ	-7089
निरुद्ध	-7090
▁पुरुषार्थ	-7091
प्रत्येकबुद्ध	-7092
वाक्	-7093
▁तोय	-7094
न्तेय	-7095
▁अप्रति	-7096
प्रभा	-7097
▁अधर्म	-7098
काव	-7099
वृत	-7100
ाधीन	-7101
▁अस्मि	-7102
▁स्लेष	-7103
▁परिपूर	-7104
▁विपक्ष	-7105
▁व्याप्य	-7106
▁प्रत्युवाच	-7107
▁वां	-7108
दन्ति	-7109
हाराज	-7110
▁सवित	-7111
त्तमाः	-7112
▁बुद्धो	-7113
मेत्य	-7114
ृष्टो	-7115
साक्षात्	-7116
न्द्रियाणां	-7117
सुः	-7118
▁अक	-7119
रन्ति	-7120
ीयात्	-7121
्वाकार	-7122
▁कदाचन	-7123
विविक्त	-7124
स्रुत्य	-7125
▁प्रहाण	-7126
▁सांप्र	-7127
▁त्रिधा	-7128
बृह	-7129
वां	-7130
ारा	-7131
ास्रम	-7132
▁छिन्न	-7133
▁विद्ध	-7134
प्रयत्न	-7135
ज्यत	-7136
▁युगे	-7137
जेन	-7138
मनुप	-7139
साङ्क	-7140
ार्या	-7141
▁समाध	-7142
▁रास	-7143
वर्णं	-7144
र्भि	-7145
▁गतो	-7146
निष्प	-7147
स्रेय	-7148
सद्	-7149
वृतः	-7150
नीयम्	-7151
ेस्य	-7152
▁याः	-7153
▁विधिव	-7154
▁भवितव्यम्	-7155
देसं	-7156
्यनु	-7157
▁सास्र	-7158
ह्लाद	-7159
▁पृथु	-7160
कृताः	-7161
कृच्छ्र	-7162
▁जीवस्य	-7163
▁देवताः	-7164
भवः	-7165
मृग	-7166
कर्मणा	-7167
▁उपसङ्	-7168
▁पूर्वान्त	-7169
कास्च	-7170
स्याम	-7171
▁यस्माद	-7172
ण्यं	-7173
▁पाण	-7174
दुर्ग	-7175
▁अष्टौ	-7176
ैकेन	-7177
मात्रस्य	-7178
धरो	-7179
प्न	-7180
पाट	-7181
▁पुट	-7182
ासक्त	-7183
▁केसव	-7184
च्छं	-7185
न्तां	-7186
विसेषः	-7187
स्थस्य	-7188
▁रूपम्	-7189
▁सर्वतथागत	-7190
ेणिक	-7191
▁कारक	-7192
▁प्रासाद	-7193
▁प्राप्ता	-7194
तैः	-7195
ीभूत	-7196
ात्मकः	-7197
ल्यं	-7198
ञ्जलिः	-7199
▁स्तुव	-7200
क्रमात्	-7201
ापद	-7202
ाहो	-7203
त्तमा	-7204
माल्य	-7205
न्द्रं	-7206
▁मूष	-7207
▁योगः	-7208
क्मि	-7209
ैर्ध	-7210
▁ध्रुवं	-7211
▁ब्राह्मणस्य	-7212
स्त्वां	-7213
▁कीर्ति	-7214
समव	-7215
दुष्	-7216
▁निम	-7217
▁सात	-7218
▁अङ्गु	-7219
▁विभ्र	-7220
कुसलमूल	-7221
मावाहयामि	-7222
ुषि	-7223
द्वादस	-7224
मुक्ता	-7225
▁भवती	-7226
▁नान्यथा	-7227
▁सर्वसत्व	-7228
लता	-7229
▁हव्य	-7230
भूत्वा	-7231
प्रवर्त	-7232
▁यत्त्व	-7233
▁ब्रह्मणि	-7234
दुः	-7235
न्यथ	-7236
राचर	-7237
▁खाद	-7238
▁मङ्गल	-7239
▁यावत्स	-7240
▁सून्यं	-7241
▁परिच्छेदः	-7242
श्व	-7243
▁द्यौ	-7244
▁भगवं	-7245
ेऽस्मिन्	-7246
▁ध्रुवम्	-7247
▁कृत्स्न	-7248
▁पुल	-7249
▁अम्ब	-7250
▁दिवं	-7251
मिच्छति	-7252
▁पुमान्	-7253
▁भ्रू	-7254
▁परिहरति	-7255
ल्बि	-7256
▁मातु	-7257
पदः	-7258
मक्ष	-7259
ादेसः	-7260
▁वर्च	-7261
▁संस्कारा	-7262
▁जातं	-7263
▁प्रथमः	-7264
▁वज	-7265
नर्थ	-7266
▁दसा	-7267
▁विष्णुं	-7268
जां	-7269
लिन	-7270
मस्त	-7271
▁एतत	-7272
वृत्य	-7273
द्वैधी	-7274
ानुरूप	-7275
▁कर्मणां	-7276
याद	-7277
▁गाढ	-7278
प्राप	-7279
ल्या	-7280
न्यतर	-7281
▁देहे	-7282
▁सापि	-7283
ज्ज्वल	-7284
स्रावक	-7285
▁प्रतापवान्	-7286
▁प्रमेय	-7287
▁महात्मा	-7288
▁किरी	-7289
त्त्रि	-7290
मिदम्	-7291
▁भावेन	-7292
ोरग	-7293
दिग्ध	-7294
सते	-7295
▁अनर्थ	-7296
▁भविता	-7297
खे	-7298
▁साब्द	-7299
▁तत्यथा	-7300
परीक्षते	-7301
▁चतुर्दस	-7302
▁प्रद्युम्	-7303
ाज्य	-7304
ेऽति	-7305
▁अर्च	-7306
▁निवर्तते	-7307
▁प्रतियोग	-7308
च्या	-7309
दोषः	-7310
▁नैवं	-7311
▁मह्यं	-7312
▁विध्य	-7313
▁कदाचिद	-7314
्प	-7315
हिं	-7316
ेऽव	-7317
ष्ठे	-7318
व्यङ्ग	-7319
ैका	-7320
▁वीक्ष्य	-7321
▁जार	-7322
▁दाप	-7323
रक्त	-7324
▁जाल	-7325
▁योध	-7326
▁एकस्य	-7327
▁पूजां	-7328
तरो	-7329
सदृस	-7330
प्रे	-7331
रिंद	-7332
▁जले	-7333
▁नीर	-7334
▁भास्व	-7335
▁तत्राह	-7336
िकेन	-7337
मासङ्क	-7338
मारोप	-7339
▁दिग्	-7340
▁स्वत	-7341
▁किमिति	-7342
▁सुपर्ण	-7343
▁महातेजा	-7344
ृद्धि	-7345
कत्वम्	-7346
▁पिसाच	-7347
▁सेषं	-7348
मायां	-7349
▁क्षी	-7350
▁मन्त्रेण	-7351
▁समासाद्य	-7352
▁नीच	-7353
ानामुप	-7354
ैकान्त	-7355
▁तत्तु	-7356
▁मायया	-7357
▁वचनात्	-7358
ोर्व	-7359
दिव्य	-7360
▁षष्ट	-7361
▁हीति	-7362
ान्वितः	-7363
▁यजमान	-7364
ख्यानं	-7365
ात्मने	-7366
▁भिद्यते	-7367
घं	-7368
विरह	-7369
त्रैव	-7370
समी	-7371
मर्स	-7372
ानदीव	-7373
▁विषया	-7374
▁जिह्वा	-7375
▁पयः	-7376
▁पस्चाद	-7377
▁प्रयोगः	-7378
तिरिक्त	-7379
▁तृतीये	-7380
▁कौन्तेय	-7381
▁प्रयोक्त	-7382
हारं	-7383
माहुः	-7384
▁बीजं	-7385
▁स्रिया	-7386
लाव	-7387
ोत्थ	-7388
स्वरा	-7389
▁जानु	-7390
नाया	-7391
र्षे	-7392
▁अग्न	-7393
▁बहिः	-7394
न्तरम्	-7395
▁जुहुयात्	-7396
भिरु	-7397
ीतले	-7398
्येत	-7399
▁वेध	-7400
धर्मः	-7401
▁महाग	-7402
ार्ह	-7403
▁तुष	-7404
हारेण	-7405
▁पुण्या	-7406
▁बद्ध्वा	-7407
चाप	-7408
स्तन	-7409
▁रुधि	-7410
▁विषयः	-7411
ौषध	-7412
▁आस्व	-7413
▁स्थावर	-7414
▁हेतुना	-7415
▁मुक्ता	-7416
▁लब्ध्वा	-7417
▁प्रतिज्ञा	-7418
भृतां	-7419
▁युवा	-7420
▁व्यथ	-7421
▁निरुप	-7422
ास्यामि	-7423
▁मतः	-7424
माणाः	-7425
▁ग्री	-7426
▁सुक्	-7427
▁स्वतः	-7428
ानदीवाल	-7429
▁विंसति	-7430
लाल	-7431
ाभ्र	-7432
▁निरव	-7433
▁मारु	-7434
▁लोका	-7435
ादिरूप	-7436
▁मनसिकर्त	-7437
खलु	-7438
ेऽहं	-7439
▁समृद्ध	-7440
समापत्ति	-7441
▁रू	-7442
चतुष्ट	-7443
यन्नाह	-7444
▁धान्य	-7445
पीत	-7446
ैकदेस	-7447
▁आत्मान	-7448
▁इष्यते	-7449
▁विष्णुः	-7450
नोः	-7451
ातुर	-7452
त्याद	-7453
कर्ण्य	-7454
ारूप्य	-7455
ज्ज्व	-7456
दाचार	-7457
वक्त्र	-7458
स्पृह	-7459
ोपचार	-7460
▁देयं	-7461
▁यदिदं	-7462
▁अप्राप्त	-7463
जित	-7464
पुः	-7465
मयी	-7466
▁बी	-7467
ान्नं	-7468
त्पुत्र	-7469
▁साक्षि	-7470
व्राज	-7471
ातिति	-7472
▁चञ्च	-7473
▁बाला	-7474
▁मन्थ	-7475
▁मरणं	-7476
▁लोको	-7477
वसान	-7478
▁तदव	-7479
प्रमेय	-7480
▁जगन्ना	-7481
▁यावन्न	-7482
पराज	-7483
▁मिल	-7484
▁सुभं	-7485
▁चक्षुर्वि	-7486
▁कोक	-7487
न्मुख	-7488
ासब्द	-7489
सार्दूल	-7490
▁द्वात्रिंस	-7491
▁प्	-7492
▁जलं	-7493
▁अस्र	-7494
सूत्रे	-7495
▁यज्ञस्य	-7496
िनीं	-7497
▁आहो	-7498
प्राप्नोति	-7499
रेऽ	-7500
्ता	-7501
र्चित	-7502
▁कौसल	-7503
ृत्व	-7504
▁लवण	-7505
परमाण	-7506
▁निमित्तं	-7507
▁सतत	-7508
त्याग	-7509
ात्मेति	-7510
▁परिवर्त	-7511
न्याः	-7512
▁वञ्च	-7513
▁गुह्य	-7514
▁पुष्कर	-7515
केण	-7516
प्युप	-7517
द्भक्त	-7518
▁स्रोत	-7519
ेको	-7520
▁महाज	-7521
▁मुदा	-7522
थिः	-7523
भुः	-7524
ूपं	-7525
व्यूह	-7526
त्वाभाव	-7527
▁तृतीयं	-7528
ातः	-7529
नीम्	-7530
▁सन्दि	-7531
नुष	-7532
ड्य	-7533
▁म्	-7534
स्वरी	-7535
▁रामेण	-7536
▁कैक	-7537
▁मूत्र	-7538
परिवर्त	-7539
▁देसकाल	-7540
▁सांख्य	-7541
▁कृष्णस्य	-7542
ोत	-7543
यात्र	-7544
व्यक्ति	-7545
▁सृष्टि	-7546
▁धर्मेषु	-7547
समास	-7548
▁जनक	-7549
▁गृहपति	-7550
▁पुद्गल	-7551
▁किंचिद	-7552
यसि	-7553
▁महाक	-7554
क्लिष्ट	-7555
भिमान	-7556
माणां	-7557
▁युक्ति	-7558
चयति	-7559
ावुप	-7560
विसार	-7561
ोक्ति	-7562
▁मनोर	-7563
▁सिवा	-7564
▁जग्मु	-7565
ानामिति	-7566
▁सङ्कते	-7567
▁करिष्यामि	-7568
मनन्त	-7569
माकास	-7570
ास्रयः	-7571
▁कोऽपि	-7572
▁धर्मार्थ	-7573
ोद्भव	-7574
▁पन्न	-7575
▁संवत्सर	-7576
▁स्रुतम्	-7577
ग्नं	-7578
▁लम्ब	-7579
▁कुर्याद	-7580
वस्त	-7581
ग्वि	-7582
▁भङ्ग	-7583
देवस्य	-7584
▁स्तोत्र	-7585
नै	-7586
निक	-7587
रुह	-7588
▁गगन	-7589
गतस्य	-7590
विस्र	-7591
▁प्रेम	-7592
साग	-7593
▁नयन	-7594
त्यपि	-7595
▁यदेव	-7596
क्ष्यति	-7597
नासं	-7598
भोजन	-7599
सात्	-7600
▁यति	-7601
ितमिति	-7602
▁आग्ने	-7603
▁स्तुति	-7604
▁व्यक्ति	-7605
नियत	-7606
स्पर्	-7607
▁सिवः	-7608
मार्गे	-7609
▁समग्र	-7610
सेषः	-7611
ान्सं	-7612
ेरन्	-7613
यन्ते	-7614
▁काञ्चन	-7615
▁प्राजाप	-7616
न्नपि	-7617
▁सक्तिः	-7618
▁क्रुद्धो	-7619
▁महावीर	-7620
▁प्रत्ययः	-7621
धीन	-7622
चरति	-7623
र्ना	-7624
▁स्वक	-7625
भिरेव	-7626
लोचनः	-7627
▁विलास	-7628
▁साधार	-7629
▁गमन	-7630
▁तस्थौ	-7631
▁वाराण	-7632
▁ब्रह्मचर्य	-7633
लोपः	-7634
त्पुनः	-7635
▁व्रतं	-7636
▁सर्वो	-7637
ोऽर्ह	-7638
▁विषम	-7639
▁सुचिः	-7640
न्यायेन	-7641
मायुष्म	-7642
धर्मं	-7643
रव	-7644
सैव	-7645
त्काल	-7646
▁योऽसौ	-7647
▁अज्ञान	-7648
▁दरिद्र	-7649
▁संक्षेप	-7650
ादीन	-7651
▁उदाह	-7652
▁स्वाध्याय	-7653
गमनं	-7654
ैरभि	-7655
▁सैन्ध	-7656
▁तस्मात्प्र	-7657
क्ष्ण	-7658
नाच्च	-7659
संपन्न	-7660
धात्	-7661
स्वा	-7662
ोपयोग	-7663
▁चेतन	-7664
▁विपुल	-7665
लोह	-7666
सागर	-7667
युज्यते	-7668
▁प्रज्ञापारमितां	-7669
▁विड	-7670
▁वपुः	-7671
▁लुब्ध	-7672
ग्रहणेन	-7673
▁पूर्वेण	-7674
▁गां	-7675
▁हरेः	-7676
द्वयम्	-7677
ात्मकम्	-7678
खण्डे	-7679
▁सल्य	-7680
▁सार्	-7681
त्पन्ना	-7682
▁प्रमाणम्	-7683
ादित्यर्थः	-7684
मावि	-7685
ालम्बन	-7686
▁मुग्ध	-7687
▁विन्ध	-7688
▁संध्या	-7689
▁ग्रहणम्	-7690
▁स्रीधरः	-7691
त्वाय	-7692
यितव्यं	-7693
▁दुर्योधन	-7694
लाम्	-7695
भेदात्	-7696
लिक	-7697
त्यः	-7698
ान्ह	-7699
ानुभाव	-7700
▁प्रकट	-7701
▁लोहित	-7702
ित्ति	-7703
▁सहाय	-7704
▁रुचिर	-7705
▁विप्रति	-7706
नेः	-7707
ान्त्य	-7708
▁जाम्ब	-7709
▁सर्वभूतानां	-7710
▁यमु	-7711
▁संन	-7712
योर्म	-7713
र्भाग	-7714
ंग	-7715
कन्द	-7716
▁यथे	-7717
च्छाय	-7718
स्तात	-7719
▁सुचिर	-7720
▁स्वां	-7721
स्त्येव	-7722
▁सून्यत	-7723
प्राप्तः	-7724
मतं	-7725
बोध्य	-7726
▁नरकं	-7727
▁मुहुर्	-7728
स्तत्त्व	-7729
वच्च	-7730
▁चौर	-7731
नन्तरं	-7732
▁भाण्ड	-7733
▁बलदेवः	-7734
▁नायं	-7735
▁धीमतः	-7736
▁लोकानां	-7737
▁भवतो	-7738
▁आस्रय	-7739
▁सोऽहं	-7740
▁सुद्धं	-7741
▁प्रेत्य	-7742
ेका	-7743
वाहन	-7744
▁गाथ	-7745
▁कोस	-7746
कृत्व	-7747
▁एवमपि	-7748
▁दद्यात्	-7749
नायां	-7750
▁उदात्त	-7751
▁स्नानं	-7752
▁विष्णोः	-7753
▁पै	-7754
दृसा	-7755
स्मद	-7756
▁असु	-7757
▁स्मृत	-7758
▁संग्रामे	-7759
▁मता	-7760
र्तुं	-7761
▁उद्ग	-7762
▁मनसिकार	-7763
ानामेव	-7764
▁निसम्य	-7765
न्मन्त्र	-7766
▁प्रधानं	-7767
यत्न	-7768
▁यतोऽ	-7769
हति	-7770
ोद्	-7771
▁सौर	-7772
िकारण	-7773
▁तुभ्यं	-7774
त्तो	-7775
▁योगेन	-7776
कर्ता	-7777
र्मनस्य	-7778
▁उदाहरण	-7779
▁भविष्यसि	-7780
येयं	-7781
▁जाते	-7782
▁स्वि	-7783
▁कारणेन	-7784
जति	-7785
दिस	-7786
▁सख्य	-7787
न्तस्य	-7788
मभिप्र	-7789
▁परिमाण	-7790
▁वैसारद्य	-7791
महो	-7792
यस्व	-7793
▁चेत्त	-7794
ाभिप्राय	-7795
दां	-7796
▁फल्	-7797
ुक्ति	-7798
▁त्वम	-7799
▁महात	-7800
ुका	-7801
िणाम्	-7802
▁निष्क	-7803
▁पुष्ट	-7804
▁भद्रे	-7805
ब्रुवन्	-7806
▁आच	-7807
ंस्च	-7808
ैर्मह	-7809
▁बलेन	-7810
ूः	-7811
द्योत	-7812
र्पित	-7813
ाधर	-7814
▁सुद्धि	-7815
ादाव	-7816
▁सिष्ट	-7817
▁विस्वनाथः	-7818
कुत्	-7819
ण्डल	-7820
▁पता	-7821
▁द्विर	-7822
ान्प्रति	-7823
कमेव	-7824
ष्ठी	-7825
ापरान्त	-7826
तनु	-7827
▁लोपः	-7828
▁गङ्गा	-7829
यितव्यः	-7830
▁सविता	-7831
ज्यन्ते	-7832
▁प्राप्ति	-7833
ानौ	-7834
सन्द	-7835
▁सकास	-7836
▁केचिद	-7837
▁बहूनि	-7838
▁पूर्वे	-7839
नन्दनः	-7840
▁सर्वम	-7841
▁यत्किं	-7842
▁सर्वैः	-7843
▁विव्याध	-7844
राम्	-7845
रुवाच	-7846
▁वीक्ष	-7847
▁ज्ञाति	-7848
ामय	-7849
▁रसं	-7850
▁जगत्प	-7851
▁तथाविध	-7852
▁प्राकृत	-7853
तमः	-7854
ुतां	-7855
▁सदैव	-7856
▁समये	-7857
▁कृष्णा	-7858
▁सुस्रूष	-7859
▁पूर्वमेव	-7860
पित्त	-7861
प्रदान	-7862
रित	-7863
त्सा	-7864
▁तैल	-7865
चक्रं	-7866
मस्तु	-7867
▁हितं	-7868
▁करोमि	-7869
▁परस्परं	-7870
▁यसः	-7871
▁वसे	-7872
ोपलम्भ	-7873
ोपपत्तेः	-7874
▁अव्यक्त	-7875
▁प्रविवेस	-7876
ाते	-7877
ाम्र	-7878
ृणोति	-7879
▁कानि	-7880
▁योगं	-7881
कोऽ	-7882
दिदं	-7883
▁नतु	-7884
वचनम्	-7885
पत्त्र	-7886
रास्च	-7887
सता	-7888
न्सु	-7889
▁भेष	-7890
ेदिति	-7891
▁उक्तम्	-7892
▁पीत्वा	-7893
▁पुनर्न	-7894
▁एवम्तर्हि	-7895
न्मुक्त	-7896
दूर	-7897
मथा	-7898
▁तदन्य	-7899
वतीं	-7900
ोपास	-7901
दिस्य	-7902
तमं	-7903
न्था	-7904
▁उभे	-7905
ासङ्क	-7906
द्वृत्त	-7907
▁एकान्त	-7908
सलि	-7909
त्सह	-7910
व्ये	-7911
न्द्रियार्थ	-7912
न्तेऽ	-7913
हेतोः	-7914
दुर्लभ	-7915
▁भर्तृ	-7916
▁स्रुत्य	-7917
डाग	-7918
फले	-7919
ान्तु	-7920
▁परिक	-7921
▁विषं	-7922
वीत	-7923
▁सलिल	-7924
▁किम्कारणम्	-7925
▁सुभासु	-7926
हंस	-7927
ाणो	-7928
र्षी	-7929
▁लोचन	-7930
क्त्वा	-7931
याम्	-7932
▁सर्म	-7933
ावेद	-7934
▁बोद्ध	-7935
▁गान्धार	-7936
मनः	-7937
▁सन्तु	-7938
▁ह्येत	-7939
विक्रमः	-7940
स्वरूपं	-7941
ाम्यहम्	-7942
▁तदेक	-7943
▁संवाद	-7944
▁चिकीर्ष	-7945
वनं	-7946
ष्यं	-7947
हङ्कार	-7948
▁नियतं	-7949
▁फलानि	-7950
ानुत्पाद	-7951
वर्ती	-7952
▁जिते	-7953
मावास	-7954
▁स्वाह	-7955
▁क्वापि	-7956
▁प्रभृति	-7957
माणि	-7958
▁सवि	-7959
मनर्थ	-7960
▁विदु	-7961
ुस्त	-7962
▁निषण्	-7963
▁सत्वा	-7964
तीत	-7965
मूलं	-7966
ोक्तः	-7967
▁पाति	-7968
▁भूता	-7969
द्भु	-7970
न्ने	-7971
▁देय	-7972
ासेष	-7973
न्देव	-7974
▁रावण	-7975
त्तरम्	-7976
प्रदीप	-7977
▁तद्वा	-7978
▁आज	-7979
ात्प	-7980
णीमुख	-7981
▁तद्र	-7982
वाक्ये	-7983
▁चक्रं	-7984
▁रुद्ध	-7985
रिष्यति	-7986
▁स्रुतेः	-7987
युतं	-7988
▁समः	-7989
भ्योऽ	-7990
▁तदिद	-7991
▁यातु	-7992
धर्माण	-7993
▁महायान	-7994
▁बला	-7995
र्व्य	-7996
▁निर्य	-7997
▁दर्सनात्	-7998
ाणः	-7999
▁संभ	-8000
▁बुद्धानां	-8001
ेध	-8002
महाप	-8003
▁रिपु	-8004
ोत्तमः	-8005
ीथ	-8006
▁एतं	-8007
कतया	-8008
▁तेजः	-8009
स्चित्र	-8010
▁सास्ता	-8011
ैकान्तिक	-8012
▁तस्मान्	-8013
▁क्षप	-8014
सिद्धये	-8015
▁ज्ञाने	-8016
▁इत्येते	-8017
कान	-8018
▁सद्	-8019
माप्नुयात्	-8020
राव	-8021
▁सुच	-8022
मुपास	-8023
ोपनिष	-8024
स्विनी	-8025
▁चरेत्	-8026
▁विधेय	-8027
▁सरीरे	-8028
▁तीर्थं	-8029
हरं	-8030
▁करणं	-8031
जित्	-8032
लक्षणे	-8033
सद्भाव	-8034
▁चित्रं	-8035
▁सत्त्वाः	-8036
ूच	-8037
ताय	-8038
मृष	-8039
पराध	-8040
निपात	-8041
प्रीति	-8042
स्वर्ग	-8043
▁कोऽ	-8044
▁जनमे	-8045
ीस	-8046
ामुख	-8047
▁जिघ	-8048
ञ्चिद	-8049
स्सर्व	-8050
▁वेदितव्यम्	-8051
यन्तो	-8052
सृष्ट	-8053
▁सर्वमेव	-8054
देवो	-8055
निष्ट	-8056
माद्य	-8057
▁होता	-8058
ज्ञातं	-8059
त्कण्ठ	-8060
▁बोधिस	-8061
▁यद्यप्य	-8062
मत्य	-8063
बिन्द	-8064
▁आप्त	-8065
धर्मेण	-8066
▁गृध्र	-8067
▁सत्येन	-8068
▁कैव	-8069
▁नियोज	-8070
गृहीता	-8071
वात्	-8072
▁तैर	-8073
धातुक	-8074
म्यां	-8075
साम्य	-8076
ाग्नी	-8077
▁तत्त्वतः	-8078
सैन्य	-8079
▁राघवः	-8080
▁प्राणो	-8081
चाल	-8082
संय	-8083
ुराणे	-8084
▁विवर्ज	-8085
▁दिष्ट्या	-8086
यतु	-8087
निरास	-8088
महर्ष	-8089
▁पलाय	-8090
▁सद्य	-8091
विल	-8092
स्तः	-8093
▁कन्यां	-8094
घाति	-8095
प्रमे	-8096
ानुवाद	-8097
ास्चैव	-8098
▁एकादस	-8099
सूर	-8100
ाद्यं	-8101
द्वी	-8102
ाल्प	-8103
▁आपो	-8104
संभवः	-8105
ोपकार	-8106
▁सीलं	-8107
▁वायुः	-8108
ज्ज्ञान	-8109
▁पुत्रस्य	-8110
नेय	-8111
ायन	-8112
माला	-8113
▁चार्थ	-8114
▁जातवेद	-8115
▁विस्रु	-8116
▁जनार्दनः	-8117
▁रौ	-8118
▁तदैव	-8119
ुनर	-8120
ुपद	-8121
हारे	-8122
त्कस्य	-8123
▁अतस्च	-8124
▁साध्व	-8125
ापत्तेः	-8126
कथं	-8127
▁ऽत	-8128
▁हृत	-8129
मस्या	-8130
ोपपाद	-8131
नयन	-8132
ष्ठु	-8133
▁याद	-8134
▁चेतसा	-8135
पल	-8136
स्रीः	-8137
▁इन्द	-8138
▁मासि	-8139
विदां	-8140
प्रमुख	-8141
▁सत्यपि	-8142
▁सिवं	-8143
▁सोमो	-8144
ग्न्या	-8145
▁कल्पना	-8146
▁पञ्चास	-8147
▁सास्त्रं	-8148
पन	-8149
निरा	-8150
भवन्ति	-8151
▁कार्यस्य	-8152
दाम	-8153
पम्	-8154
ुषां	-8155
▁पद्मा	-8156
▁राज्ञां	-8157
▁सङ्ख्या	-8158
▁विद्यमान	-8159
निध	-8160
िणां	-8161
▁चाय	-8162
▁वासना	-8163
▁तिष्ठन्ति	-8164
्रु	-8165
▁जै	-8166
व्यु	-8167
▁षड्वि	-8168
ष्यन्ते	-8169
▁प्रथमे	-8170
ामुपादाय	-8171
▁कल्	-8172
जिह्व	-8173
रुद्र	-8174
▁सञ्च	-8175
▁गार्ह	-8176
▁जरासं	-8177
▁तदिदं	-8178
▁दुर्ज	-8179
▁वृष्ट	-8180
▁अच	-8181
कार्या	-8182
▁ध्यात्वा	-8183
तूह	-8184
▁नाट	-8185
▁वाङ्	-8186
▁प्रक्षाल	-8187
बलो	-8188
लोम	-8189
ानल	-8190
ुताः	-8191
▁रजः	-8192
▁रसे	-8193
सिक्ष	-8194
▁समुद्ध	-8195
▁वर्षाणि	-8196
▁धृष्टद्युम्	-8197
सृण	-8198
स्सु	-8199
▁तदप्य	-8200
सामर्थ्य	-8201
वैर	-8202
▁इम	-8203
गन्धि	-8204
्यायाः	-8205
मभ	-8206
▁पञ्चमी	-8207
रभ्य	-8208
द्वारा	-8209
▁रञ्ज	-8210
क्ष्वा	-8211
्यादिति	-8212
▁ततस्तु	-8213
▁एतदुक्तं	-8214
▁तन्मात्र	-8215
यतो	-8216
याज	-8217
ापी	-8218
त्कथ	-8219
मार्ज	-8220
▁सूर्या	-8221
▁भिक्षुणी	-8222
▁प्रतिपाद्य	-8223
लाष	-8224
▁खं	-8225
ावली	-8226
▁कुतोऽ	-8227
▁यस्त्व	-8228
▁भावाभाव	-8229
वादिनः	-8230
▁किमत्र	-8231
▁चत्वार	-8232
ंसं	-8233
्यौ	-8234
ानाह	-8235
▁अब्रवी	-8236
▁वर्धते	-8237
▁कुलदुहित	-8238
▁आदौ	-8239
▁लाव	-8240
धातुं	-8241
▁जिज्ञास	-8242
▁वसिष्ठः	-8243
▁प्रयच्छति	-8244
▁कप	-8245
पुष्	-8246
सहाय	-8247
ैक्य	-8248
मुहुः	-8249
▁कण्ड	-8250
▁तत्रा	-8251
▁सारीर	-8252
ुर्न	-8253
त्था	-8254
येच्च	-8255
▁प्राणा	-8256
भिल	-8257
योद	-8258
▁चु	-8259
हेतो	-8260
सिद्धम्	-8261
▁सक्त्या	-8262
▁महेस्वरः	-8263
मष्ट	-8264
ाभास	-8265
▁मद्र	-8266
▁मध्यं	-8267
त्वाद्य	-8268
▁बृहस्पति	-8269
धुर	-8270
मन्यथा	-8271
ान्परि	-8272
▁समर्प	-8273
▁सनातनः	-8274
रन्	-8275
पद्म	-8276
▁आवि	-8277
कुन्द	-8278
ुक्तो	-8279
▁लङ्क	-8280
▁तान्य	-8281
क्षणात्	-8282
र्भवेत्	-8283
▁देसयति	-8284
▁प्रायस्चित्तं	-8285
निभ	-8286
वतो	-8287
बीजं	-8288
▁प्रक	-8289
मनित्य	-8290
▁कस्चन	-8291
▁सर्वदेव	-8292
दनु	-8293
क्ते	-8294
▁सुस	-8295
करणम्	-8296
▁उपरि	-8297
▁भवन्त	-8298
ेद्	-8299
ेतुः	-8300
▁जरा	-8301
ेत्यादिना	-8302
ेकः	-8303
जेत्	-8304
र्षं	-8305
▁वनस्प	-8306
▁सुप्र	-8307
त्वाद्व	-8308
▁मार्कण्डेय	-8309
▁प्रमाणान्तर	-8310
ूष्ण	-8311
▁पत्य	-8312
ासम्भव	-8313
▁परमां	-8314
▁संसारे	-8315
▁प्राप्तः	-8316
द्विव	-8317
▁चीवर	-8318
▁पर्ज	-8319
▁सुखी	-8320
▁सत्ता	-8321
▁प्राज्ञ	-8322
गिर	-8323
▁पुरी	-8324
र्व्या	-8325
▁द्वयोः	-8326
वाचि	-8327
द्याः	-8328
▁तपोध	-8329
ास्रया	-8330
▁भिन्ना	-8331
▁इन्द्रः	-8332
▁कुलदुहिता	-8333
चरे	-8334
ेके	-8335
▁मं	-8336
ातुं	-8337
▁सर्वः	-8338
िकु	-8339
▁औप	-8340
वाक्यं	-8341
▁नह	-8342
कादि	-8343
यक्ष	-8344
न्माद	-8345
ाभावे	-8346
▁पिप्प	-8347
सिद्धेः	-8348
▁ब्राह्मणं	-8349
बलः	-8350
मरण	-8351
तायै	-8352
▁गतं	-8353
भाग्य	-8354
णित	-8355
▁नं	-8356
ग्यो	-8357
▁कष्ट	-8358
▁दोषो	-8359
▁तदिति	-8360
प्रतिसंयुक्त	-8361
▁पाच	-8362
▁मुर	-8363
▁दूषण	-8364
संग्रह	-8365
ानपेक्ष	-8366
▁लल	-8367
ित्येव	-8368
तमो	-8369
धूप	-8370
रिह	-8371
स्रम	-8372
सुक्ल	-8373
▁कामः	-8374
▁सिक्षा	-8375
मधिक	-8376
माचरेत्	-8377
▁लोकपाल	-8378
मलं	-8379
िकैः	-8380
रस्मि	-8381
ोपाधि	-8382
मादित्य	-8383
▁कर्मणो	-8384
▁चत्वारो	-8385
▁ब्रह्मैव	-8386
▁द्रष्टव्यः	-8387
▁लाघ	-8388
धर्मो	-8389
त्रयम्	-8390
▁यावद्	-8391
धरं	-8392
▁मुद	-8393
▁आज्य	-8394
▁तस्थ	-8395
निवर्त	-8396
▁गोपाल	-8397
व्यतिरे	-8398
▁पञ्चदस	-8399
▁प्रभूत	-8400
▁भीत	-8401
धानेन	-8402
ाधर्म	-8403
▁पतिं	-8404
कोस	-8405
लिः	-8406
ानस्य	-8407
ुक्ते	-8408
ृथिवी	-8409
▁दिवस	-8410
▁अवस्य	-8411
▁तदन्त	-8412
▁वसन्त	-8413
▁भूतेषु	-8414
व्याप्ति	-8415
नाप	-8416
स्यः	-8417
▁बली	-8418
▁महद	-8419
▁लता	-8420
त्वमपि	-8421
दर्सनाद	-8422
▁हुत्वा	-8423
मानसः	-8424
▁विसाल	-8425
प्रमाणं	-8426
▁रूपस्य	-8427
▁वेदितव्यः	-8428
धम्	-8429
गतेन	-8430
▁यजेत	-8431
▁यद्वि	-8432
ातीय	-8433
ुवाच	-8434
▁यत्ते	-8435
प्रत्यया	-8436
खान	-8437
▁मकर	-8438
▁उच्य	-8439
▁देहं	-8440
▁पुरे	-8441
▁रुक्म	-8442
▁वेष्ट	-8443
▁विरोधः	-8444
क्षिप्तं	-8445
ापः	-8446
▁हुं	-8447
धिपति	-8448
न्महा	-8449
प्रसू	-8450
▁भेदो	-8451
▁विरूप	-8452
▁निःस्व	-8453
ुर्वि	-8454
▁भावे	-8455
▁तत्सं	-8456
▁प्रविस	-8457
क्रान्तं	-8458
दर्प	-8459
ग्रोध	-8460
बन्धि	-8461
रिष	-8462
लौक	-8463
च्छिष्ट	-8464
▁इत्यस्य	-8465
▁देवासुर	-8466
▁उत्पत्ति	-8467
क्षुर	-8468
फुल्ल	-8469
त्वर्थ	-8470
द्रव्या	-8471
▁भैषज्य	-8472
▁प्राप्तो	-8473
▁प्रयत्नेन	-8474
ड्व	-8475
▁करे	-8476
स्थिर	-8477
▁सिरसि	-8478
▁अनुमान	-8479
ेताव	-8480
▁धन्व	-8481
िरुद्ध	-8482
▁अन्त्य	-8483
▁दूषयति	-8484
स्थल	-8485
ानुबन्ध	-8486
▁गिरा	-8487
▁वेस्म	-8488
▁यावत्त	-8489
▁सकृदाग	-8490
मनुत्तमम्	-8491
▁सामानाधिकरण	-8492
▁वव	-8493
वक्त	-8494
▁नृपति	-8495
▁यज्ञे	-8496
▁कर्त्त	-8497
▁विवर्ध	-8498
▁उत्पद्यते	-8499
प्लव	-8500
ब्धि	-8501
त्कृत	-8502
संकास	-8503
▁विधा	-8504
ानुकूल	-8505
▁स्रद्द	-8506
ग्निः	-8507
▁देवेषु	-8508
▁संक्रुद्ध	-8509
ायि	-8510
▁चरे	-8511
▁पातु	-8512
ेष्यते	-8513
▁भृसम्	-8514
▁हस्ते	-8515
दिन	-8516
ुत्तर	-8517
▁विद्याधर	-8518
▁होम	-8519
▁चाति	-8520
▁पुनरु	-8521
▁भविष्यतीति	-8522
च्छु	-8523
▁केसवः	-8524
▁प्रगृह्य	-8525
ाढ	-8526
▁राजं	-8527
ायामपि	-8528
ोत्तरं	-8529
▁सक्रो	-8530
क्रान्ता	-8531
▁कवच	-8532
▁माग	-8533
▁यूप	-8534
▁दिवः	-8535
▁वराह	-8536
▁कैस्च	-8537
▁वेगेन	-8538
मात्रम्	-8539
वता	-8540
सुक	-8541
ोग्य	-8542
्तिक	-8543
▁मेध	-8544
ुण्यं	-8545
ैर्देव	-8546
▁क्षणं	-8547
त्प्राप्त	-8548
चिः	-8549
सूय	-8550
▁उदक	-8551
▁ककु	-8552
भक्ति	-8553
▁ज्वर	-8554
समुच्च	-8555
▁कुसला	-8556
त्वादेव	-8557
▁भवन्त्य	-8558
तस्	-8559
त्यै	-8560
िकाम	-8561
द्वये	-8562
▁साधनं	-8563
▁वाक्या	-8564
▁पार्थिवः	-8565
ौत	-8566
ाण्	-8567
ेहे	-8568
▁स्वः	-8569
मर्हसि	-8570
▁विविधा	-8571
▁सोमस्य	-8572
▁प्रयोजनं	-8573
त्साह	-8574
धर्म्	-8575
▁मेरु	-8576
क्रमित	-8577
▁सिद्धः	-8578
पुरे	-8579
ोऽभव	-8580
ावच्छिन्न	-8581
▁मनुष्याणां	-8582
ेनो	-8583
दिनं	-8584
▁नगरं	-8585
▁समादाप	-8586
▁अस्माकं	-8587
मन्त्रयते	-8588
▁पर्यायेण	-8589
▁विद्वान्	-8590
▁ब्राह्मणे	-8591
ादेय	-8592
▁स्थल	-8593
त्सर्ग	-8594
विरोधः	-8595
▁कल्या	-8596
▁प्रसंस	-8597
▁भरद्वाज	-8598
▁व्यवसाय	-8599
तानिमित्त	-8600
▁चौ	-8601
▁नेद	-8602
▁सिद्धिः	-8603
▁स्वभावो	-8604
क्लि	-8605
र्चन	-8606
नमिति	-8607
मस्मा	-8608
▁स्कन्द	-8609
लील	-8610
सकल	-8611
▁लीला	-8612
▁कैकेय	-8613
▁मातरं	-8614
▁यथायोग	-8615
▁स्यान्	-8616
▁वृत्तिः	-8617
▁हूं	-8618
भ्युद	-8619
विहित	-8620
प्रतिसं	-8621
▁द्रष्टु	-8622
न्तरा	-8623
▁पादः	-8624
▁पुरोड	-8625
▁विप्रा	-8626
▁व्यवस्थितः	-8627
धाने	-8628
र्तृ	-8629
▁तवा	-8630
नायाः	-8631
परायण	-8632
स्यैक	-8633
यन्त्र	-8634
▁उपादान	-8635
सारिपुत्र	-8636
ङि	-8637
चतुर	-8638
युक्तो	-8639
▁द्रवि	-8640
▁बुद्धिर	-8641
िष्ठ	-8642
▁माधव	-8643
▁किमेत	-8644
▁कुञ्ज	-8645
द्वन्द्व	-8646
▁यथाक्रमम्	-8647
गुणः	-8648
▁उभौ	-8649
▁त्रयः	-8650
▁पक्षः	-8651
▁तस्मात्सर्व	-8652
हृदय	-8653
ोपभोग	-8654
▁स्वास	-8655
▁ह्येष	-8656
मिच्छसि	-8657
▁संग्रह	-8658
▁सिखण्ड	-8659
▁यथाभूतं	-8660
▁विस्मित	-8661
कुर्वन्ति	-8662
▁प्रयुज्यते	-8663
गज	-8664
क्रु	-8665
ोदाह	-8666
ेनाभि	-8667
▁उन्म	-8668
षिञ्च	-8669
दंष्ट्र	-8670
ापत्तिः	-8671
ण्डि	-8672
द्वेद	-8673
▁मानवः	-8674
▁सुक्त	-8675
▁ऋषय	-8676
ाद्धि	-8677
▁मार्ज	-8678
▁त्विति	-8679
▁परेषां	-8680
विपा	-8681
प्सित	-8682
मुद्ग	-8683
▁महोद	-8684
प्रष्ट	-8685
▁परिचार	-8686
गीष	-8687
पुनर	-8688
▁यन्	-8689
मार्त	-8690
▁अपिच	-8691
▁पाताल	-8692
वेण	-8693
मेते	-8694
ांसं	-8695
ेनाव	-8696
ैरनु	-8697
▁जुष	-8698
▁नेह	-8699
तानां	-8700
▁विरह	-8701
संकल्प	-8702
▁तत्कथ	-8703
सामर्थ्या	-8704
ाक्षर	-8705
भूतेषु	-8706
▁त्वेव	-8707
स्चिन्त	-8708
▁कल्पित	-8709
▁कथयन्ति	-8710
▁प्राप्नु	-8711
प्रकृत	-8712
▁परिष्व	-8713
▁सत्यां	-8714
▁संचिन्त्य	-8715
साप	-8716
हरण	-8717
सुप्त	-8718
▁सिद्धा	-8719
भवे	-8720
ौद्ध	-8721
▁सखा	-8722
क्षोभ	-8723
▁उद्द	-8724
▁भानु	-8725
▁पूर्वा	-8726
▁प्रकृत्या	-8727
▁वचनमब्रवीत्	-8728
मधु	-8729
▁गृण	-8730
ग्रतः	-8731
▁सुतो	-8732
सत्तमः	-8733
▁यत्कि	-8734
नाभ	-8735
सिं	-8736
ाङ्गु	-8737
▁मानस	-8738
योर्वि	-8739
▁आत्मना	-8740
▁तन	-8741
ादेक	-8742
ान्वयः	-8743
▁महायसाः	-8744
▁कुलपुत्रो	-8745
चैत	-8746
न्नेव	-8747
▁सोमं	-8748
भविष्य	-8749
मुत्सृज्य	-8750
भूः	-8751
▁जहि	-8752
▁पितु	-8753
ित्वम्	-8754
▁अन्वय	-8755
▁आत्मनो	-8756
▁वृत्तं	-8757
परिसुद्ध	-8758
ान्तरमाह	-8759
▁ज्योतिष्टो	-8760
ङ्गार	-8761
▁अपरे	-8762
ान्स्व	-8763
▁यज्ञो	-8764
▁धर्मता	-8765
▁निपात्य	-8766
कण्ट	-8767
ागता	-8768
्याग	-8769
ादिभिर	-8770
क्षिपति	-8771
ान्वितम्	-8772
सूल	-8773
मनाः	-8774
ीयाः	-8775
▁विघ्न	-8776
▁नृणाम्	-8777
तिथ	-8778
▁अमी	-8779
▁निधाय	-8780
ग्म	-8781
▁वयम	-8782
ितास्च	-8783
▁मन्त्रं	-8784
जाता	-8785
▁चेह	-8786
▁तत्पर	-8787
र्था	-8788
क्षते	-8789
ेक्षा	-8790
▁स्रमण	-8791
▁संवर्त	-8792
मुपलभ्यते	-8793
▁हनू	-8794
काष्ठ	-8795
▁दृष्टो	-8796
वने	-8797
र्पि	-8798
त्तया	-8799
▁कथां	-8800
▁समाह	-8801
▁दुग्ध	-8802
▁संहित	-8803
यद	-8804
तीः	-8805
▁इत	-8806
बर्ह	-8807
मिता	-8808
िताव	-8809
दृसम्	-8810
्यायु	-8811
▁जगति	-8812
▁मङ्ग	-8813
▁अपूर्व	-8814
योगतः	-8815
▁विभु	-8816
▁गुर्व	-8817
▁इत्यपि	-8818
▁कार्ये	-8819
▁रुक्मि	-8820
ुषी	-8821
▁ऋतु	-8822
▁गदा	-8823
▁सुतं	-8824
▁सौमित	-8825
णिक्	-8826
▁रथा	-8827
कर्तु	-8828
▁मद्य	-8829
▁विलोक	-8830
कर्माणि	-8831
ख्यायते	-8832
▁मुद्रा	-8833
वृत्त्या	-8834
▁देवानाम	-8835
▁प्रकृतिः	-8836
▁थ	-8837
वाल	-8838
मपस्य	-8839
▁निखिल	-8840
ंसे	-8841
▁उर	-8842
त्यत्र	-8843
दानन्द	-8844
्यावाप	-8845
▁तत्कथं	-8846
▁संबन्धः	-8847
मित्	-8848
▁भैर	-8849
▁दयित	-8850
▁हीदं	-8851
▁कस्या	-8852
▁भवन्तु	-8853
▁संख्ये	-8854
▁पस्चाद्	-8855
रुद्ध	-8856
सब्दं	-8857
ाकास	-8858
ाष्ट	-8859
▁छाय	-8860
गच्छन्ति	-8861
ेक्ष्यन्ति	-8862
समः	-8863
स्थाः	-8864
▁बहवः	-8865
▁चेत्न	-8866
संस्कृत	-8867
▁परोक्ष	-8868
ोऽब्रवीत्	-8869
गिरि	-8870
सस्त	-8871
निर्भ	-8872
▁परमो	-8873
▁सुष्	-8874
लम्ब्य	-8875
▁इत्यनु	-8876
▁प्रहृष्ट	-8877
▁प्रसज्येत	-8878
▁गल	-8879
ागार	-8880
र्यु	-8881
▁स्राद्धं	-8882
ामे	-8883
गरुड	-8884
संवर	-8885
म्यहं	-8886
▁आलोक	-8887
न्द्रस्य	-8888
▁दक्षिणं	-8889
▁स्रीमान्	-8890
कता	-8891
▁रसा	-8892
ाप्सर	-8893
ास्रु	-8894
▁योगे	-8895
स्त्रै	-8896
मनुष्या	-8897
▁कार्यो	-8898
ग्न्य	-8899
विभक्त	-8900
▁अग्नी	-8901
▁मूर्ख	-8902
मातृ	-8903
्योः	-8904
▁कात	-8905
क्षयं	-8906
निवार	-8907
▁परत्र	-8908
▁उत्थाय	-8909
▁त्रैलोक	-8910
▁राक्षसा	-8911
नद	-8912
बलम्	-8913
▁सरी	-8914
▁परिष	-8915
▁विभीष	-8916
▁केनचित्	-8917
▁भार्यां	-8918
पता	-8919
रूपे	-8920
▁फट्	-8921
▁रोह	-8922
ापराध	-8923
जानाति	-8924
धर्माः	-8925
न्द्रः	-8926
▁त्रिः	-8927
▁मुण्ड	-8928
▁प्रथमो	-8929
▁यत्नेन	-8930
ीयान्	-8931
प्रदेस	-8932
दृस्यते	-8933
▁रूपादि	-8934
न्नो	-8935
्यासु	-8936
लब्धिः	-8937
ोपलब्ध	-8938
▁पुरात	-8939
ायोगात्	-8940
▁पञ्चभिः	-8941
सहित	-8942
ावास	-8943
▁वपु	-8944
▁मनीष	-8945
▁प्रियः	-8946
▁भौ	-8947
▁सुरा	-8948
सून्यताया	-8949
सख	-8950
▁चेतना	-8951
▁सान्तं	-8952
▁प्रीत्या	-8953
▁नोपपद्यते	-8954
ृदय	-8955
▁एकेन	-8956
▁वदति	-8957
पन्नाः	-8958
▁चैत्र	-8959
▁संज	-8960
▁अवयव	-8961
▁मनसः	-8962
विचित्र	-8963
▁केवलम्	-8964
▁निस्चय	-8965
ङ्गम	-8966
▁द्रुत	-8967
▁व्यतिरे	-8968
ृंह	-8969
नीति	-8970
▁कुं	-8971
▁दाम	-8972
▁भिः	-8973
▁यदृ	-8974
साधनं	-8975
▁रथेन	-8976
वासिनः	-8977
▁प्रायेण	-8978
▁यस्मात्त	-8979
क्क	-8980
त्त्वे	-8981
▁साम्य	-8982
▁एवमन्य	-8983
▁स्मृतिः	-8984
▁बाधक	-8985
▁भग्न	-8986
▁हृषी	-8987
▁सतो	-8988
चर्यं	-8989
▁जनपद	-8990
▁समभ्य	-8991
▁भवतीत्य	-8992
▁सार्थवाह	-8993
वल्क्य	-8994
▁प्रेर	-8995
▁सुष्क	-8996
ादीनाम्	-8997
▁सर्वां	-8998
मिन्द्रिय	-8999
मनस्य	-9000
▁माणव	-9001
स्याम्	-9002
▁नियमः	-9003
ामं	-9004
▁क्षार	-9005
▁वाप्य	-9006
▁हन्या	-9007
▁चिच्छेद	-9008
ञ्चित	-9009
▁आरोप	-9010
▁कर्क	-9011
▁घृतं	-9012
विरचित	-9013
▁अपस्य	-9014
चारः	-9015
▁घ्न	-9016
स्याप	-9017
▁सकलं	-9018
सिद्धं	-9019
▁आत्मनः	-9020
▁प्रबोध	-9021
ामिह	-9022
▁कुमुद	-9023
▁समेत्य	-9024
▁ब्रह्मन्	-9025
ामण	-9026
न्तेन	-9027
प्रभव	-9028
भूताः	-9029
वस्यं	-9030
▁वृषा	-9031
ानुसारेण	-9032
ह्म	-9033
सासन	-9034
िव्या	-9035
ोऽनुप	-9036
▁कङ्क	-9037
▁भाषते	-9038
बुद्धिः	-9039
▁पुरुषा	-9040
▁प्रजानां	-9041
▁विविधानि	-9042
सुतः	-9043
िकाल	-9044
योरेव	-9045
स्तेज	-9046
▁स्ले	-9047
▁वैधर्म	-9048
▁त्रयोदस	-9049
▁यस्मात्	-9050
▁वक्ष्यते	-9051
▁सिला	-9052
क्ष्मा	-9053
▁सम्प्रति	-9054
▁गर	-9055
▁ऽआ	-9056
नीयो	-9057
▁वेग	-9058
बन्धन	-9059
ङ्गस्य	-9060
▁जित्वा	-9061
▁महारथः	-9062
▁वेत्	-9063
▁हरिं	-9064
स्थितौ	-9065
▁अष्टादस	-9066
मनेक	-9067
मृतं	-9068
येन्न	-9069
▁दह्य	-9070
र्दर्स	-9071
स्तान्	-9072
▁रोदसी	-9073
▁न्यायेन	-9074
स्तृ	-9075
स्चेत	-9076
ास्वभाव	-9077
▁महेष्व	-9078
तानिमित्ता	-9079
▁गङ्गानदीवाल	-9080
जर	-9081
मृत्य	-9082
▁तस्मिन्नेव	-9083
गणाः	-9084
मध्व	-9085
ताण्ड	-9086
हन्ति	-9087
स्वर्यं	-9088
ाग्निना	-9089
हिः	-9090
▁वसू	-9091
▁हता	-9092
वेद्य	-9093
्याच्च	-9094
निर्देसः	-9095
▁परामर्स	-9096
▁सम्यक्प्रहाण	-9097
भोक्त	-9098
▁बहुत	-9099
▁स्रियं	-9100
▁मार्गेण	-9101
▁सहकार	-9102
▁बभ्र	-9103
ाद्याः	-9104
▁समाहित	-9105
धान्य	-9106
न्येव	-9107
वृष्ट	-9108
▁साकं	-9109
ादिसब्द	-9110
▁उत्पत्त	-9111
िती	-9112
काम्	-9113
योरेक	-9114
स्तया	-9115
्येते	-9116
▁स्ने	-9117
▁निवास	-9118
मण्डलम्	-9119
भिप्रायेण	-9120
चूड	-9121
ानय	-9122
स्याद	-9123
▁महिष	-9124
▁हेतोर	-9125
▁समास्र	-9126
▁उपसङ्ख्यानम्	-9127
िषु	-9128
योगो	-9129
▁कुत्स	-9130
द्रव्यं	-9131
हु	-9132
गर्ह	-9133
धानम्	-9134
ध्नाति	-9135
ास्रित	-9136
ात्मानो	-9137
▁प्रत्युत्पन्न	-9138
ूद	-9139
ैवम्	-9140
यन्तः	-9141
▁क्रि	-9142
▁वृषभ	-9143
▁सेते	-9144
कर्माण	-9145
▁प्रावि	-9146
▁ञ	-9147
ाव्	-9148
ासनः	-9149
▁स्वो	-9150
▁काकुत्	-9151
▁सञ्ज्ञ	-9152
▁स्पन्द	-9153
▁सान्त्व	-9154
▁सुरासुर	-9155
कुरु	-9156
िक्य	-9157
▁अने	-9158
▁आहार	-9159
▁गर्ह	-9160
▁भवेय	-9161
▁यस्यां	-9162
तोः	-9163
▁वधू	-9164
ष्यन्द	-9165
▁निषेव	-9166
▁निर्माण	-9167
ामन	-9168
▁यदी	-9169
मान्व	-9170
च्छत्र	-9171
सिद्धौ	-9172
निवृत्ति	-9173
▁कपिल	-9174
▁कुलं	-9175
▁धनुः	-9176
्यवहार	-9177
▁योज्य	-9178
▁पुनर्म	-9179
ेसः	-9180
द्रूपं	-9181
ुपुत्र	-9182
▁हास्य	-9183
ोत्पन्न	-9184
▁तथेत्य	-9185
▁विसेषो	-9186
▁ईष	-9187
▁गौण	-9188
▁समूह	-9189
▁अनन्य	-9190
ान्तर्ग	-9191
▁राक्षसे	-9192
ूख	-9193
▁दिस	-9194
ङ्क्ति	-9195
मीस्वर	-9196
▁माल्य	-9197
▁विष्ट	-9198
▁चित्तस्य	-9199
▁मर्म	-9200
▁भूमिं	-9201
▁व्यपदेस	-9202
सून्यतायां	-9203
कसि	-9204
च्छे	-9205
न्नः	-9206
र्णं	-9207
▁पवन	-9208
त्पञ्च	-9209
मूर्ति	-9210
▁स्रद्धया	-9211
जनन	-9212
ावे	-9213
परिण	-9214
▁समे	-9215
▁हतः	-9216
क्षणा	-9217
वन्तः	-9218
निं	-9219
पितृ	-9220
बहुल	-9221
▁सता	-9222
ामीति	-9223
प्रयोगः	-9224
मित्यत्र	-9225
▁ज्योतिः	-9226
रुद	-9227
▁तोष	-9228
▁दस्य	-9229
▁सचिव	-9230
स्विनः	-9231
▁क्षयं	-9232
▁तच्छ्र	-9233
▁प्रकर्ष	-9234
तोष	-9235
र्यः	-9236
ातीत	-9237
मारभ्य	-9238
ानामनु	-9239
▁महीयते	-9240
दर्थ	-9241
देवा	-9242
ृतस्य	-9243
▁सादृ	-9244
ज्यमान	-9245
▁अव्या	-9246
सत्तमाः	-9247
▁महात्मनाम्	-9248
ीन्	-9249
सुता	-9250
यास्च	-9251
समुत्थ	-9252
▁अर्थं	-9253
▁संस्र	-9254
▁वस्तुनि	-9255
थुन	-9256
▁निवस	-9257
▁केनचि	-9258
▁भेदेन	-9259
▁तद्भाव	-9260
▁पुरुषर्षभ	-9261
ादनु	-9262
स्थानम्	-9263
सून्यतामुपादाय	-9264
म्यं	-9265
▁माष	-9266
क्तम्	-9267
र्त्य	-9268
ापीति	-9269
्यतेऽ	-9270
▁विचर	-9271
▁समम्	-9272
▁चिन्ता	-9273
पुरोग	-9274
ाभावः	-9275
ङ्घ्रि	-9276
समुदाय	-9277
▁स्लाघ	-9278
पातः	-9279
सङ्ख	-9280
ासनम्	-9281
▁गाथा	-9282
▁वरम्	-9283
▁सञ्ज	-9284
धार्मि	-9285
▁कर्माण	-9286
मेर	-9287
ादप	-9288
पुराण	-9289
विपाक	-9290
स्थां	-9291
▁जयति	-9292
▁विवे	-9293
प्त्वा	-9294
▁दत्ता	-9295
▁पुरीं	-9296
▁सतक्र	-9297
पदी	-9298
▁कार्यः	-9299
▁नान्त	-9300
▁मुहुः	-9301
यिष	-9302
कर्षण	-9303
ाविषय	-9304
▁विमृ	-9305
▁प्रकृतिं	-9306
र्त्त	-9307
विषयः	-9308
निर्दि	-9309
सञ्ज्ञ	-9310
▁स्रीर	-9311
च्चित्त	-9312
▁कल्पते	-9313
▁त्रयाणां	-9314
▁प्रवृत्तिः	-9315
दव	-9316
लौ	-9317
मभू	-9318
पाते	-9319
भाति	-9320
▁वीरो	-9321
द्दुःख	-9322
निस्चयः	-9323
▁कान्ति	-9324
▁किमन्य	-9325
▁कृष्णेन	-9326
मवाप्नुयात्	-9327
▁पृथक्पृथक्	-9328
▁सिक्षितव्यम्	-9329
ाज्ज	-9330
ग्रही	-9331
▁इतस्च	-9332
▁निसित	-9333
ानुष्ठान	-9334
▁प्रबुद्ध	-9335
म्तु	-9336
टो	-9337
ष्णं	-9338
▁करेण	-9339
रिक्तं	-9340
विक्रम	-9341
▁अस्त्र	-9342
▁साक्षिण	-9343
घातः	-9344
कृतेः	-9345
ष्वपि	-9346
सेषेण	-9347
▁ऋद्ध	-9348
ितव्या	-9349
▁नास्य	-9350
▁सन्तः	-9351
▁अग्निः	-9352
▁पुरस्कृत्य	-9353
तरां	-9354
मर्ष	-9355
मात्रा	-9356
ेदानीं	-9357
▁स्रेष्ठं	-9358
ुवः	-9359
मन्न	-9360
ेनेव	-9361
भूयते	-9362
ार्था	-9363
▁कौतु	-9364
▁यदेत	-9365
▁जानामि	-9366
▁पुनर्ज	-9367
कुलः	-9368
ोधेन	-9369
ान्वा	-9370
▁चेदं	-9371
▁जगतो	-9372
मुक्तः	-9373
▁प्रमे	-9374
तस्तस्य	-9375
▁तदुच्यते	-9376
करी	-9377
▁वरि	-9378
म्बुद	-9379
चक्रमे	-9380
पुत्रं	-9381
ात्मनाम्	-9382
धीर	-9383
▁सायं	-9384
प्रवाह	-9385
▁कच्चि	-9386
▁व्याह	-9387
तमोऽध्यायः	-9388
▁देवेन्द्र	-9389
ाङ्गी	-9390
▁दुर्ध	-9391
▁पाणिना	-9392
▁वाच्यं	-9393
▁विचार्य	-9394
▁प्रजायते	-9395
माच	-9396
▁सग	-9397
चारी	-9398
प्सर	-9399
▁सुदु	-9400
▁सप्तमी	-9401
त्वारिंस	-9402
▁सिद्धिं	-9403
ित्यादिना	-9404
िरपि	-9405
▁एनं	-9406
मन्तः	-9407
▁स्तोक	-9408
▁निमित्ते	-9409
किः	-9410
सरो	-9411
▁चऽ	-9412
ादृते	-9413
प्राति	-9414
ावस्था	-9415
▁सीतां	-9416
ाभ्याम्	-9417
ैस्त्रि	-9418
जौ	-9419
▁नेत	-9420
▁कोटी	-9421
▁रूपे	-9422
▁सभाग	-9423
▁द्वादसा	-9424
च्छरीर	-9425
▁यथार्थ	-9426
▁निरुद्ध	-9427
▁नैमित्त	-9428
च्छास्त्र	-9429
कृतौ	-9430
समीप	-9431
ाद्वै	-9432
▁सम्भाव	-9433
▁कृत्स्नं	-9434
प्रतिबिम्ब	-9435
▁मदन	-9436
▁सिं	-9437
▁मृगा	-9438
▁यद्येवं	-9439
व्यावृत्त	-9440
करे	-9441
▁णि	-9442
राजः	-9443
▁विप्रो	-9444
▁महीपतिः	-9445
त्तेन	-9446
वाहनः	-9447
निर्घोष	-9448
्यात्मा	-9449
▁परिपाल	-9450
▁द्यावाप	-9451
▁प्रतिषिद्ध	-9452
रोधा	-9453
नासनम्	-9454
्यादीनां	-9455
जनक	-9456
ाजि	-9457
त्ये	-9458
▁गुणो	-9459
▁ययुः	-9460
▁चोक्त	-9461
▁दण्डः	-9462
सम्भवात्	-9463
▁कुर्वन्	-9464
▁महाकरुण	-9465
▁संक्लेस	-9466
ासंस्पर्स	-9467
▁प्राप्नुवन्ति	-9468
पव	-9469
श्र	-9470
▁गतम्	-9471
▁जनयति	-9472
▁व्यसन	-9473
च्छन्ति	-9474
क्षिपेत्	-9475
▁गायत्री	-9476
▁तत्कर्म	-9477
▁सारद्वतीपुत्र	-9478
क्रन्द	-9479
द्रष्ट	-9480
ैस्चैव	-9481
▁ऋत्वि	-9482
▁कार्यम्	-9483
▁रात्रिं	-9484
त्य्	-9485
द्रं	-9486
कायां	-9487
र्हति	-9488
▁चन्दन	-9489
▁दास्य	-9490
▁लोकधातौ	-9491
▁भ्रान्ति	-9492
▁विस्वस्य	-9493
मपर	-9494
कात्	-9495
भेदं	-9496
त्वेऽ	-9497
ातीति	-9498
लक्षणो	-9499
▁स्वरूपेण	-9500
नित	-9501
▁खेद	-9502
मागतः	-9503
स्रिय	-9504
▁दातु	-9505
▁वल्ल	-9506
▁प्रभु	-9507
▁नस्यति	-9508
स्मिंस्च	-9509
▁ब्रूयात्	-9510
▁न्	-9511
्यभाव	-9512
▁पुरतः	-9513
▁स्वस्त	-9514
लिं	-9515
त्का	-9516
सारं	-9517
▁स्वप	-9518
▁क्षेत्रं	-9519
षण्ड	-9520
▁महो	-9521
वन्तं	-9522
▁जीवो	-9523
द्द्वि	-9524
त्नं	-9525
भिरा	-9526
▁धनम्	-9527
▁विवस्व	-9528
▁विमुक्ति	-9529
पीठ	-9530
ञ्जीत	-9531
ृत्तं	-9532
▁मधुम	-9533
▁पितरो	-9534
मारुह्य	-9535
▁कर्मसु	-9536
पुत्रस्य	-9537
▁पुत्रेण	-9538
तीर	-9539
विज	-9540
▁कुच	-9541
▁जुह्व	-9542
▁द्वयं	-9543
▁प्रययौ	-9544
सेख	-9545
ादृस	-9546
▁वैष	-9547
▁संग	-9548
▁अङ्क	-9549
▁दीयते	-9550
▁मध्यम	-9551
प्रकरणे	-9552
ान्यस्य	-9553
▁विपर्यय	-9554
▁आगम	-9555
▁कण्ठे	-9556
षिध्यते	-9557
▁चित्ते	-9558
▁यस्याः	-9559
▁वर्त्म	-9560
▁प्रह्लाद	-9561
ामव	-9562
▁भीर	-9563
▁वत्	-9564
डूर्य	-9565
द्गुर	-9566
ीयताम्	-9567
▁लोकाः	-9568
▁सत्यम्	-9569
द्गल्याय	-9570
ध्यत	-9571
परिष्	-9572
▁नह्य	-9573
र्णा	-9574
कीर्णं	-9575
त्वेनैव	-9576
पातं	-9577
वतां	-9578
▁भवत	-9579
विभ्र	-9580
व्रतः	-9581
▁यथाह	-9582
▁सृणो	-9583
धर्मता	-9584
ैर्बहु	-9585
▁गाण्ड	-9586
ान्तिके	-9587
▁ज्ञानि	-9588
लक्षणस्य	-9589
▁प्रसान्त	-9590
▁ज्या	-9591
▁तदाह	-9592
क्षेपः	-9593
चक्ष्व	-9594
▁कथिता	-9595
▁विलोक्य	-9596
हता	-9597
▁अण	-9598
र्बल	-9599
ित्रं	-9600
ोपकरण	-9601
▁प्रप	-9602
पादयति	-9603
▁काण्ड	-9604
▁कूर्म	-9605
▁अवस्यं	-9606
ादर	-9607
▁आसि	-9608
ज्ञाता	-9609
पन्नम्	-9610
▁चाक्ष	-9611
▁सिल्प	-9612
▁तनय	-9613
न्सुः	-9614
ाद्यः	-9615
▁हन्य	-9616
▁तेभ्यो	-9617
सिद्धान्त	-9618
▁तत्पुरुष	-9619
▁सब	-9620
गण्ड	-9621
▁छेद	-9622
विधाय	-9623
▁बिन्द	-9624
मित्युप	-9625
स्मिन्व	-9626
घान	-9627
ार्क	-9628
▁दर्	-9629
▁परित्या	-9630
▁महाप्रा	-9631
वधार	-9632
▁नस्य	-9633
▁मानसं	-9634
▁रोचते	-9635
च्चि	-9636
रात्रे	-9637
▁चिह्न	-9638
▁सपक्ष	-9639
▁समादाय	-9640
▁ज्ञेयम्	-9641
▁दक्षिणेन	-9642
मील	-9643
िकास	-9644
िरम्	-9645
▁नाल	-9646
त्ततः	-9647
िरत्न	-9648
स्कन्द	-9649
ीर्यते	-9650
▁चण्डाल	-9651
▁चरन्ति	-9652
प्राप्तं	-9653
▁प्रतिष्ठा	-9654
सितं	-9655
▁एहि	-9656
येयुः	-9657
▁काचि	-9658
सन्धान	-9659
▁नार्थ	-9660
त्वाभास	-9661
▁दर्सपूर्ण	-9662
▁बले	-9663
▁मित	-9664
व्याप्य	-9665
▁बुद्धं	-9666
▁तस्मात्प	-9667
गतौ	-9668
संसा	-9669
नानां	-9670
▁केनापि	-9671
▁चैतन्य	-9672
▁तूष्णीं	-9673
ोढ	-9674
ातक	-9675
भागं	-9676
▁आनु	-9677
तृष्ण	-9678
ष्मान	-9679
ाङ्गं	-9680
▁लङ्घ	-9681
▁वसुं	-9682
▁गच्छे	-9683
चित्तोत्पाद	-9684
▁सज	-9685
▁मल्ल	-9686
निर्वाण	-9687
▁रत्नानि	-9688
दसा	-9689
नैर	-9690
ोपेत	-9691
▁मुद्ग	-9692
▁सामान्यं	-9693
ट्टि	-9694
भाषे	-9695
वस्च	-9696
▁चित्तेन	-9697
▁द्विगुण	-9698
रभ	-9699
पाव	-9700
▁समो	-9701
बन्धं	-9702
्यस्च	-9703
ानुराग	-9704
▁तत्कि	-9705
ब्रह्मा	-9706
▁प्रपद्य	-9707
▁स्वकर्म	-9708
▁ब्रह्मलोक	-9709
ज्यो	-9710
ुत्त	-9711
ात्सं	-9712
▁लभ्य	-9713
▁मूर्छ	-9714
स्वभावः	-9715
▁भिक्षू	-9716
▁स्रुत्या	-9717
▁बालप्रिया	-9718
देन	-9719
रते	-9720
मुभय	-9721
लाभि	-9722
सिरो	-9723
समस्त	-9724
▁इदम्	-9725
▁तासु	-9726
▁मनसो	-9727
▁मीमांस	-9728
निषेव	-9729
लिङ्गं	-9730
▁सृणोति	-9731
▁उत्तिष्ठ	-9732
▁निर्देसः	-9733
▁लोकधातुषु	-9734
ीयतां	-9735
▁वीरः	-9736
▁अन्यथ	-9737
▁कैलास	-9738
▁धर्माधर्म	-9739
मितो	-9740
्यतां	-9741
▁अभ्र	-9742
▁वैद्य	-9743
पाठः	-9744
हत्या	-9745
ादेसो	-9746
▁दूरे	-9747
▁हानि	-9748
गम्भीर	-9749
▁विदुर	-9750
▁न्यवेद	-9751
▁कुतस्चि	-9752
▁प्रातिपदिक	-9753
चरः	-9754
दाने	-9755
▁अहि	-9756
▁गोद	-9757
ीर्णं	-9758
▁स्वामी	-9759
त्वादित्य	-9760
र्ऽथ	-9761
▁कारुण	-9762
▁सवर्ण	-9763
परिकल्प	-9764
▁पौर्णमा	-9765
तावच्छेदक	-9766
धाम	-9767
ितेषु	-9768
ेणापि	-9769
त्वरूप	-9770
▁दाप्य	-9771
▁स्यादेतत्	-9772
भज	-9773
्यामः	-9774
▁दाता	-9775
तिक	-9776
▁खग	-9777
मामि	-9778
राजो	-9779
यमिति	-9780
ैर्मा	-9781
▁याहि	-9782
▁सोमः	-9783
▁भवेदिति	-9784
▁तट	-9785
क्षुः	-9786
पूर्य	-9787
मालोक्य	-9788
▁भवत्येव	-9789
मग	-9790
▁चक	-9791
जनित	-9792
प्रभः	-9793
▁स्वस्य	-9794
दिसति	-9795
द्भ्र	-9796
भिर्भ	-9797
ल्लेख	-9798
▁चेतः	-9799
माख्या	-9800
सङ्क्य	-9801
▁लक्षणा	-9802
▁कामि	-9803
▁पाठः	-9804
▁इमानि	-9805
▁रत्ना	-9806
ानिल	-9807
▁सौच	-9808
ाद्रि	-9809
प्रभम्	-9810
▁सब्दं	-9811
मात्मना	-9812
▁मण्डलं	-9813
▁वसुदेव	-9814
▁वाक्ये	-9815
▁सास्त्रे	-9816
▁सर्वाकारज्ञता	-9817
नासन	-9818
सयेन	-9819
माप्त	-9820
षीणां	-9821
▁मयूर	-9822
द्भवति	-9823
▁कर्णं	-9824
▁सक्या	-9825
▁दृष्टे	-9826
▁अत्रापि	-9827
▁निस्चयः	-9828
▁पार्स्वे	-9829
सया	-9830
संघात	-9831
कर्मणः	-9832
▁प्रमुद	-9833
बुद्ध्या	-9834
▁खट	-9835
माचार	-9836
▁कृतव	-9837
▁भगवत	-9838
▁रस्म	-9839
▁भिक्षुः	-9840
ैको	-9841
नन्य	-9842
राजं	-9843
दर्सी	-9844
नक्ति	-9845
भिर्ग	-9846
▁उन्न	-9847
▁पांसु	-9848
समन्वितः	-9849
ाधी	-9850
▁ऽइ	-9851
सत्क	-9852
▁भावा	-9853
त्विति	-9854
स्पष्ट	-9855
▁भवतां	-9856
▁पुंसां	-9857
ञ्चु	-9858
ूंषि	-9859
▁अनभि	-9860
▁धिया	-9861
्यायतन	-9862
▁अर्जु	-9863
▁एतस्य	-9864
▁ज्ञेयः	-9865
▁अत्रोच्यते	-9866
ग्ल	-9867
▁तल	-9868
▁वेल	-9869
▁यष्ट	-9870
ादिवत्	-9871
▁उपसर्ग	-9872
▁नित्यः	-9873
▁मैत्री	-9874
▁सक्तिं	-9875
▁निवृत्ति	-9876
कत	-9877
सैल	-9878
▁सरः	-9879
▁नीति	-9880
▁व्यय	-9881
▁पौत्र	-9882
लभ्यन्ते	-9883
▁सक्नोति	-9884
मसौ	-9885
दीनि	-9886
न्मम	-9887
र्दृ	-9888
▁तेष्व	-9889
▁भास्क	-9890
▁पृथिवीप	-9891
वरं	-9892
तथता	-9893
ाविष	-9894
भिन्ना	-9895
▁प्रौढ	-9896
▁वितर्क	-9897
▁समारोप	-9898
▁सन्दिग्ध	-9899
▁प्रेक्ष्य	-9900
सोम	-9901
ृपः	-9902
क्षीण	-9903
चरितं	-9904
लेच्छ	-9905
▁बुभु	-9906
स्राद्ध	-9907
▁पुरुषव्याघ्र	-9908
जैः	-9909
▁सिब	-9910
▁जज्ञ	-9911
▁समाः	-9912
मागम्य	-9913
ुत्पन्न	-9914
▁भित्त्वा	-9915
▁मुक्त्वा	-9916
तुर्	-9917
मासा	-9918
▁नभः	-9919
क्षिक	-9920
▁पाहि	-9921
▁मिथः	-9922
▁अन्ते	-9923
संभवात्	-9924
▁निष्ठा	-9925
▁महाप्र	-9926
सेषतः	-9927
▁स्लक्ष	-9928
भावा	-9929
र्वर्ण	-9930
स्रोत्र	-9931
▁पृथि	-9932
यितव्य	-9933
▁तद्वद	-9934
▁सुराः	-9935
▁काङ्क्ष	-9936
▁द्रक्ष्य	-9937
▁बोधिसत्वो	-9938
ौद	-9939
ृच्छ	-9940
▁चाम	-9941
ाग्रं	-9942
▁सुसु	-9943
भ्यस्त	-9944
▁कृत्त	-9945
▁प्रवाह	-9946
ष्ठः	-9947
ीयां	-9948
▁हतो	-9949
नन्तरम्	-9950
▁कालस्य	-9951
▁स्रोत्रं	-9952
निल	-9953
▁सठ	-9954
योगं	-9955
▁चाल	-9956
▁काये	-9957
▁यस्त	-9958
▁धैर्य	-9959
▁विज्ञायते	-9960
नगर	-9961
▁एकाद	-9962
▁जन्य	-9963
▁रङ्ग	-9964
वृद्धि	-9965
ितवान्	-9966
▁गार्ग	-9967
▁पक्षिण	-9968
▁परिवर्ज	-9969
द्घ	-9970
क्या	-9971
भूषण	-9972
र्कः	-9973
वीति	-9974
ावृत	-9975
ुरम्	-9976
▁हते	-9977
क्षरं	-9978
▁मुमोच	-9979
ादिकम्	-9980
ेदि	-9981
द्भवः	-9982
▁द्रुम	-9983
▁फल्गु	-9984
▁पात्रं	-9985
▁सूर्यो	-9986
▁स्यन्द	-9987
हौ	-9988
समो	-9989
स्मार	-9990
▁अर्क	-9991
▁विमो	-9992
मण्डले	-9993
भावस्वभाव	-9994
ल्ली	-9995
मीयते	-9996
▁इत्य्	-9997
▁दिवसे	-9998
▁मनोरथ	-9999
▁प्राचीन	-10000
समन्वितम्	-10001
च्चार	-10002
त्यनु	-10003
भूतेन	-10004
विष्ण	-10005
▁देसं	-10006
▁महीं	-10007
▁योगि	-10008
▁पस्चिमे	-10009
▁वाक्येन	-10010
▁सम्यक्सम्ब	-10011
मूष	-10012
वतः	-10013
ेर्न	-10014
सन्धि	-10015
ेतेति	-10016
प्राप्तो	-10017
बहिर्धासून्य	-10018
य्य	-10019
न्सर्व	-10020
▁प्रीण	-10021
▁बुधैः	-10022
प्राप्य	-10023
▁मुष्टि	-10024
सून्यतां	-10025
▁सार्ङ्ग	-10026
▁पाण्डवानां	-10027
र्षु	-10028
▁अभेद	-10029
▁भृगु	-10030
साधनम्	-10031
▁मारुत	-10032
▁व्रीड	-10033
▁दिव्यानि	-10034
पल्ल	-10035
▁मतं	-10036
▁सखे	-10037
▁महती	-10038
▁मार्गं	-10039
गी	-10040
द्भेद	-10041
▁आदाय	-10042
▁योजना	-10043
▁विहितं	-10044
ोत्पत्ति	-10045
▁विनिस्च	-10046
▁प्रामाण्यं	-10047
ग्य	-10048
र्दस	-10049
च्चैव	-10050
▁वसति	-10051
▁सब्दे	-10052
प्रसक्त	-10053
ितामुपादाय	-10054
मुत्	-10055
ल्पि	-10056
स्मृत	-10057
▁उत्थ	-10058
▁गर्ज	-10059
▁आत्मनि	-10060
▁ह्यत्र	-10061
▁विज्ञाप	-10062
साधु	-10063
ार्थी	-10064
ावुभौ	-10065
▁संकर	-10066
▁सीर्ष	-10067
ात्मिका	-10068
न्सम्यक्	-10069
पर्यन्तं	-10070
सूत	-10071
रूपम्	-10072
▁गावो	-10073
▁षट्त	-10074
ितव्यम्	-10075
▁भास्कर	-10076
▁स्रेयो	-10077
▁याज्ञवल्क्य	-10078
ासीत्	-10079
ोपमम्	-10080
कृत्यं	-10081
▁चरन्न	-10082
▁लभेत्	-10083
▁स्रुते	-10084
यितव्यम्	-10085
▁त्रिभिः	-10086
ानुपलब्धि	-10087
▁व्यावृत्त	-10088
▁कटु	-10089
ख्यां	-10090
▁चाहं	-10091
ायेति	-10092
▁तद्धि	-10093
न्त्येव	-10094
▁मार्गे	-10095
▁ह्येते	-10096
▁ब्रह्मेति	-10097
▁सून्यतानिमित्ता	-10098
म्स	-10099
▁भिष	-10100
▁बलिं	-10101
▁दण्डं	-10102
कारणात्	-10103
▁नियमेन	-10104
▁वीतराग	-10105
लंब	-10106
ेसो	-10107
पत्तौ	-10108
▁उत्तरं	-10109
▁चिकित्	-10110
▁स्थानि	-10111
▁म्रियते	-10112
नेषु	-10113
वचने	-10114
स्फोट	-10115
▁गावः	-10116
▁प्राप्नो	-10117
▁यावज्जीव	-10118
दुर	-10119
न्प	-10120
ेणा	-10121
द्विर	-10122
ात्रा	-10123
▁धारण	-10124
रोत्तर	-10125
▁धत्ते	-10126
▁पितरः	-10127
द्वाक्य	-10128
▁कलिङ्ग	-10129
▁परमात्मा	-10130
▁स्रूयतां	-10131
धेः	-10132
वृष	-10133
▁ऽस	-10134
द्राजा	-10135
न्तस्च	-10136
ोपलब्धि	-10137
▁विरोधि	-10138
▁पृथग्जन	-10139
▁स्वर्गे	-10140
▁पूर्वस्य	-10141
वसेन	-10142
▁पृष	-10143
▁बहुल	-10144
▁विषयो	-10145
▁तावत्स	-10146
▁महाद्यु	-10147
▁कल्प्यते	-10148
विः	-10149
हिर	-10150
लोपे	-10151
ुरोह	-10152
▁महाह	-10153
▁जनमेजय	-10154
▁संबुद्ध	-10155
कथा	-10156
धन्व	-10157
योरु	-10158
मेवैत	-10159
हेत्व	-10160
▁तेषा	-10161
▁प्लव	-10162
▁वन्ध	-10163
प्रियः	-10164
क्ष्यते	-10165
स्चर्यं	-10166
यिष्यामः	-10167
▁जानन्ति	-10168
भया	-10169
स्तौ	-10170
▁यूथ	-10171
त्रास	-10172
सुस्र	-10173
▁माला	-10174
ाग्निं	-10175
▁प्रलय	-10176
▁भोजनं	-10177
▁त्रिविधं	-10178
▁विसंयुक्त	-10179
▁प्रतिष्ठाप्य	-10180
ावह	-10181
भैषज्य	-10182
ाद्यैः	-10183
▁नियाम	-10184
मव्ययम्	-10185
ोऽब्रवी	-10186
▁दर्सनम्	-10187
▁चक्षुःसंस्पर्स	-10188
▁ढ	-10189
भीत	-10190
▁लेप	-10191
ास्वाद	-10192
▁प्रमद	-10193
▁राक्षसी	-10194
नमेव	-10195
ौञ्च	-10196
द्योग	-10197
र्हतः	-10198
▁अयमेव	-10199
▁पदानि	-10200
▁वक्तु	-10201
▁संताप	-10202
कुलो	-10203
ोऽस्म	-10204
▁दोषा	-10205
▁भावं	-10206
ज्ञातो	-10207
▁योऽयं	-10208
भिनिवेस	-10209
▁यथान्या	-10210
▁वर्तमाने	-10211
ताड	-10212
राह	-10213
▁कलौ	-10214
▁गोक	-10215
▁दया	-10216
कर्मण	-10217
▁च्यव	-10218
▁जग्म	-10219
▁दासी	-10220
चित्ता	-10221
▁क्षीरं	-10222
▁तीक्ष्	-10223
▁सनातनम्	-10224
▁समाख्या	-10225
तयो	-10226
ुराण	-10227
धातुर	-10228
भिक्षु	-10229
▁चुम्ब	-10230
▁वल्लभ	-10231
▁ऐन्द्र	-10232
▁सुगन्ध	-10233
▁तद्विषय	-10234
▁पाण्डवः	-10235
ेषण	-10236
स्ने	-10237
▁वाल	-10238
नियमः	-10239
भिधेय	-10240
▁गुरो	-10241
▁सेना	-10242
▁जात्य	-10243
▁भगवति	-10244
▁विनस्यति	-10245
▁तस्मादिति	-10246
प्रो	-10247
▁उपर	-10248
▁राह	-10249
क्षयः	-10250
दानम्	-10251
▁कतमे	-10252
▁परामृ	-10253
▁स्रेण	-10254
मार्गेण	-10255
▁चत्वारः	-10256
▁क्षिप्त्वा	-10257
▁नञ	-10258
▁निव	-10259
क्कुट	-10260
म्यथा	-10261
सृत्य	-10262
▁बलात्	-10263
सिष्यते	-10264
▁भवेन्न	-10265
▁विपुलं	-10266
चयः	-10267
न्त्	-10268
मालि	-10269
▁आयत	-10270
▁भृग	-10271
विवक्ष	-10272
▁उत्तरा	-10273
▁कुङ्कु	-10274
▁दुहिता	-10275
▁राजन्य	-10276
▁सकुन्त	-10277
▁द्विजात	-10278
▁पाण्डवाः	-10279
▁धु	-10280
रोचन	-10281
र्धि	-10282
▁कालि	-10283
▁रुधिर	-10284
▁पितॄणां	-10285
▁रागद्वेष	-10286
▁संस्काराः	-10287
ाती	-10288
कुञ्ज	-10289
▁कापि	-10290
▁घण्ट	-10291
▁रमते	-10292
▁समभि	-10293
ांस्तु	-10294
्यांस्च	-10295
▁अग्निं	-10296
▁क्रियाः	-10297
▁निषिद्ध	-10298
▁साम्प्र	-10299
▁युक्त्या	-10300
व्रज	-10301
क्रमण	-10302
▁मध्व	-10303
सुवर्ण	-10304
▁वज्रं	-10305
▁जनार्दन	-10306
▁ब्राह्मणानां	-10307
▁पतितं	-10308
▁भवेयुः	-10309
र्भविष्यति	-10310
▁प्रतिपत्ति	-10311
ुधः	-10312
▁रय	-10313
तुष्ट	-10314
बिन्दु	-10315
▁प्रसव	-10316
संख्येय	-10317
निरपेक्ष	-10318
▁सामर्थ्य	-10319
प्रतिषेधेन	-10320
डे	-10321
्रत	-10322
याद्	-10323
ावलोक	-10324
ेत्युप	-10325
▁परिपा	-10326
▁ब्राह्मणाः	-10327
▁भवितुमर्हति	-10328
▁महतो	-10329
त्यर्थं	-10330
▁प्रणिपत्य	-10331
भिधाय	-10332
सत्यं	-10333
▁पिङ्ग	-10334
दृष्टिः	-10335
▁निद्रा	-10336
जने	-10337
ाभा	-10338
र्मम	-10339
▁वैक	-10340
▁मांसं	-10341
▁कुन्ती	-10342
▁सूर्यस्य	-10343
▁मनःसंस्पर्स	-10344
याग	-10345
▁वट	-10346
▁तदीय	-10347
सामग्र	-10348
▁दानेन	-10349
▁बाध्यते	-10350
▁स्यात्क	-10351
वौ	-10352
▁अपा	-10353
र्ष्या	-10354
▁धातोः	-10355
ोपसंहार	-10356
▁अन्यस्य	-10357
▁करिष्या	-10358
▁अह्	-10359
▁यदपि	-10360
▁जम्बू	-10361
▁हीयते	-10362
▁तदभावे	-10363
▁वृद्धिः	-10364
▁न्यग्रोध	-10365
चित्य	-10366
▁दिवो	-10367
▁विभुः	-10368
▁मार्गः	-10369
सून्यतया	-10370
▁सुध्यति	-10371
▁जिह्वासंस्पर्स	-10372
द्वचन	-10373
बद्धं	-10374
मुद्रा	-10375
▁जरामरण	-10376
▁तण्डुल	-10377
क्रान्तो	-10378
्यायुष्म	-10379
▁चान्द्र	-10380
▁व्यक्तं	-10381
▁क्षत्रिया	-10382
मये	-10383
▁हतं	-10384
▁दिसं	-10385
▁कुटुम्ब	-10386
मवाप्नोति	-10387
सिल	-10388
मधुर	-10389
ष्मि	-10390
्याथ	-10391
▁रजो	-10392
▁चैनं	-10393
▁बलम्	-10394
ान्धर्म	-10395
ेणिकबुद्ध	-10396
ानुपपत्तिः	-10397
▁सकृदागामि	-10398
▁दल	-10399
त्री	-10400
मतां	-10401
पर्वत	-10402
बन्धः	-10403
लोचना	-10404
▁परिव	-10405
▁क्षुर	-10406
▁वर्णं	-10407
▁विदित	-10408
▁विराग	-10409
▁भवन्तो	-10410
▁स्वसुर	-10411
▁पितामहः	-10412
▁न्यायदीप	-10413
▁समीक्ष्य	-10414
▁घ्राणसंस्पर्स	-10415
वाम्	-10416
▁चैत्य	-10417
▁जपेत्	-10418
▁वणिक्	-10419
▁पाण्डवा	-10420
▁महाबलाः	-10421
▁महामुने	-10422
▁ऽए	-10423
गतां	-10424
▁जपे	-10425
▁न्व	-10426
भ्यनु	-10427
▁जाने	-10428
▁रसाय	-10429
▁सतम्	-10430
ार्थेन	-10431
▁अधुना	-10432
▁ग्रही	-10433
▁प्रकासते	-10434
सनं	-10435
▁ऋण	-10436
भक्ष	-10437
ुपाय	-10438
भूमिं	-10439
संभार	-10440
▁स्फटिक	-10441
▁भगवान्व	-10442
मेतदवोचत्	-10443
▁हिं	-10444
मस्मि	-10445
▁पट्ट	-10446
ादात्म	-10447
▁षष्टि	-10448
स्वरस्य	-10449
प्रतीत्य	-10450
तर्कताण्ड	-10451
▁सर्वाङ्ग	-10452
▁कण	-10453
चन्दन	-10454
▁आधार	-10455
▁ऊर्ज	-10456
▁जीवः	-10457
ान्देव	-10458
▁एतत्प्र	-10459
▁सर्वमिदं	-10460
लङ्	-10461
ायैव	-10462
ौकसः	-10463
मुपाग	-10464
▁व्यर्थ	-10465
ड्ड	-10466
कन्य	-10467
▁इत्	-10468
▁कर्मण्य	-10469
▁भृत	-10470
कुसुम	-10471
हेतुर	-10472
▁प्रहर	-10473
गाल	-10474
▁पण	-10475
ामणि	-10476
ुभिः	-10477
ैक्ष	-10478
द्वस्तु	-10479
▁अत्रैव	-10480
▁पतन्ति	-10481
ग्रा	-10482
स्लि	-10483
िणम्	-10484
▁दाव	-10485
▁यथो	-10486
▁वासो	-10487
क्षणिक	-10488
▁कुष्ठ	-10489
▁धूर्त	-10490
यितव्याः	-10491
डा	-10492
मोष	-10493
ावल	-10494
केतु	-10495
ेक्षण	-10496
▁क्रू	-10497
▁कुमारी	-10498
▁त्रिदस	-10499
र्थान्तर	-10500
ानुपलम्भयोगेन	-10501
रिः	-10502
ारी	-10503
तयैव	-10504
र्वी	-10505
▁वैर	-10506
द्वैत	-10507
येद्व	-10508
▁गर्व	-10509
▁भूषण	-10510
व्याधि	-10511
व्यवसाय	-10512
▁नामानि	-10513
ूम	-10514
ढ्य	-10515
चन्द	-10516
त्तः	-10517
पुरः	-10518
ाराध	-10519
राज्य	-10520
वर्गः	-10521
सत्त्वं	-10522
दृष्टान्त	-10523
▁एतच्छ्रुत्वा	-10524
चीवर	-10525
भिस्	-10526
स्यत	-10527
पार्थ	-10528
▁कम्ब	-10529
वराग्र	-10530
स्तत्स	-10531
▁दत्वा	-10532
ज्ञायते	-10533
ाहित	-10534
▁बभौ	-10535
्रिंस	-10536
▁विषाद	-10537
▁समुत्थ	-10538
दग्ध	-10539
ाह्य	-10540
निर्ग	-10541
▁सोम्य	-10542
▁परिहार	-10543
▁प्रतिवस	-10544
▁स्त्रियो	-10545
ोऽधि	-10546
▁गोचर	-10547
▁रजनी	-10548
चारिणः	-10549
निष्ठा	-10550
ानामेक	-10551
▁समासो	-10552
जिज्ञास	-10553
▁प्रसाध	-10554
तन्त्रम्	-10555
▁सुदारुण	-10556
ाव्यभिचार	-10557
▁प्रज्ञप्त	-10558
▁इन्द्रियाणि	-10559
ायणं	-10560
द्युति	-10561
ीयेत	-10562
काणां	-10563
▁सूतं	-10564
▁कॢप्त	-10565
▁निर्मा	-10566
▁यावच्च	-10567
▁व्यावर्त	-10568
ङ्के	-10569
ज्जग	-10570
भाक्	-10571
रान्	-10572
▁भूतले	-10573
निर्माण	-10574
मुहूर्त	-10575
▁परमार्थतः	-10576
▁ब्रह्मदत्त	-10577
▁न्यायदीपयुत	-10578
त्वादित्यर्थः	-10579
मकरो	-10580
▁कृमि	-10581
▁क्षो	-10582
▁विदध	-10583
चिन्तयत्	-10584
ापर्यन्त	-10585
पिब	-10586
ृसं	-10587
र्थाय	-10588
▁पलास	-10589
संयुतम्	-10590
▁क्षणेन	-10591
लभा	-10592
▁भवा	-10593
▁कामो	-10594
ाविरोध	-10595
▁प्रस्तु	-10596
▁बुद्ध्वा	-10597
मनव	-10598
मरु	-10599
▁पतित	-10600
्यताम्	-10601
ानुवर्त	-10602
▁धर्माण	-10603
ुभय	-10604
▁ऽन	-10605
थर्व	-10606
▁पारमार्थ	-10607
▁भिक्षुणा	-10608
कराः	-10609
धाना	-10610
लज्ज	-10611
ीमूत	-10612
▁समर	-10613
व्रता	-10614
▁अक्षर	-10615
▁कायेन	-10616
▁गुरुं	-10617
▁मामेव	-10618
▁आहोस्व	-10619
▁पुनर्द	-10620
धनु	-10621
रिण	-10622
▁पो	-10623
ितान	-10624
ूर्ज	-10625
ेयाः	-10626
मांस्च	-10627
ापयेत्	-10628
▁जनस्य	-10629
▁धीमता	-10630
▁पार्ष	-10631
▁ह्येव	-10632
द्भुतम्	-10633
▁पत्त्र	-10634
▁भिक्षुसंघ	-10635
संयु	-10636
ापरः	-10637
▁हेतौ	-10638
कीर्ति	-10639
मित्येत	-10640
▁स्मसान	-10641
ावेस	-10642
प्राध	-10643
बाह्य	-10644
▁उदार	-10645
▁च्यु	-10646
मुक्तो	-10647
ानिरोध	-10648
▁अनादि	-10649
▁सुन्दर	-10650
पारमितां	-10651
स्मिन्वि	-10652
सञ्च	-10653
▁अरण	-10654
भाण्ड	-10655
कर्तुं	-10656
स्वामि	-10657
ान्ताः	-10658
▁येऽपि	-10659
▁योद्ध	-10660
▁स्रोत्रसंस्पर्स	-10661
वलय	-10662
द्गो	-10663
▁तनू	-10664
▁सत्प	-10665
नुग्रह	-10666
त्वात्न	-10667
▁वैस्वदेव	-10668
▁विसिष्यते	-10669
कृतिं	-10670
ध्वजः	-10671
स्थले	-10672
तत्त्वं	-10673
ार्थस्य	-10674
निर्वर्त	-10675
▁गुणानां	-10676
कुच	-10677
मिवो	-10678
मृषि	-10679
ायुः	-10680
ीयसी	-10681
वाञ्छ	-10682
ायतनं	-10683
▁तक्ष	-10684
वत्प्र	-10685
ान्वित	-10686
▁निपुण	-10687
▁सिंहनाद	-10688
ासित	-10689
भुक्त	-10690
स्विना	-10691
ाभ्यास	-10692
▁आत्मने	-10693
▁स्यामा	-10694
ात्प्रति	-10695
▁क्लिष्ट	-10696
▁इन्द्राय	-10697
▁प्रोक्तः	-10698
ज्वल	-10699
ङ्ख्य	-10700
ातिसय	-10701
येदिति	-10702
▁नृपते	-10703
मात्मनि	-10704
▁नीत्वा	-10705
▁समाधिं	-10706
▁पुरुषेण	-10707
ग्निहोत्र	-10708
▁स्त्रिया	-10709
ूता	-10710
दाम्	-10711
हन्त	-10712
▁मेष	-10713
ङ्गम्	-10714
योस्त	-10715
▁दससु	-10716
▁मूले	-10717
▁नपुंस	-10718
▁रक्षो	-10719
▁परस्मै	-10720
▁प्रियम्	-10721
मुद्दिस्य	-10722
▁प्रकुर्व	-10723
▁इतो	-10724
▁सीद	-10725
▁रुचि	-10726
र्द्धि	-10727
स्तेनोपसं	-10728
षष्ट	-10729
क्रमि	-10730
धर्मे	-10731
▁हविः	-10732
▁सिवम्	-10733
▁तृतीयः	-10734
▁मित्रं	-10735
▁कुरुष्व	-10736
न्सारिपुत्र	-10737
चर्म	-10738
रस्च	-10739
▁नाड	-10740
रित्य	-10741
ादीन्	-10742
द्भवेत्	-10743
मिदानीं	-10744
▁सौवर्ण	-10745
ावति	-10746
िनम्	-10747
▁यद्ध	-10748
क्षयम्	-10749
ोऽर्थः	-10750
▁निराह	-10751
▁विसोध	-10752
ध्यवसाय	-10753
▁प्रतिगृह्य	-10754
तत्	-10755
दाता	-10756
सुतो	-10757
न्मूल	-10758
▁विभव	-10759
▁वरुणो	-10760
▁तद्वत्	-10761
▁स्वाभाविक	-10762
भूतम्	-10763
ुद्धे	-10764
▁नायक	-10765
▁बुध्य	-10766
▁तादृसं	-10767
▁नामधेयं	-10768
▁विद्यां	-10769
त्येन	-10770
ानिष्ट	-10771
▁चात्म	-10772
विसेष्य	-10773
▁केचित्त	-10774
सन्निकर्ष	-10775
मुष	-10776
देवत	-10777
▁जननी	-10778
▁वनम्	-10779
त्यस्य	-10780
व्रताः	-10781
▁मातुः	-10782
▁मानवाः	-10783
ेन्न	-10784
गमात्	-10785
नेनैव	-10786
सत्या	-10787
स्नान	-10788
ावसेष	-10789
ैकस्य	-10790
▁नाधि	-10791
▁नासं	-10792
स्तीत्य	-10793
हान	-10794
टिति	-10795
दृक्	-10796
द्दोष	-10797
म्भसि	-10798
याणाम	-10799
▁तन्त	-10800
पूर्वकं	-10801
ात्मानः	-10802
▁प्रियो	-10803
▁प्रवृद्ध	-10804
▁दय	-10805
सूदन	-10806
ुरिव	-10807
लक्षणेन	-10808
▁बलवान्	-10809
▁वर्त्त	-10810
▁संयुक्तो	-10811
यात	-10812
हतं	-10813
▁तेष	-10814
▁वृणी	-10815
▁स्वाप	-10816
▁उपलम्भयोगेन	-10817
मथो	-10818
▁सनि	-10819
▁भल्ल	-10820
▁ललित	-10821
युक्तेन	-10822
त्वाद्वि	-10823
▁स्थापयित्वा	-10824
ुप्	-10825
ेतः	-10826
▁रथे	-10827
▁छत्र	-10828
▁लेभे	-10829
▁पृष्ठतः	-10830
▁सर्वकर्म	-10831
ासीन	-10832
नोक्त	-10833
ेद्वि	-10834
सतसहस्राणि	-10835
षाढ	-10836
जस्य	-10837
्युत	-10838
▁वयो	-10839
चित्तो	-10840
मनुमान	-10841
▁देवास्च	-10842
▁मनोविज्ञान	-10843
▁काम्य	-10844
▁बिन्दु	-10845
▁सोऽप्य	-10846
▁प्राक्त	-10847
▁जेत	-10848
▁नीत	-10849
च्येत	-10850
ोऽभूत्	-10851
▁द्वाव	-10852
धिकरणम्	-10853
▁दर्सित	-10854
▁प्रवर्तन्ते	-10855
मनसो	-10856
ुष्प	-10857
▁तूप	-10858
च्छसि	-10859
बद्धा	-10860
िकाया	-10861
न्धर्म	-10862
▁त्रिवृ	-10863
पराक्रमः	-10864
▁दर्सितः	-10865
▁योजयेत्	-10866
स्मिन्नर्थे	-10867
यापि	-10868
ात्पूर्व	-10869
जाय	-10870
ूना	-10871
▁भवं	-10872
▁ज्याय	-10873
▁तस्यै	-10874
▁नियोग	-10875
▁कन	-10876
▁वेष	-10877
▁रूपि	-10878
म्तत्र	-10879
▁संवेद	-10880
ेभ्यस्च	-10881
पूर्वकम्	-10882
▁सर्वज्ञता	-10883
▁ऽऽ	-10884
▁बीभ	-10885
स्चिद	-10886
▁पतति	-10887
▁मारिष	-10888
▁सक्नो	-10889
ज्ञप्ति	-10890
▁राज्ञे	-10891
▁विचिन्त	-10892
▁दर्सितम्	-10893
▁निरपेक्ष	-10894
▁नास्त्येव	-10895
▁कष	-10896
▁उरु	-10897
▁दंस	-10898
▁ससी	-10899
र्णवे	-10900
▁धन्य	-10901
▁येषु	-10902
ावलम्ब	-10903
▁पूर्णे	-10904
▁तेषामपि	-10905
▁ब्रह्मचर्यं	-10906
ाग्नौ	-10907
▁सिखि	-10908
चित्तः	-10909
ाम्यहं	-10910
▁तत्ते	-10911
▁परंतप	-10912
▁व्ययो	-10913
▁जन्मनि	-10914
▁प्राणः	-10915
▁वर्तन्ते	-10916
▁कायसंस्पर्स	-10917
क्रं	-10918
मूर्छ	-10919
विस्व	-10920
▁भृङ्ग	-10921
▁वरानने	-10922
▁विक्रम	-10923
▁सर्वेण	-10924
▁ससाङ्क	-10925
▁आचार्यः	-10926
▁दम	-10927
▁आरूप्य	-10928
▁प्रयाति	-10929
धनं	-10930
▁इदम	-10931
▁किमा	-10932
▁आत्मन	-10933
चित्र्य	-10934
▁ज्योतिर	-10935
▁नमस्कृत्य	-10936
ुराज	-10937
▁गोध	-10938
ारभ्य	-10939
▁नीलो	-10940
▁मानं	-10941
परम्पर	-10942
▁यात्र	-10943
▁अन्यतर	-10944
▁स्वस्त्य	-10945
▁ब्रह्मण्य	-10946
मुत	-10947
ख्यो	-10948
पस्च	-10949
ितस्त	-10950
▁योगो	-10951
ैन्द्र	-10952
▁दक्षिणां	-10953
ज्जि	-10954
ज्वर	-10955
न्यद	-10956
▁मयो	-10957
वृन्द	-10958
सत्ता	-10959
▁पञ्चद	-10960
▁प्रणय	-10961
▁करिष्य	-10962
▁नित्यसः	-10963
▁कार्याणि	-10964
▁विचिकित्	-10965
ख्यः	-10966
धस्य	-10967
न्धन	-10968
त्तरः	-10969
ितव्य	-10970
▁असेष	-10971
▁गौरी	-10972
▁निरीक्ष्य	-10973
नभि	-10974
मितः	-10975
मूले	-10976
र्थेन	-10977
महासाह	-10978
योरिति	-10979
ालंकार	-10980
सङ्कल्प	-10981
▁दुःखेन	-10982
▁वैवस्व	-10983
▁द्विर्व	-10984
▁बोध्यम्	-10985
न्तोदात्त	-10986
▁निर्दिष्ट	-10987
संप	-10988
▁एन	-10989
म्बुज	-10990
विसते	-10991
▁दैवं	-10992
ुदाहरण	-10993
▁अर्जुन	-10994
▁अवकासः	-10995
▁अविद्य	-10996
▁एतेषां	-10997
▁कृष्णे	-10998
▁विकल्पः	-10999
▁इत्युक्तः	-11000
▁सहस्राक्ष	-11001
▁ब्रह्मचारी	-11002
▁प्रादुर्भावो	-11003
▁इयम	-11004
योर्न	-11005
च्छाद्य	-11006
स्माभिः	-11007
ोपपद्यते	-11008
▁क्वचित्त	-11009
गि	-11010
र्गो	-11011
▁संद	-11012
▁यथाऽ	-11013
▁यौवन	-11014
▁स्नु	-11015
ञ्जलिं	-11016
रिक्षे	-11017
▁यज्ञः	-11018
▁अस्त्य	-11019
प्रयोजनम्	-11020
▁कस्मान्न	-11021
मोघ	-11022
यैः	-11023
वधू	-11024
ण्ये	-11025
न्मु	-11026
हत्य	-11027
▁चरि	-11028
▁मृष	-11029
विलास	-11030
▁इहैव	-11031
▁विबुध	-11032
▁किल्बि	-11033
▁पठ्यते	-11034
▁मन्त्री	-11035
ासह	-11036
समूह	-11037
स्थूल	-11038
ांस्य	-11039
▁महाद	-11040
▁सङ्घ	-11041
स्रुते	-11042
▁महारथाः	-11043
चरं	-11044
्वो	-11045
ामति	-11046
▁हरी	-11047
नियुत	-11048
योर्य	-11049
न्यासः	-11050
▁यन्नि	-11051
▁निहत्य	-11052
▁स्यात्प	-11053
ममु	-11054
हारी	-11055
ीवरं	-11056
▁सनक	-11057
स्वान	-11058
▁तिसृ	-11059
म्भवति	-11060
ात्परि	-11061
▁सन्धि	-11062
▁नामधेय	-11063
▁विनस्य	-11064
▁वर्णानां	-11065
विनिर्मुक्त	-11066
रियं	-11067
मुखम्	-11068
▁तामेव	-11069
▁त्रिक	-11070
▁तथागतः	-11071
▁भावयति	-11072
▁वक्ष्ये	-11073
▁स्वेच्छ	-11074
मभव	-11075
मल्प	-11076
काभाव	-11077
स्रेण	-11078
च्छामि	-11079
▁स्नाप	-11080
ोपपत्ति	-11081
▁यथासुख	-11082
भिन्नं	-11083
▁एतत्स	-11084
▁दुरास	-11085
▁सिञ्च	-11086
खेद	-11087
▁राज्ये	-11088
▁स्वभावेन	-11089
▁सर्वेषामेव	-11090
यूथ	-11091
कृत्त	-11092
▁सुधा	-11093
स्त्राणि	-11094
कव	-11095
घृत	-11096
ावद	-11097
▁हं	-11098
▁हिम	-11099
मूत्र	-11100
▁मानि	-11101
▁पुष्पं	-11102
पुल	-11103
पादे	-11104
▁कायं	-11105
▁मातर	-11106
द्वयेन	-11107
ारिद्र	-11108
▁वचनम्	-11109
▁प्रत्यक्षेण	-11110
थवा	-11111
ीयेन	-11112
▁लाल	-11113
▁हान	-11114
स्तद्	-11115
▁भूति	-11116
मायाति	-11117
▁क्षोभ	-11118
▁दोषाः	-11119
▁समाधौ	-11120
ङ्गीकार	-11121
▁चतुष्ट	-11122
▁सत्कृत्य	-11123
▁प्रयत्नतः	-11124
▁द्विजोत्तम	-11125
कमल	-11126
च्छद	-11127
तापि	-11128
मारुत	-11129
संस्र	-11130
ैकत्व	-11131
▁चायं	-11132
▁मथुर	-11133
कारिणः	-11134
ान्धर्व	-11135
सब्दार्थ	-11136
स्तत्रैव	-11137
ोऽन्यत्र	-11138
▁भवितव्यं	-11139
▁वैस्वानर	-11140
▁सामान्येन	-11141
्णी	-11142
भावि	-11143
मनसः	-11144
तेजसा	-11145
▁आर्त	-11146
▁छाया	-11147
▁यदाह	-11148
▁बिल्व	-11149
▁गन्तुं	-11150
▁तत्काल	-11151
▁दंष्ट्र	-11152
लीब	-11153
निका	-11154
नेमि	-11155
▁दूत	-11156
मादयः	-11157
▁रसेन	-11158
रिक्षं	-11159
ेऽर्थे	-11160
▁सपत्न	-11161
सङ्ख्या	-11162
▁हस्तेन	-11163
▁सञ्ज्ञा	-11164
ामद	-11165
दिने	-11166
ेरपि	-11167
▁आसु	-11168
▁चूड	-11169
दर्सनः	-11170
▁मधुरं	-11171
▁एवंविध	-11172
त्पत्तेः	-11173
▁गाण्डीव	-11174
▁सर्वासु	-11175
▁व्यतिरिक्त	-11176
साहस्रमहासाह	-11177
ावु	-11178
ेताः	-11179
जग्मु	-11180
▁दुर्बल	-11181
▁यत्नतः	-11182
▁महाबलम्	-11183
▁प्राणिनां	-11184
मेण	-11185
सात	-11186
मासं	-11187
ूर्ध	-11188
▁याय	-11189
ृत्ति	-11190
▁उत्तरे	-11191
▁करोत्य	-11192
▁सत्काय	-11193
▁स्मृत्वा	-11194
ध्न	-11195
वाग	-11196
मुखाः	-11197
▁गन्तु	-11198
▁नृणां	-11199
▁वदेत्	-11200
▁तथान्य	-11201
मृता	-11202
ापति	-11203
ायति	-11204
▁परिघ	-11205
▁म्रिय	-11206
दुच्यते	-11207
स्त्रेण	-11208
▁पस्यतः	-11209
चयं	-11210
स्रे	-11211
▁कौस	-11212
▁दसम	-11213
द्धेत	-11214
ाक्षी	-11215
त्पादः	-11216
मार्गः	-11217
▁एकदेस	-11218
▁स्वच्छ	-11219
▁तत्पूर्व	-11220
▁रघ	-11221
गणैः	-11222
धिम्	-11223
वन्न	-11224
ताम्र	-11225
िकानि	-11226
▁स्खल	-11227
द्वीपे	-11228
प्राणि	-11229
सून्या	-11230
ोऽन्यः	-11231
▁दधाति	-11232
भूतानां	-11233
सक्त्या	-11234
्यादिषु	-11235
▁दुर्वि	-11236
▁विपस्य	-11237
▁इन्द्रस्य	-11238
सुध	-11239
करेण	-11240
न्मन	-11241
भिमत	-11242
ष्ठो	-11243
ापान	-11244
जीव्य	-11245
▁परुष	-11246
कौसल्य	-11247
गृहीतं	-11248
▁स्वाद	-11249
प्रविष्ट	-11250
▁धर्मज्ञ	-11251
थिं	-11252
पगत	-11253
पसु	-11254
वसं	-11255
छन्द	-11256
ारम्	-11257
▁कृष	-11258
द्येत	-11259
्यमेव	-11260
▁पक्षि	-11261
स्पृस्य	-11262
▁द्वितीयो	-11263
▁परिव्राज	-11264
न्सम्यक्संबुद्ध	-11265
▁विस्तर	-11266
▁हन्तुं	-11267
▁ऋद्धिपाद	-11268
▁सून्यतया	-11269
दै	-11270
नष्ट	-11271
निति	-11272
▁सोढ	-11273
त्कार	-11274
पिष्ट	-11275
मुपाद	-11276
▁नावि	-11277
योर्नि	-11278
▁किमिदं	-11279
परी	-11280
धृक्	-11281
ेरेव	-11282
▁एकदा	-11283
मानेषु	-11284
ाद्भुत	-11285
द्दिष्ट	-11286
ित्यत्र	-11287
▁क्षमति	-11288
र्ब्रह्म	-11289
▁प्राग्व	-11290
▁इत्येवमादि	-11291
▁पृत	-11292
ग्निर	-11293
ान्सम	-11294
गाढ	-11295
माता	-11296
▁होत	-11297
▁चरितं	-11298
ान्तरस्य	-11299
▁तच्छब्द	-11300
▁तत्रेति	-11301
▁एतस्मिन्न	-11302
▁समुत्पन्न	-11303
▁जठ	-11304
सरणं	-11305
ाभिः	-11306
▁करं	-11307
फलप्र	-11308
▁कौरव	-11309
▁जङ्घ	-11310
ध्वर्य	-11311
ान्विता	-11312
▁सान्तिं	-11313
▁भारद्वाज	-11314
स्तत	-11315
ात्न	-11316
कस्या	-11317
▁अकार	-11318
▁गुल्	-11319
▁परतो	-11320
स्छन्द	-11321
▁प्रबन्ध	-11322
▁ब्रवीमि	-11323
▁पूर्वापर	-11324
भ्युपगमात्	-11325
जत	-11326
बेर	-11327
ेऽन	-11328
जन्त	-11329
ानति	-11330
कत्वा	-11331
दीक्ष	-11332
स्वेद	-11333
▁मृषा	-11334
मार्गं	-11335
▁सतानि	-11336
प्सितम्	-11337
▁विप्राः	-11338
▁गङ्गानदीवालुक	-11339
शं	-11340
ुपर	-11341
ैरे	-11342
कुली	-11343
गुणो	-11344
येऽपि	-11345
▁अनुर	-11346
▁मृतं	-11347
▁ललाट	-11348
रीत्या	-11349
साधर्म	-11350
▁छन्दो	-11351
▁तरङ्ग	-11352
▁सर्वम्	-11353
भ्युपगमे	-11354
ीरे	-11355
गतिं	-11356
ासिव	-11357
ोदित	-11358
ैवेति	-11359
▁क्वा	-11360
स्वराः	-11361
ाविष्ट	-11362
▁बौद्ध	-11363
काम्यया	-11364
त्पाद्य	-11365
▁प्रणाम	-11366
धिष्ठानं	-11367
प्राप्ता	-11368
▁प्रतीयमान	-11369
▁टी	-11370
▁हैव	-11371
माङ्ग	-11372
विष्य	-11373
▁तर्ज	-11374
धर्मस्य	-11375
▁सप्तदस	-11376
▁भेदाभेद	-11377
▁प्रोक्तो	-11378
▁महापुरुष	-11379
▁क्षेत्रज्ञ	-11380
नाह	-11381
योष	-11382
▁इष	-11383
यच्छ	-11384
र्भु	-11385
निवास	-11386
्राजा	-11387
▁पाप्	-11388
▁त्राय	-11389
▁नत्वा	-11390
▁पूर्वः	-11391
▁विसेष्य	-11392
▁संपूर्ण	-11393
भवन	-11394
कायः	-11395
ध्यं	-11396
लेपन	-11397
स्पति	-11398
▁स्थू	-11399
कृत्या	-11400
ेत्येव	-11401
▁कार्मु	-11402
ुरी	-11403
ोषं	-11404
त्पू	-11405
भिरि	-11406
लिना	-11407
व्यय	-11408
त्तमं	-11409
▁तथता	-11410
▁करुणा	-11411
▁द्वैत	-11412
▁सख्या	-11413
▁राजर्ष	-11414
▁सरवर्ष	-11415
▁साध्ये	-11416
▁प्रभुम्	-11417
▁गन्तव्यं	-11418
▁पस्चात्त	-11419
▁विचिन्त्य	-11420
▁नेदं	-11421
ेयमिति	-11422
▁उपपद्यते	-11423
▁देवतानां	-11424
▁प्राप्यते	-11425
ेसे	-11426
द्यान	-11427
ासिनः	-11428
प्रयोगे	-11429
▁पण्डित	-11430
ेऽप	-11431
घ्नी	-11432
द्रि	-11433
▁कथित	-11434
द्यापि	-11435
मत्त्व	-11436
सिद्धः	-11437
▁कार्ष	-11438
▁अधिकार	-11439
▁स्रेष्ठि	-11440
▁इत्युक्तं	-11441
▁विस्तीर्ण	-11442
र्थी	-11443
▁हनि	-11444
युज्य	-11445
ेत्यत	-11446
▁मृता	-11447
मभ्युप	-11448
▁द्योत	-11449
▁संविद	-11450
▁क्षणात्	-11451
▁नित्यम्	-11452
▁हिरण्यगर्भ	-11453
▁सून्यतासून्य	-11454
ङः	-11455
दिर	-11456
ापा	-11457
▁भण	-11458
▁पिना	-11459
▁वर्म	-11460
स्वप्न	-11461
▁चक्रि	-11462
▁परलोक	-11463
▁हरिम्	-11464
▁तीर्थे	-11465
▁तुल्यं	-11466
▁स्फुरति	-11467
ांसो	-11468
▁बाढ	-11469
▁पाता	-11470
▁वहति	-11471
ोक्तिः	-11472
▁विषयं	-11473
व्यञ्जन	-11474
▁विचारणा	-11475
मिच्छन्ति	-11476
गमम्	-11477
हर्त	-11478
त्कथं	-11479
▁सेयं	-11480
तानागत	-11481
सक्तिः	-11482
दर्सयति	-11483
ापेक्षा	-11484
▁ज्योत्	-11485
▁परित्र	-11486
▁पूर्णं	-11487
▁हिरण्यकसि	-11488
ऽय	-11489
ीक	-11490
ावी	-11491
मादौ	-11492
िरुप	-11493
द्वयम	-11494
रुन्ध	-11495
प्रहात	-11496
प्रकर्ष	-11497
▁तथागतो	-11498
▁उच्यन्ते	-11499
▁लोकोत्तर	-11500
चारो	-11501
स्रि	-11502
विरोधि	-11503
▁सदृसं	-11504
ावृत्ति	-11505
▁तत्परि	-11506
भविष्यति	-11507
▁विज्ञेया	-11508
द्धं	-11509
द्धो	-11510
द्रथ	-11511
▁निधनं	-11512
▁सुखेन	-11513
▁गुरुणा	-11514
▁भक्ष्य	-11515
▁वृष्टि	-11516
▁साक्षी	-11517
त्यादिना	-11518
▁व्याख्य	-11519
▁प्राणायाम	-11520
णुक	-11521
नोर	-11522
वन्	-11523
ङ्कं	-11524
्यपि	-11525
▁अचि	-11526
▁आहु	-11527
विधिना	-11528
त्पत्तौ	-11529
▁तमुवाच	-11530
▁धर्मदेस	-11531
▁संपूज्य	-11532
व्यवच्छेद	-11533
▁माहात्म्यं	-11534
▁रेण	-11535
▁पारं	-11536
पुत्रा	-11537
▁मरुतो	-11538
वसा	-11539
स्माक	-11540
ान्पर	-11541
ान्वै	-11542
▁नरके	-11543
▁एवञ्च	-11544
▁पुनर्य	-11545
▁साध्यं	-11546
▁नारायणं	-11547
▁सम्प्रसार	-11548
▁महासत्त्वा	-11549
मांसा	-11550
र्महा	-11551
र्लोक	-11552
्यमाण	-11553
्याणां	-11554
▁अर्थे	-11555
▁विदूष	-11556
▁सहिता	-11557
▁उपेक्ष	-11558
▁समनन्तर	-11559
▁यथाक्रमं	-11560
घ्ने	-11561
माचर	-11562
▁गमनं	-11563
च्छिद्र	-11564
मस्नुते	-11565
▁तदुक्तं	-11566
▁हृषीकेस	-11567
चिव	-11568
जिन	-11569
िरो	-11570
क्तु	-11571
क्रे	-11572
नास्व	-11573
ष्टुभ	-11574
ाख्या	-11575
▁वेदे	-11576
▁विलम्ब	-11577
▁क्रुद्धः	-11578
धाः	-11579
ुरे	-11580
▁घर्म	-11581
▁क्रमः	-11582
सहस्रेण	-11583
स्पृष्ट	-11584
▁देवान्	-11585
▁विवर्त	-11586
▁अनुदात्त	-11587
कला	-11588
पराय	-11589
सेषे	-11590
तिरेव	-11591
द्दीप	-11592
स्ताम	-11593
ित्त्व	-11594
▁गुरोः	-11595
विमुक्त	-11596
▁दिव्येन	-11597
▁प्रसादं	-11598
▁बिभर्ति	-11599
▁प्रतिभाति	-11600
वेस्म	-11601
▁उपदेस	-11602
▁विन्य	-11603
ेन्द्रो	-11604
▁भवन्तः	-11605
▁लोल	-11606
ाप्या	-11607
प्रभेद	-11608
▁नानार	-11609
▁न्यास	-11610
▁विसृज	-11611
ज्ञानात्	-11612
▁बोधिसत्वस्य	-11613
षये	-11614
तम्य	-11615
यामः	-11616
▁तदन	-11617
युग्म	-11618
ाद्धे	-11619
▁निपत	-11620
मर्थम्	-11621
▁स्मार	-11622
▁तद्धर्म	-11623
▁इत्युक्ते	-11624
वप	-11625
गल्	-11626
देहि	-11627
ब्धं	-11628
ार्ज	-11629
ोदकं	-11630
▁नगरे	-11631
▁पसवो	-11632
▁मुनय	-11633
▁सुष्ठु	-11634
▁प्रदीप्त	-11635
▁वाक्यमब्रवीत्	-11636
चितः	-11637
पुरो	-11638
ीकरण	-11639
विद्व	-11640
▁सुते	-11641
पद्येत	-11642
▁दीप्य	-11643
▁लाङ्ग	-11644
▁सुतम्	-11645
▁पुत्राः	-11646
▁परिपृच्छ	-11647
▁बृहस्पतिः	-11648
ाभं	-11649
ध्वा	-11650
विधः	-11651
द्विषय	-11652
▁कदम्ब	-11653
▁त्रास	-11654
▁पाषाण	-11655
▁पुरतो	-11656
▁मध्यमा	-11657
▁तत्फल	-11658
प्रणिधान	-11659
ाहे	-11660
ोद्ग	-11661
ाप्ति	-11662
▁दिति	-11663
▁सोमा	-11664
▁उपमान	-11665
▁कतमत्	-11666
▁गर्भं	-11667
स्मिन्द	-11668
▁बाह्या	-11669
▁सिष्या	-11670
परिपूर्ण	-11671
प्रत्ययं	-11672
▁चतुर्थं	-11673
ोल	-11674
चरा	-11675
जातो	-11676
दत्तं	-11677
▁आभास	-11678
▁वेदा	-11679
ेष्यति	-11680
परिग्रहः	-11681
▁भावानां	-11682
वतार	-11683
ष्यत	-11684
ोऽद्य	-11685
▁आदेस	-11686
वृत्तौ	-11687
▁सात्व	-11688
▁पस्यसि	-11689
▁विख्या	-11690
▁जीवितम्	-11691
▁द्विगुणं	-11692
▁संप्रकास	-11693
सान्	-11694
▁कपोल	-11695
▁जङ्ग	-11696
▁ह्युप	-11697
▁कर्तरि	-11698
▁मोक्षं	-11699
▁स्वादु	-11700
▁नमस्कार	-11701
▁पर्यन्त	-11702
▁निर्वाणं	-11703
▁उपसंक्रम्य	-11704
क्षौ	-11705
परेण	-11706
तोऽनु	-11707
त्तरे	-11708
ध्वम्	-11709
▁जम्बु	-11710
▁सङ्का	-11711
मन्यत्र	-11712
विषयत्व	-11713
▁निबन्ध	-11714
▁विद्यया	-11715
न्वै	-11716
ानुष	-11717
▁सना	-11718
नेऽपि	-11719
ुर्या	-11720
्यन्तर	-11721
▁माद्र	-11722
▁वैसेष	-11723
▁सक्तिर	-11724
▁पुनर्वि	-11725
▁कर्तृत्व	-11726
▁कुड	-11727
त्पुन	-11728
दुर्म	-11729
▁सनत्	-11730
▁स्वपर	-11731
ङ्गुष्ठ	-11732
ोऽयमिति	-11733
▁तान्सर्व	-11734
▁सिद्धान्ते	-11735
ल्लास	-11736
ापयति	-11737
ावबोध	-11738
▁गत्व	-11739
द्वयस्य	-11740
▁प्रतिप	-11741
▁प्रष्ट	-11742
▁राजानो	-11743
▁अद्यापि	-11744
▁स्थाप्य	-11745
▁प्रवर्त्त	-11746
कायो	-11747
विनय	-11748
▁गौः	-11749
▁रघु	-11750
▁सतः	-11751
▁सरि	-11752
लाङ्ग	-11753
स्तम्	-11754
ार्ति	-11755
मण्डलं	-11756
▁यन्ति	-11757
▁स्रुता	-11758
▁तद्वचनं	-11759
ाद्ब्रह्म	-11760
▁तत्प्रत्य	-11761
▁प्रतिपन्न	-11762
ृषि	-11763
▁रभ	-11764
थुनं	-11765
▁सीम	-11766
म्बरे	-11767
रूपाः	-11768
▁बाहू	-11769
▁भीमं	-11770
▁अन्यः	-11771
चित्तेन	-11772
चित्तस्य	-11773
▁चतुर्णां	-11774
▁हेत्वाभास	-11775
घोरं	-11776
मेवा	-11777
यान्	-11778
▁फेन	-11779
विषाण	-11780
▁धाता	-11781
वर्त्म	-11782
ाद्व्य	-11783
विसेषात्	-11784
▁पूजयित्वा	-11785
▁भगवानुवाच	-11786
कृप	-11787
ूति	-11788
बलात्	-11789
▁हरति	-11790
▁आरम्भ	-11791
▁हिताय	-11792
सामग्री	-11793
ांस्चैव	-11794
सङ्क्याह	-11795
▁विज्ञात	-11796
▁विस्तार	-11797
न्मि	-11798
राट्	-11799
▁मैवम्	-11800
▁वर्षं	-11801
▁विभज्य	-11802
स्रेष्ठं	-11803
▁सत्पुरुष	-11804
▁व्याख्यातम्	-11805
ोऽयम्	-11806
▁नाम्	-11807
▁हर्य	-11808
▁अहङ्कार	-11809
सिद्धिरिति	-11810
वीं	-11811
सकृ	-11812
ूतं	-11813
ामभि	-11814
ुरुप	-11815
ादिभि	-11816
▁असति	-11817
▁पल्ल	-11818
पञ्चास	-11819
▁व्याज	-11820
ेष्विति	-11821
्यर्थम्	-11822
▁संलक्ष	-11823
ाप्नुयात्	-11824
मर्	-11825
मस्म	-11826
▁इतः	-11827
▁गोष	-11828
▁भान	-11829
▁मरि	-11830
▁एवमा	-11831
स्त्रय	-11832
▁केषां	-11833
▁विराट	-11834
द्भ्यां	-11835
▁वृत्तौ	-11836
प्राप्ते	-11837
▁द्विविधं	-11838
▁प्रणिधान	-11839
त्सर	-11840
विकल	-11841
ित्थ	-11842
विषयो	-11843
धिकरणे	-11844
स्तम्ब	-11845
▁सद्भाव	-11846
▁पुष्पाणि	-11847
▁सिक्षितव्यं	-11848
वते	-11849
▁नट	-11850
धस्त	-11851
र्णो	-11852
▁भट्ट	-11853
▁महाध	-11854
▁हरित	-11855
▁निपति	-11856
▁तर्ह्य	-11857
▁बहूनां	-11858
▁महात्मानं	-11859
प्रज्ञापारमित	-11860
नता	-11861
सयः	-11862
योगव	-11863
▁सिष	-11864
कार्ष	-11865
▁भवनं	-11866
मत्कार	-11867
मुपैति	-11868
▁अन्नं	-11869
▁एवायं	-11870
द्बुद्ध	-11871
▁आदित्या	-11872
व्याख्यान	-11873
▁उपाध्याय	-11874
▁निर्वर्त	-11875
मितर	-11876
▁करा	-11877
▁वेत	-11878
▁सकट	-11879
प्रेत	-11880
चिकित्	-11881
मपेक्ष	-11882
▁वयस्य	-11883
▁परमाणु	-11884
▁स्रेयः	-11885
ान्विताः	-11886
▁प्राधान्य	-11887
मैः	-11888
ुर्द	-11889
मुग्र	-11890
त्सर्य	-11891
ब्रूहि	-11892
म्यहम्	-11893
▁चेत्स	-11894
▁बाधते	-11895
▁येषाम	-11896
व्यङ्ग्य	-11897
▁तत्राप्य	-11898
▁तस्माद्व	-11899
▁विष्णुना	-11900
▁भवतीत्यर्थः	-11901
▁भीष	-11902
वन्ति	-11903
वृत्ते	-11904
स्यामः	-11905
होत्रं	-11906
▁नारदः	-11907
▁पृथ्व	-11908
▁त्रयोद	-11909
▁प्रतिग्रह	-11910
▁प्रकीर्तितः	-11911
केव	-11912
राजा	-11913
ेकेन	-11914
▁भवः	-11915
▁नासौ	-11916
▁ददृसु	-11917
मानानां	-11918
▁लभन्ते	-11919
▁वसुंधरा	-11920
▁वस्तुनः	-11921
▁सर्वमेत	-11922
▁मनसिकरोति	-11923
गमि	-11924
ट्ठ	-11925
माष	-11926
वोऽ	-11927
दिसि	-11928
पट्ट	-11929
ोपमः	-11930
▁पयसा	-11931
▁संस्त	-11932
भ्युपगम	-11933
▁तत्रोप	-11934
▁तेषाम्	-11935
▁द्युति	-11936
▁तेषामेव	-11937
▁निस्चित	-11938
▁प्रमाणेन	-11939
स्सर्गः	-11940
▁प्रणीत	-11941
▁प्रव्राज	-11942
र्जीव	-11943
▁मत्प्र	-11944
▁चिन्मात्र	-11945
ुषित	-11946
▁वाऽ	-11947
▁आद्ये	-11948
▁मरुतः	-11949
▁कक्ष	-11950
▁द्या	-11951
दृस्यत	-11952
▁इदानी	-11953
▁कुमारो	-11954
▁रोहिणी	-11955
▁वायुना	-11956
व्यवस्था	-11957
▁पुरुषोत्तम	-11958
लीन	-11959
ुष्यं	-11960
ेयस्य	-11961
ेऽन्त	-11962
▁सीतो	-11963
▁गुणैः	-11964
▁मुनयः	-11965
▁संघात	-11966
▁स्वप्रकास	-11967
तामपि	-11968
पात्रं	-11969
▁भ्राज	-11970
▁याचित	-11971
▁संवृति	-11972
▁असंस्कृत	-11973
प्रवृत्तिः	-11974
रक	-11975
धीत	-11976
ैरं	-11977
पाता	-11978
लाभः	-11979
ोरपि	-11980
▁अग्रे	-11981
▁कर्णे	-11982
▁ब्रूते	-11983
मित्येवं	-11984
▁ज्ञानम्	-11985
▁वैराग्य	-11986
मनस	-11987
रसं	-11988
▁जं	-11989
ज्जल	-11990
तावि	-11991
त्पि	-11992
पृथग्	-11993
स्यसे	-11994
ासङ्ग	-11995
ीत्वा	-11996
▁तदिह	-11997
▁यदुप	-11998
स्वभावं	-11999
▁सूर्यः	-12000
▁नास्तीत्य	-12001
▁स्यादित्य	-12002
▁ब्रह्माण्ड	-12003
▁सध	-12004
▁असम	-12005
▁फले	-12006
▁संप	-12007
नास्च	-12008
संतान	-12009
ादर्थ	-12010
्येति	-12011
▁चतस्रः	-12012
▁नेत्रे	-12013
▁व्रीहि	-12014
▁प्रतिषे	-12015
▁प्रादुर	-12016
▁महातपाः	-12017
▁सृणुष्व	-12018
▁दर्सपूर्णमास	-12019
ंसः	-12020
नीये	-12021
संवि	-12022
ुरपि	-12023
पुष्ट	-12024
फलानि	-12025
वन्तो	-12026
स्याय	-12027
पेक्षा	-12028
वाक्या	-12029
▁गृहाण	-12030
▁पतिम्	-12031
▁सय्या	-12032
▁धनंजयः	-12033
त्थं	-12034
ाधान	-12035
▁यौग	-12036
कुसला	-12037
▁नक्ष	-12038
▁तेजोध	-12039
▁तेभ्यः	-12040
▁प्रतिज	-12041
▁दातव्यं	-12042
तरः	-12043
षीद	-12044
िरः	-12045
येत्क	-12046
ङ्गुलि	-12047
▁भाषित	-12048
▁मुह्य	-12049
▁कथयामि	-12050
▁स्लोकः	-12051
▁पृथिव्य	-12052
▁विमुञ्च	-12053
▁अनुपलम्भ	-12054
ाल्ल	-12055
▁चासौ	-12056
कल्याण	-12057
ानामिव	-12058
▁अतस्त	-12059
▁त्रित	-12060
▁युञ्ज	-12061
स्याभाव	-12062
▁उद्यान	-12063
▁पुराणं	-12064
▁महीतले	-12065
बिल	-12066
थिली	-12067
▁सन्तो	-12068
▁स्पृस	-12069
त्तस्मा	-12070
▁क्रन्द	-12071
▁गृहस्थ	-12072
▁निरर्थ	-12073
▁क्रियाव	-12074
▁क्रौञ्च	-12075
▁बुद्धिं	-12076
▁सर्वेऽपि	-12077
▁प्राप्तम्	-12078
निव	-12079
दिग्	-12080
ह्नु	-12081
निर्द	-12082
न्तिक	-12083
मन्या	-12084
्यायत	-12085
▁अकृत	-12086
▁बलीय	-12087
कामस्य	-12088
त्पादं	-12089
▁वियोग	-12090
▁हविषा	-12091
द्भगवन्	-12092
▁पर्युपास	-12093
सततमोऽध्यायः	-12094
भीष	-12095
सोच	-12096
रिणी	-12097
ोस्च	-12098
▁व्यूह	-12099
प्रसन्न	-12100
स्वभावो	-12101
▁वृद्धिं	-12102
प्रतिपन्न	-12103
▁विवृणोति	-12104
मित्यादिना	-12105
ातप	-12106
न्दी	-12107
मानी	-12108
लोहित	-12109
ङ्मुखः	-12110
▁वदामि	-12111
बुध्यते	-12112
ादिभ्यो	-12113
▁त्रिगुण	-12114
▁मुहुर्मुहुः	-12115
वचः	-12116
▁दिग	-12117
न्मया	-12118
ेणेति	-12119
त्येवं	-12120
▁ददामि	-12121
▁पन्था	-12122
▁विप्रः	-12123
▁सामग्र	-12124
▁सर्वस्व	-12125
दानव	-12126
धिकारः	-12127
प्रदाय	-12128
▁पौर्व	-12129
▁भ्राम	-12130
▁संसयो	-12131
ादित्या	-12132
▁अनन्तर	-12133
▁समन्वागतो	-12134
क्ख	-12135
चीन	-12136
पूरण	-12137
बभूव	-12138
▁तरु	-12139
हृत्य	-12140
ोपेतं	-12141
▁कदली	-12142
स्कृता	-12143
▁संत्य	-12144
▁स्याद्य	-12145
चत्वारिंस	-12146
▁महासून्य	-12147
▁अधो	-12148
▁उमा	-12149
षिक्त	-12150
ृत्वं	-12151
▁उद्व	-12152
▁देवेन	-12153
▁सलिलं	-12154
येत्प्र	-12155
▁दैत्या	-12156
परिच्छेद	-12157
▁वैष्णवं	-12158
▁इत्याद्य	-12159
ेन्द्रियाणि	-12160
तायाम	-12161
र्धेन	-12162
स्वस्य	-12163
▁पल्लव	-12164
सङ्घ	-12165
ाधिप	-12166
ापाद	-12167
ासना	-12168
ेन्द	-12169
ोदरः	-12170
▁सयन	-12171
निर्ह	-12172
ावस्य	-12173
▁सुरभि	-12174
मापद्यते	-12175
▁क्रव्या	-12176
▁गमिष्यामि	-12177
चरी	-12178
नेव	-12179
ूणि	-12180
▁अवय	-12181
▁चिक	-12182
ामर्थ	-12183
ल्लोके	-12184
ानीत्य	-12185
▁तस्मादु	-12186
प्राप्तिः	-12187
▁स्रेष्ठो	-12188
खड्	-12189
▁वड	-12190
वदति	-12191
ृण्व	-12192
पौरुष	-12193
▁परासर	-12194
▁मनोहर	-12195
द्दृष्ट	-12196
पूर्वेण	-12197
▁निपाति	-12198
▁लावण्य	-12199
▁प्रत्यया	-12200
ाम्ब	-12201
ासेन	-12202
िन्य	-12203
कुसलं	-12204
▁वाचो	-12205
धातुके	-12206
ीरितम्	-12207
▁अनुभव	-12208
सादृस्य	-12209
स्त्रयः	-12210
▁म्लेच्छ	-12211
मित्युक्तं	-12212
नियमा	-12213
द्भुतं	-12214
बुद्धे	-12215
मागतम्	-12216
▁समासे	-12217
ान्तरीय	-12218
▁तत्तथा	-12219
▁बहिर्धासून्य	-12220
▁महासत्त्वानां	-12221
गूढ	-12222
सृत	-12223
▁गं	-12224
देसि	-12225
निधि	-12226
कारम्	-12227
विस्य	-12228
स्मीर	-12229
▁भवान	-12230
▁महेस	-12231
सम्भवः	-12232
▁विकृत	-12233
ज्येष्ठ	-12234
स्तुल्य	-12235
▁गच्छामि	-12236
▁चतुर्थी	-12237
▁विसृज्य	-12238
▁व्योम्नि	-12239
▁सर्वाण्य	-12240
प्रत्ययवेदना	-12241
ऽन	-12242
गुल्	-12243
ूपुर	-12244
▁स्थाण	-12245
▁भागं	-12246
▁वरेण	-12247
प्रस्थ	-12248
प्रहरण	-12249
स्याति	-12250
ापुरुष	-12251
ोत्तरा	-12252
▁इत्यृ	-12253
▁ददृसे	-12254
▁विष्व	-12255
▁तदर्थं	-12256
▁सन्त्य	-12257
क्षत्रिय	-12258
मनं	-12259
षोड	-12260
बहुव	-12261
न्तुं	-12262
▁नीला	-12263
▁भीमो	-12264
▁वर्णा	-12265
▁हितम्	-12266
धर्मेषु	-12267
▁वेदनां	-12268
▁व्यापक	-12269
▁किन्त्व	-12270
वृत्तित्व	-12271
▁स्वाध्या	-12272
मुत्पादयति	-12273
▁गतौ	-12274
क्रमो	-12275
मुपाय	-12276
ादुर्	-12277
ुण्डरी	-12278
▁दुःखे	-12279
स्निग्ध	-12280
्णा	-12281
▁कुह	-12282
ख्यया	-12283
येद्य	-12284
वर्णा	-12285
▁पीतं	-12286
▁मधुप	-12287
क्त्या	-12288
▁महारथ	-12289
▁अचिन्त	-12290
▁साक्षाद	-12291
▁युष्माकं	-12292
▁द्यावापृथिवी	-12293
▁नरे	-12294
▁अर्घ	-12295
▁वेगव	-12296
▁चर्या	-12297
प्रदेसे	-12298
▁तद्विसेष	-12299
घ्नो	-12300
वृते	-12301
ासाध	-12302
▁रोम	-12303
नात्म	-12304
रोहति	-12305
▁महति	-12306
सूत्रं	-12307
▁वाद्य	-12308
पत्त्या	-12309
▁तत्प्रति	-12310
नत	-12311
वादे	-12312
▁रतः	-12313
र्क्ष	-12314
ादेसे	-12315
▁गर्त	-12316
▁मासे	-12317
दिष्टं	-12318
र्जुनः	-12319
▁स्तूप	-12320
▁परिसोध	-12321
▁कस्यचिद	-12322
मृते	-12323
▁जनो	-12324
प्राग	-12325
ज्ञातः	-12326
नाम्ना	-12327
ेषामपि	-12328
▁तदेतद	-12329
▁मायोप	-12330
▁स्वस्थ	-12331
▁एततस्ति	-12332
▁स्याद्व	-12333
▁देहिनाम्	-12334
▁प्रज्ञप्ति	-12335
गर्त	-12336
ेत्स	-12337
▁केसि	-12338
▁मान्	-12339
ज्ञाते	-12340
▁तदनेन	-12341
▁पद्मं	-12342
▁पुच्छ	-12343
▁रहस्य	-12344
मनस्कार	-12345
▁विस्मय	-12346
▁स्मृते	-12347
मित्युक्तम्	-12348
नते	-12349
भाः	-12350
पिताम	-12351
साधने	-12352
ैतानि	-12353
▁जन्तु	-12354
▁स्फुटम्	-12355
▁पञ्चविंस	-12356
▁मुहूर्तं	-12357
तै	-12358
नीव	-12359
र्षण	-12360
▁दोह	-12361
▁समथ	-12362
ङ्गना	-12363
च्छिन	-12364
स्तृण	-12365
▁असोक	-12366
▁ह्री	-12367
र्ग्रह	-12368
दिन्द्र	-12369
▁क्षितौ	-12370
▁व्यापाद	-12371
जनः	-12372
▁ईसान	-12373
▁उक्थ	-12374
▁आख्या	-12375
▁प्रहार	-12376
▁स्पृष्ट	-12377
▁धर्मपर्या	-12378
▁महापुराणे	-12379
तपः	-12380
सेनो	-12381
▁ससं	-12382
क्रोस	-12383
र्भ्र	-12384
परोक्ष	-12385
ान्महा	-12386
त्यात्म	-12387
स्वभावा	-12388
▁तत्स्व	-12389
त्कट	-12390
वसित	-12391
सुचि	-12392
जिज्ञ	-12393
ोपमेय	-12394
▁अस्थ	-12395
मास्रय	-12396
▁चेतसि	-12397
▁मुखेन	-12398
▁सक्यः	-12399
▁रक्षति	-12400
▁विरुध्यते	-12401
धीयत	-12402
वभास	-12403
▁पीन	-12404
योरिव	-12405
त्कल्प	-12406
▁कल्पे	-12407
▁बुद्धे	-12408
तयः	-12409
▁आल	-12410
दानी	-12411
ामेक	-12412
▁वाप	-12413
पूर्वक	-12414
संसयम्	-12415
▁धन्या	-12416
▁बभूवुः	-12417
▁अन्तरेण	-12418
स्तिष्ठति	-12419
▁प्राणाति	-12420
▁नाध्यात्म	-12421
देक्ष्यन्ति	-12422
▁सर्व्वाकार	-12423
रू	-12424
भस्म	-12425
क्रूर	-12426
▁सङ्कर	-12427
भूषितम्	-12428
ज्ञापयति	-12429
▁विष्णोर	-12430
▁क्षिपेत्	-12431
डं	-12432
वृता	-12433
सिरा	-12434
▁हास	-12435
ाख्यं	-12436
▁तेना	-12437
▁यामि	-12438
▁समभव	-12439
समृद्ध	-12440
▁चराचर	-12441
▁जातिः	-12442
▁द्रष्टा	-12443
▁नन्वेवं	-12444
▁विन्दति	-12445
▁साध्यते	-12446
प्रज्ञप्त	-12447
ीद	-12448
िकाय	-12449
मरिंद	-12450
वस्था	-12451
▁भूमे	-12452
गतानां	-12453
▁कोकिल	-12454
▁इत्यर्थ	-12455
▁अनुत्तरां	-12456
▁कलह	-12457
क्तिक	-12458
तामनु	-12459
बर्हि	-12460
र्भूत	-12461
स्याथ	-12462
▁आहुः	-12463
▁ऋक्ष	-12464
▁कायो	-12465
▁वृतः	-12466
चूर्णं	-12467
प्रियं	-12468
▁अभिसं	-12469
▁तूष्णी	-12470
र्भूत्वा	-12471
▁विक्षेप	-12472
वेध	-12473
ेषू	-12474
▁रोध	-12475
▁वयः	-12476
▁पण्य	-12477
्याप्त	-12478
▁पुरंद	-12479
▁सङ्कु	-12480
▁बाह्ये	-12481
▁सुकृतं	-12482
▁संविद्य	-12483
▁सत्वानां	-12484
▁षु	-12485
ावधार	-12486
▁आयुः	-12487
▁कायः	-12488
▁तुमु	-12489
▁भूमिः	-12490
बोधिसत्व	-12491
▁देवानामि	-12492
▁सूक्ष्मा	-12493
▁सौमित्रि	-12494
▁निस्चित्य	-12495
▁प्रतिलभते	-12496
मन्तर	-12497
ात्सु	-12498
▁ह्यस्य	-12499
क्रान्ति	-12500
▁निरुध्य	-12501
▁मृत्युं	-12502
▁द्विजोत्तमाः	-12503
नृत	-12504
ामल	-12505
▁वीरं	-12506
▁वृस्च	-12507
निर्मित	-12508
▁प्रस्र	-12509
▁सर्वमा	-12510
▁प्राणाः	-12511
कद	-12512
देक	-12513
▁हठ	-12514
सूद्र	-12515
ान्यः	-12516
ापवाद	-12517
▁जागर	-12518
▁नर्त	-12519
▁विद्	-12520
द्वारं	-12521
ष्ट्रे	-12522
▁चतुष्प	-12523
विरोधात्	-12524
▁प्रलम्ब	-12525
▁पुत्राणां	-12526
▁प्रव्रज्या	-12527
कण	-12528
ग्ग	-12529
नाल	-12530
जाते	-12531
णामा	-12532
रासि	-12533
ुच्च	-12534
▁रहित	-12535
▁सक्तो	-12536
द्देस्य	-12537
र्विसेष	-12538
▁प्रस्त	-12539
नान्	-12540
▁आपः	-12541
▁निब	-12542
जन्मा	-12543
भूवन्	-12544
म्बूल	-12545
येच्छ	-12546
▁सिवे	-12547
▁तावद्	-12548
▁चिक्षेप	-12549
▁सूक्ष्मं	-12550
मीय	-12551
भिरुप	-12552
र्ष्ट	-12553
लास्च	-12554
▁जगती	-12555
▁त्रे	-12556
ज्ञस्य	-12557
▁राजसू	-12558
▁सैक्ष	-12559
ास्तत्र	-12560
▁कृतानि	-12561
▁तथागता	-12562
▁तत्क्षण	-12563
मांसं	-12564
▁तर्ह	-12565
▁दूरं	-12566
▁मेने	-12567
पात्रे	-12568
▁वैखान	-12569
▁मन्त्रः	-12570
▁सुवर्णं	-12571
ानुपपत्ति	-12572
▁ब्रह्माणं	-12573
षड	-12574
गान्	-12575
कोष्ठ	-12576
ान्य्	-12577
ाप्युप	-12578
▁योगिन	-12579
▁व्यती	-12580
▁सहदेव	-12581
▁भगवतोऽ	-12582
न्योन्यं	-12583
▁भर्तारं	-12584
वद्व	-12585
न्तीह	-12586
र्ग्र	-12587
▁अरुण	-12588
▁भुवः	-12589
▁व्रण	-12590
नुपलम्भ	-12591
ज्ञात्वा	-12592
▁महर्षयः	-12593
▁निपात्यते	-12594
नापि	-12595
च्चतु	-12596
मन्यो	-12597
▁दसरथ	-12598
▁रूपक	-12599
▁सोमप	-12600
पुराणे	-12601
ानुगुण	-12602
▁उपवास	-12603
▁कथमपि	-12604
▁गौतमी	-12605
▁नियता	-12606
▁प्रतिवि	-12607
▁किमर्थम्	-12608
▁भ्रात्रा	-12609
ीरं	-12610
पादि	-12611
▁मृण	-12612
क्रतु	-12613
ींस्च	-12614
▁भोति	-12615
▁तद्भव	-12616
स्चात्र	-12617
▁क्षेत्रे	-12618
ायी	-12619
ंद्व	-12620
ृतिं	-12621
ान्त्र	-12622
▁रक्तं	-12623
▁स्राम	-12624
▁उद्देस	-12625
▁भीष्मः	-12626
▁दुःखस्य	-12627
▁न्यसेत्	-12628
▁पुण्डरीका	-12629
कपि	-12630
श्य	-12631
वाचक	-12632
▁अभव	-12633
ाधिकरणम्	-12634
▁विलक्षण	-12635
▁सामान्या	-12636
▁स्वभावतः	-12637
▁यथान्यायं	-12638
▁क्षत	-12639
▁सहैव	-12640
संनिधौ	-12641
जातः	-12642
प्रद	-12643
मवाप	-12644
मेका	-12645
ष्टक	-12646
स्छि	-12647
ुह्य	-12648
काराः	-12649
बन्धु	-12650
म्ब्र	-12651
ष्करं	-12652
ांसेन	-12653
▁भयम्	-12654
▁वाम्	-12655
▁विसु	-12656
निर्या	-12657
वृत्तं	-12658
▁समासः	-12659
▁सुभाष	-12660
▁पृष्ठे	-12661
▁सर्वात्म	-12662
▁तद्ब्रह्म	-12663
टु	-12664
▁ईस	-12665
नतया	-12666
▁पथा	-12667
थार्थ	-12668
्यापि	-12669
द्भिर्	-12670
▁अहमेव	-12671
▁द्यूत	-12672
▁सहितो	-12673
▁स्तुत	-12674
ल्लिङ्ग	-12675
▁सैन्यं	-12676
च्छिन्ना	-12677
याभि	-12678
वेसं	-12679
हीनं	-12680
▁चैष	-12681
गोचरः	-12682
घ्राण	-12683
मुत्थ	-12684
व्रतं	-12685
माहितः	-12686
ाभावेन	-12687
▁स्वजन	-12688
ास्रयम्	-12689
▁न्यस्त	-12690
प्राप्तौ	-12691
▁प्रहर्ष	-12692
▁वीर्येण	-12693
▁द्विजाति	-12694
▁यस्मिन्न	-12695
पां	-12696
चराः	-12697
थेति	-12698
दिवस	-12699
ञ्जनं	-12700
त्तां	-12701
▁मद्भ	-12702
▁वषट्	-12703
ैर्गुण	-12704
▁पुष्य	-12705
▁यज्ञा	-12706
▁वसुधा	-12707
▁विसेषणं	-12708
▁संसृष्ट	-12709
गमं	-12710
बले	-12711
ालय	-12712
्र्	-12713
जङ्ग	-12714
▁विट	-12715
प्रभो	-12716
लब्धा	-12717
न्त्यः	-12718
▁मन्मथ	-12719
मित्यपि	-12720
▁स्यात्प्र	-12721
हतो	-12722
नायक	-12723
न्मय	-12724
▁हनु	-12725
मन्तं	-12726
ष्णुः	-12727
▁सहित	-12728
▁सुलभ	-12729
रूपाणि	-12730
▁नानाव	-12731
▁रसस्य	-12732
▁हेतुं	-12733
▁इत्येक	-12734
▁प्रभवति	-12735
▁व्यवस्था	-12736
▁परिगृह्णाति	-12737
नये	-12738
ामिष	-12739
ृतेः	-12740
गुह्य	-12741
माहवे	-12742
च्युतः	-12743
स्त्या	-12744
▁द्विपद	-12745
▁सून्यः	-12746
▁भुञ्जीत	-12747
सामानाधिकरण	-12748
धां	-12749
बलि	-12750
सती	-12751
सिरः	-12752
हाति	-12753
कार्ये	-12754
चिकीर्ष	-12755
ैस्चापि	-12756
▁धर्मधातु	-12757
▁तस्माद्वि	-12758
▁त्रिरात्र	-12759
ायम	-12760
लङ्घ	-12761
ूप्य	-12762
विभागः	-12763
वैयर्थ	-12764
▁मृत्त	-12765
▁रम्यं	-12766
ावस्थित	-12767
▁भोक्ता	-12768
▁वरारोह	-12769
▁सब्दाः	-12770
▁प्रभाते	-12771
▁प्रतिगृह्ण	-12772
सुहृ	-12773
▁अरि	-12774
▁इन्	-12775
प्रसम	-12776
सानां	-12777
ऽइत्य	-12778
▁धारय	-12779
▁जुगुप	-12780
▁हिंसा	-12781
▁काचित्	-12782
ानन्तर्य	-12783
▁प्रमत्त	-12784
▁तत्त्वेन	-12785
▁स्प्रष्ट	-12786
▁दृष्ट्वैव	-12787
िणं	-12788
प्सरो	-12789
▁गिरः	-12790
▁भेदे	-12791
▁वाचः	-12792
▁सौचं	-12793
स्ततोऽ	-12794
ुमसक्य	-12795
▁महिमा	-12796
▁ह्रीं	-12797
▁योगिनः	-12798
▁राजन्व	-12799
▁संदेहः	-12800
सम्बन्धेन	-12801
▁धौ	-12802
द्रुत	-12803
सङ्का	-12804
▁जैमि	-12805
▁षड्व	-12806
ीत्याह	-12807
ुरुवाच	-12808
▁यज्ञेन	-12809
▁स्वस्व	-12810
▁नोपलभते	-12811
▁लिप्यते	-12812
ालः	-12813
ग्नः	-12814
हेतुक	-12815
ाज्यं	-12816
▁अर्य	-12817
तस्त्व	-12818
समास्र	-12819
ायुक्त	-12820
▁हस्तौ	-12821
ज्ञाप्य	-12822
▁कीदृसं	-12823
▁क्रीडा	-12824
युक्तस्य	-12825
▁राक्षसः	-12826
▁निवेदयेत्	-12827
▁बोधिसत्त्वं	-12828
न्यु	-12829
▁फला	-12830
▁वेस	-12831
▁सभा	-12832
जातस्य	-12833
यन्निव	-12834
▁प्रयत	-12835
▁भगवते	-12836
▁सुवीर	-12837
▁भावस्य	-12838
▁कृतार्थ	-12839
▁स्वधर्म	-12840
▁प्रतिसंयुक्त	-12841
ानाः	-12842
ौषधि	-12843
▁अभूषि	-12844
▁कौतूह	-12845
▁छित्त्वा	-12846
▁सम्बन्धि	-12847
कलाप	-12848
द्मि	-12849
भुवन	-12850
र्कं	-12851
ारित	-12852
▁पूषा	-12853
नरुक्त	-12854
सिद्धे	-12855
स्नुते	-12856
▁पद्मि	-12857
▁मायाम	-12858
▁संहार	-12859
कारित्व	-12860
नुपलब्ध	-12861
▁द्वयोर	-12862
▁व्रजति	-12863
▁अर्थस्य	-12864
▁वरुणस्य	-12865
▁अचिन्त्य	-12866
▁एतस्मिन्नन्तरे	-12867
साक	-12868
त्यथ	-12869
समाध	-12870
समुद	-12871
ित्तं	-12872
▁दोषं	-12873
▁रसात	-12874
▁वासः	-12875
▁साम्	-12876
▁दानवा	-12877
▁भ्रातरं	-12878
▁तस्यास्च	-12879
▁गार्हपत्य	-12880
▁व्याख्यान	-12881
▁दृष्टान्तः	-12882
▁विज्ञानस्य	-12883
त्सम	-12884
भट्ट	-12885
▁सवन	-12886
मिन्द	-12887
▁जीवा	-12888
▁सोऽथ	-12889
द्भवम्	-12890
▁गन्धं	-12891
वर्तन्ते	-12892
▁सुद्धोद	-12893
▁प्रविसति	-12894
▁नरव्याघ्र	-12895
रथं	-12896
सना	-12897
द्धे	-12898
▁मते	-12899
करुणा	-12900
▁प्रणी	-12901
मस्तीति	-12902
ैर्धर्म	-12903
▁यथाभूत	-12904
▁विष्णुर	-12905
▁प्रत्यये	-12906
▁मित्रावरुण	-12907
धम	-12908
चण्ड	-12909
ल्यः	-12910
ेयूर	-12911
भिर्ह	-12912
▁कषाय	-12913
▁विभू	-12914
न्तिके	-12915
्यापार	-12916
▁स्थाव	-12917
द्धर्मा	-12918
स्रुतेः	-12919
▁अमात्य	-12920
▁द्वावि	-12921
ास्रित्य	-12922
▁चतुर्थे	-12923
▁महासत्व	-12924
▁पूर्वत्र	-12925
रता	-12926
वहार	-12927
ाद्द	-12928
दत्तः	-12929
भिर्ज	-12930
राजेन	-12931
▁मनुः	-12932
▁मरुत	-12933
▁देवैः	-12934
स्तस्मै	-12935
▁कृत्रि	-12936
▁तद्गुण	-12937
▁राजधान	-12938
▁सम्पात	-12939
▁सूर्ये	-12940
▁अनुत्तर	-12941
▁अलङ्कार	-12942
▁व्याकरण	-12943
▁सात्यकि	-12944
णीं	-12945
र्हं	-12946
▁नवा	-12947
▁पैत	-12948
धिकम्	-12949
्याद्	-12950
▁अनया	-12951
▁भजते	-12952
▁कुन्द	-12953
▁सास्त	-12954
▁यथायोगं	-12955
▁गान्धर्व	-12956
दाघ	-12957
पोष	-12958
पेदे	-12959
र्का	-12960
ादिह	-12961
िवान्	-12962
▁वाचि	-12963
▁सुभग	-12964
पुरुषः	-12965
स्यमान	-12966
ान्तम्	-12967
▁न्यून	-12968
▁पात्रे	-12969
▁पुरुषे	-12970
मानुषासुर	-12971
रन्त	-12972
ाजिन	-12973
▁माण	-12974
निर्ज	-12975
▁समाद	-12976
▁एवमिह	-12977
▁कर्णः	-12978
▁संपाद	-12979
▁नरवाहन	-12980
▁प्रमोद	-12981
▁विस्रुतः	-12982
▁व्यवहारः	-12983
त्वाभावात्	-12984
यिष्यामीति	-12985
▁सर्वसत्त्वानां	-12986
सनि	-12987
▁वीण	-12988
चिन्व	-12989
▁तथाऽ	-12990
▁पावक	-12991
स्कृतः	-12992
▁एतत्प	-12993
▁यद्या	-12994
▁स्वकं	-12995
▁पञ्चधा	-12996
▁प्रावृ	-12997
▁तथागतबल	-12998
व्यतिरेकेण	-12999
क्च	-13000
गमो	-13001
ुरुते	-13002
▁दद्य	-13003
▁सुताः	-13004
मूर्ध्व	-13005
ांस्तथा	-13006
▁पृष्टः	-13007
मास्थितः	-13008
▁कृत्वाऽ	-13009
▁यत्पुनर	-13010
▁संज्ञां	-13011
▁प्रकृष्ट	-13012
ाहः	-13013
ोपल	-13014
ासाः	-13015
▁जनि	-13016
लौकिक	-13017
▁साधक	-13018
स्तेषु	-13019
स्मरन्	-13020
▁नार्ह	-13021
▁मरीचि	-13022
ाव्यक्त	-13023
▁दुष्कर	-13024
▁प्रददौ	-13025
▁प्राची	-13026
▁पुनरुक्त	-13027
▁निर्विसेष	-13028
न्नम	-13029
ापरा	-13030
कृतेन	-13031
याच्च	-13032
▁चेतो	-13033
▁वदतां	-13034
संस्थान	-13035
▁प्रसह्य	-13036
▁सुकुमार	-13037
▁सेन्द्र	-13038
▁महाबाहुः	-13039
▁विसंयुक्तः	-13040
जन्	-13041
परम	-13042
रुचि	-13043
ानुगत	-13044
▁वासि	-13045
च्छाया	-13046
▁मन्दं	-13047
▁सप्तम	-13048
र्क्ष्य	-13049
वाक्येन	-13050
▁स्वस्र	-13051
▁प्रज्ञया	-13052
▁महामैत्र	-13053
▁विज्ञप्त	-13054
संप्रयुक्त	-13055
▁प्रतिष्ठापयति	-13056
बे	-13057
हरा	-13058
▁कृस	-13059
ग्रहो	-13060
भावित	-13061
भुञ्ज	-13062
▁मतिं	-13063
▁वारण	-13064
ोपमेषु	-13065
▁एकत्र	-13066
▁तद्वै	-13067
▁भावित	-13068
▁मुनयो	-13069
▁रक्षा	-13070
▁सासने	-13071
▁समुदाह	-13072
▁प्रादेस	-13073
माहात्म्य	-13074
यितुकामेन	-13075
▁प्रसज्यते	-13076
▁प्राप्ताः	-13077
तोद	-13078
दुद	-13079
र्षप	-13080
ोदरे	-13081
ान्मा	-13082
ाप्नु	-13083
ोक्ते	-13084
▁दारु	-13085
▁धात्व	-13086
▁नियमा	-13087
▁तपस्वि	-13088
▁इन्द्रं	-13089
नीक	-13090
ेवा	-13091
खलित	-13092
▁अचिर	-13093
▁भुजग	-13094
▁मृते	-13095
चितानि	-13096
▁वज्रि	-13097
▁ईस्वरः	-13098
▁तावुभौ	-13099
▁द्वाभ्या	-13100
ङ्गि	-13101
▁सतस	-13102
कारैः	-13103
सब्दे	-13104
ाण्या	-13105
▁मनुज	-13106
वर्णनं	-13107
िकायाः	-13108
ोद्देस	-13109
▁द्राव	-13110
▁परिभाष	-13111
▁दर्सनाद	-13112
▁दाक्षिण	-13113
▁पुरुषाः	-13114
वक्ष्यामि	-13115
▁ब्रह्माण	-13116
▁सर्वक्लेस	-13117
वरो	-13118
पण्ड	-13119
ावाह	-13120
▁चमू	-13121
ेतस्य	-13122
▁जहार	-13123
▁दृढं	-13124
पुस्तक	-13125
▁कारणे	-13126
ैकवाक्य	-13127
न्निमित्त	-13128
स्यार्थस्य	-13129
▁गी	-13130
िकृत	-13131
ास्ता	-13132
▁रामा	-13133
▁स्रौ	-13134
प्रमाद	-13135
▁तथावि	-13136
▁वर्षे	-13137
▁ज्ञातु	-13138
▁मोक्षः	-13139
▁देसान्तर	-13140
▁प्रारब्ध	-13141
त्वात्तस्य	-13142
▁प्रचक्षते	-13143
▁प्रकीर्तिताः	-13144
ऽति	-13145
ल्मष	-13146
▁एतौ	-13147
▁यैः	-13148
▁वसा	-13149
▁वाथ	-13150
प्लुत	-13151
मासाद	-13152
▁ममैव	-13153
▁सेषे	-13154
कौसलेन	-13155
ेष्विव	-13156
▁तास्च	-13157
▁मिथ्य	-13158
युक्ताः	-13159
▁अप्रमे	-13160
▁सूत्रम्	-13161
▁देवदत्तः	-13162
▁दानपारमित	-13163
▁प्रविष्टः	-13164
▁पूर्वपक्षे	-13165
▁चक्षुर्विज्ञान	-13166
ूनद	-13167
वारं	-13168
्यानि	-13169
▁पत्त	-13170
▁पत्न	-13171
कासस्य	-13172
ाग्निः	-13173
▁क्लीब	-13174
▁कायस्य	-13175
▁प्रचोद	-13176
▁सान्ता	-13177
लू	-13178
घटित	-13179
ाह्न	-13180
ुवुः	-13181
▁कम्	-13182
▁रथो	-13183
प्यनु	-13184
▁पीता	-13185
▁दत्तः	-13186
▁रावणः	-13187
▁अभ्यास	-13188
▁कर्पूर	-13189
ातिरिक्त	-13190
▁आस्चर्य	-13191
▁पवित्रं	-13192
▁विधानेन	-13193
▁नित्यमेव	-13194
चत	-13195
िकर	-13196
देवी	-13197
▁पूत	-13198
फलस्य	-13199
▁चेद्	-13200
▁यादव	-13201
वानिति	-13202
▁क्षुध	-13203
▁युगपद	-13204
▁लोकेऽ	-13205
▁वैदिक	-13206
▁सुयोध	-13207
▁सौर्य	-13208
यितुमाह	-13209
व्यवस्थ	-13210
▁परीत्त	-13211
दौर्मनस्य	-13212
भूप	-13213
पतित	-13214
▁उदी	-13215
▁अपां	-13216
▁कीदृ	-13217
▁तैलं	-13218
▁परया	-13219
▁वीरौ	-13220
▁हर्म	-13221
लोकिते	-13222
्यादयः	-13223
ेत्यत्र	-13224
ोपर	-13225
▁सूप	-13226
ोपमान	-13227
निबद्ध	-13228
वचनात्	-13229
▁गुरुत	-13230
परायणाः	-13231
▁कुतस्च	-13232
▁पर्वते	-13233
▁स्थाली	-13234
नाद्	-13235
व्ययः	-13236
मन्यते	-13237
▁देवकी	-13238
▁निम्न	-13239
▁लीलया	-13240
मनसिकार	-13241
▁अध्याय	-13242
▁हिरण्म	-13243
ज्ञायाम्	-13244
▁प्रसक्त	-13245
▁बध्नाति	-13246
▁जिह्वावि	-13247
ोज	-13248
चम्	-13249
लीक	-13250
धिगत	-13251
▁गवा	-13252
न्मील	-13253
यमेतद	-13254
▁बुधः	-13255
सन्निव	-13256
▁देवाय	-13257
यिष्यसि	-13258
▁अस्याः	-13259
▁महाभागा	-13260
▁योगिनां	-13261
▁मुनिस्रेष्ठ	-13262
ेषं	-13263
रेषु	-13264
स्तू	-13265
सार्थ	-13266
सिन्ध	-13267
▁सुमे	-13268
प्नोति	-13269
ष्यमाण	-13270
▁इदमेव	-13271
▁त्वेक	-13272
▁द्विव	-13273
निर्हार	-13274
▁कथमिति	-13275
▁वज्रेण	-13276
र्महाराज	-13277
▁सामग्री	-13278
▁परिच्छेद	-13279
▁जीवन्मुक्त	-13280
रुत	-13281
▁मनी	-13282
ीनाम्	-13283
▁आरोच	-13284
▁गदया	-13285
ानुलेप	-13286
▁किङ्क	-13287
▁कोऽयं	-13288
▁नाराच	-13289
▁पतिता	-13290
▁प्रायः	-13291
▁भूतिति	-13292
▁सूत्रेण	-13293
▁प्राप्तिः	-13294
पोह	-13295
याप	-13296
लया	-13297
िणौ	-13298
ष्णो	-13299
्लाद	-13300
ैर्यु	-13301
▁गर्द	-13302
▁विनी	-13303
▁वीरा	-13304
भिर्वा	-13305
ालिङ्ग	-13306
▁कर्णो	-13307
▁तदस्य	-13308
▁प्रतिजान	-13309
▁किम्तर्हि	-13310
▁पुरुषोत्तमः	-13311
▁जितेन्द्रियः	-13312
घार	-13313
मनू	-13314
माहु	-13315
ागत्य	-13316
ान्मम	-13317
▁दसबल	-13318
ोत्तरे	-13319
्याभाव	-13320
▁यावत्प	-13321
याम्यहम्	-13322
िरित्यर्थः	-13323
ग्नो	-13324
दिक्	-13325
मुद्	-13326
▁यावता	-13327
कत्वस्य	-13328
▁समास्व	-13329
▁मृत्युः	-13330
▁तदयुक्तम्	-13331
जते	-13332
वाम	-13333
र्णः	-13334
वारि	-13335
▁कान	-13336
म्बुध	-13337
र्प्य	-13338
▁धिक्	-13339
▁स्यु	-13340
▁व्रजे	-13341
क्षान्त	-13342
▁कामिनी	-13343
▁तथागतं	-13344
▁परमेष्ठ	-13345
▁सुभासुभ	-13346
▁तावत्प्र	-13347
▁महात्मान	-13348
▁विप्रलम्भ	-13349
▁सत्त्वानाम	-13350
नति	-13351
ागृह	-13352
ौजसः	-13353
चारेण	-13354
मखिलं	-13355
सारेण	-13356
▁संधि	-13357
▁तैरेव	-13358
▁तैस्त	-13359
▁महतीं	-13360
▁यथासं	-13361
▁युग्म	-13362
▁धात्री	-13363
▁हस्त्य	-13364
▁परतन्त्र	-13365
▁चत्वारिंस	-13366
▁परमेस्वरः	-13367
ननु	-13368
त्को	-13369
ृप्त	-13370
▁नागा	-13371
▁मिथो	-13372
▁संसित	-13373
▁ह्येक	-13374
▁सर्वजग	-13375
▁तस्माच्च	-13376
▁वाक्यस्य	-13377
त्वात्सर्व	-13378
▁त्रयस्त्रिंस	-13379
▁हस	-13380
क्षति	-13381
म्नाय	-13382
▁कुन्त	-13383
▁विस्फ	-13384
▁गुह्यं	-13385
▁महोत्स	-13386
▁स्रुतः	-13387
ध्यायस्य	-13388
▁सापेक्ष	-13389
म्भविष्यति	-13390
▁क्रियमाणे	-13391
घ्नः	-13392
मुदी	-13393
वद्य	-13394
सिला	-13395
स्नि	-13396
हस्य	-13397
▁कीट	-13398
त्परः	-13399
ायुधः	-13400
▁एतां	-13401
▁क्रय	-13402
▁तत्व	-13403
र्थेषु	-13404
▁लुप्त	-13405
स्त्रयो	-13406
▁द्रोणं	-13407
▁इन्द्रिया	-13408
▁षट्त्रिंस	-13409
▁सात्त्विक	-13410
ञ्जय	-13411
ावता	-13412
ुत्व	-13413
▁ह्व	-13414
तेजसः	-13415
▁वदसि	-13416
द्गुरु	-13417
िकास्च	-13418
ुलिङ्ग	-13419
▁छिद्र	-13420
▁तत्साध	-13421
▁ताभ्या	-13422
▁नितम्ब	-13423
▁मेदिनी	-13424
▁वृत्तिं	-13425
▁सुस्राव	-13426
▁भगवान्वि	-13427
पादं	-13428
भूरि	-13429
▁ववृ	-13430
चक्रे	-13431
विष्ठ	-13432
▁रासि	-13433
▁विष्ठ	-13434
ङ्गानां	-13435
▁कौस्तु	-13436
▁राजानः	-13437
ानर्थक्य	-13438
बा	-13439
ियं	-13440
मेनं	-13441
▁सिक	-13442
करोत्	-13443
मनुभव	-13444
▁संकेत	-13445
पुत्रेण	-13446
▁तूर्णं	-13447
▁संदर्स	-13448
▁स्रियः	-13449
▁विमुच्य	-13450
धात्वायतन	-13451
▁अभ्यातान	-13452
▁क्षत्रियो	-13453
गार	-13454
माज	-13455
पुरा	-13456
युगे	-13457
बाधित	-13458
▁गतिर	-13459
▁परैः	-13460
▁वैरि	-13461
स्तत्त	-13462
ास्रमे	-13463
▁आस्ते	-13464
▁कार्प	-13465
▁जृम्भ	-13466
▁प्रेय	-13467
त्यन्तं	-13468
र्चयेत्	-13469
विकल्पः	-13470
▁अन्येन	-13471
▁तत्फलं	-13472
▁द्वारं	-13473
▁सर्वभाव	-13474
▁तत्कार्य	-13475
कोच	-13476
रणी	-13477
ुपा	-13478
ागतम्	-13479
▁अवती	-13480
विधानं	-13481
▁प्रकरणं	-13482
▁प्रत्यग	-13483
▁अनिमित्त	-13484
त्यन्ताभाव	-13485
प्रामाण्यं	-13486
भृतः	-13487
मिते	-13488
ासंस	-13489
▁करी	-13490
वर्षं	-13491
भास्कर	-13492
स्यैवं	-13493
▁पक्षी	-13494
यिष्यते	-13495
▁ऐस्वर्य	-13496
▁तिर्यग्यो	-13497
▁गह	-13498
र्षयः	-13499
▁चेयं	-13500
▁पचति	-13501
देसकाल	-13502
परायणः	-13503
▁पुनरि	-13504
▁वासवद	-13505
▁स्वधा	-13506
स्तथापि	-13507
▁परम्पर	-13508
▁विदितं	-13509
▁अङ्गुष्ठ	-13510
▁वासुदेवस्य	-13511
▁प्रकल्पयेत्	-13512
ीर्घ	-13513
त्यम्	-13514
बहून्	-13515
▁साखा	-13516
ितव्यः	-13517
▁आलम्ब	-13518
▁निमेष	-13519
▁विधिं	-13520
मिदमवोच	-13521
▁देवेसि	-13522
▁प्रायो	-13523
स्तुभ्यं	-13524
▁अहोरात्र	-13525
भागः	-13526
▁सौभ	-13527
त्तेज	-13528
ध्ययन	-13529
नासिक	-13530
निस्र	-13531
युद्ध	-13532
▁तांस्च	-13533
▁नानाविध	-13534
दीन	-13535
▁खि	-13536
गत्य	-13537
पतेः	-13538
पत्या	-13539
▁एताः	-13540
▁दध्य	-13541
न्तर्य	-13542
विष्णु	-13543
▁कुब्ज	-13544
मिच्छता	-13545
ल्लक्षण	-13546
▁पर्येष	-13547
▁कर्तृत्वं	-13548
पनं	-13549
भित	-13550
▁आम	-13551
▁गाल	-13552
द्वेग	-13553
ष्कम्भ	-13554
ास्रयं	-13555
▁कामाव	-13556
▁कृताः	-13557
▁मार्गो	-13558
▁क्रियतां	-13559
चोर	-13560
▁रेत	-13561
माविस	-13562
ाक्षं	-13563
▁पुरीष	-13564
▁ह्यनु	-13565
बुद्धयः	-13566
▁कौन्ते	-13567
▁सपिण्ड	-13568
भ्यर्च्य	-13569
सामान्या	-13570
▁निःस्रेय	-13571
लाह	-13572
ङिति	-13573
▁केक	-13574
▁जन्	-13575
▁मिथ	-13576
मुदीर	-13577
▁कण्व	-13578
▁संतान	-13579
द्भिस्च	-13580
▁परिदेव	-13581
▁प्रभास	-13582
▁अयमर्थः	-13583
▁पुरोहित	-13584
▁संदिग्ध	-13585
▁पृच्छामि	-13586
रिं	-13587
सयो	-13588
काये	-13589
हासं	-13590
▁रयि	-13591
कृतां	-13592
पायनः	-13593
स्चेद	-13594
▁उर्व	-13595
▁भैरव	-13596
▁वचने	-13597
गामिनी	-13598
सून्यं	-13599
▁कृपया	-13600
▁स्नात	-13601
▁समासेन	-13602
विद्यमान	-13603
▁सर्वरत्न	-13604
▁सर्वसास्त्र	-13605
चितो	-13606
धानः	-13607
मागम	-13608
▁बहू	-13609
पादान	-13610
▁जानी	-13611
▁पादे	-13612
स्त्वि	-13613
▁तुभ्य	-13614
▁कनिष्ठ	-13615
▁प्रव्र	-13616
कार्याणि	-13617
▁चिन्तयामास	-13618
विहारसमापत्त	-13619
नुत्	-13620
वासो	-13621
षष्ठ	-13622
▁धनि	-13623
यन्तं	-13624
ोपासन	-13625
चक्षुः	-13626
विवर्ध	-13627
▁प्रवर	-13628
धिमुक्त	-13629
ेन्द्रं	-13630
▁कृत्यं	-13631
▁द्रौणि	-13632
▁समासतः	-13633
▁यथाकामं	-13634
मित्युक्त	-13635
▁प्रतिकूल	-13636
भाण	-13637
मगम	-13638
▁ओं	-13639
र्त्	-13640
स्पद	-13641
नाद्य	-13642
हेतोर	-13643
▁सयान	-13644
▁उक्ता	-13645
▁जहाति	-13646
ाधिकरणे	-13647
▁वैकुण्ठ	-13648
▁हेतुमाह	-13649
डु	-13650
▁दर	-13651
णीयं	-13652
यात्त	-13653
ागमत्	-13654
▁आराध	-13655
▁यथाय	-13656
▁परिस्र	-13657
▁भीष्मं	-13658
▁विनापि	-13659
▁पुद्गलः	-13660
▁सर्वगुण	-13661
▁निःस्वभाव	-13662
▁व्याख्यात	-13663
▁कच	-13664
न्नत	-13665
चुम्ब	-13666
भागीय	-13667
भीष्ट	-13668
विषयक	-13669
ैर्यं	-13670
▁राधा	-13671
च्यमान	-13672
▁कस्यप	-13673
सोभितम्	-13674
▁चक्रुः	-13675
▁भगवतां	-13676
▁विमर्स	-13677
स्तत्प्र	-13678
▁सांप्रतम्	-13679
तिथि	-13680
ध्येत	-13681
निद्र	-13682
▁आत्त	-13683
▁देवय	-13684
▁धनंज	-13685
▁पराय	-13686
▁वाणि	-13687
िरुवाच	-13688
▁घटादि	-13689
▁रक्षण	-13690
नार्थम्	-13691
्यादिकं	-13692
▁न्यस्य	-13693
▁मध्यतो	-13694
पुरोगमाः	-13695
▁निरीक्ष	-13696
▁प्रतिषिध्यते	-13697
िणे	-13698
▁नात	-13699
कृन्त	-13700
िवर्ध	-13701
सास्ति	-13702
▁गोष्ठ	-13703
▁धनंजय	-13704
▁संभ्र	-13705
चक्षुषा	-13706
▁तावदेव	-13707
▁तावन्न	-13708
▁विहिता	-13709
भान	-13710
रोः	-13711
सने	-13712
▁ओद	-13713
▁लौ	-13714
ासयः	-13715
▁अमा	-13716
बोद्ध	-13717
मन्नं	-13718
ाद्भव	-13719
▁संवर	-13720
▁तादृसी	-13721
ान्तःकरण	-13722
▁लोकधातु	-13723
विषयत्वात्	-13724
▁सामर्थ्यं	-13725
▁तस्मिन्समये	-13726
ापात	-13727
ावत्	-13728
▁रुच	-13729
द्भवा	-13730
▁धेहि	-13731
▁इतरथा	-13732
▁कष्टं	-13733
▁तन्ना	-13734
▁भासते	-13735
▁सोणित	-13736
त्कृष्ट	-13737
▁निष्फल	-13738
पूर्वस्य	-13739
▁स्लिष्ट	-13740
प्रतिषेधे	-13741
▁परिष्वज्य	-13742
▁भविष्यामि	-13743
ान्दृष्ट्वा	-13744
कालः	-13745
मुपा	-13746
▁ऋषयो	-13747
▁नियु	-13748
स्वरेण	-13749
न्द्रेण	-13750
संबन्धः	-13751
▁परिगृह	-13752
▁संन्या	-13753
सर्व्वाकार	-13754
▁प्रतिलब्ध	-13755
▁प्रमाणमिति	-13756
त्सव	-13757
भासं	-13758
प्यति	-13759
माञ्च	-13760
सदृसं	-13761
दर्सिनः	-13762
योर्द्व	-13763
ारविन्द	-13764
▁सप्तधा	-13765
▁इत्युक्तो	-13766
▁जनार्दनम्	-13767
चित्व	-13768
भिषेक	-13769
ास्वि	-13770
▁एतद्	-13771
ग्निना	-13772
न्दर्य	-13773
मप्रति	-13774
▁द्वयो	-13775
▁यद्येव	-13776
मपेक्षते	-13777
▁अन्यच्च	-13778
▁अस्विना	-13779
▁सान्द्र	-13780
▁दास्यामि	-13781
▁विसेषणम्	-13782
▁कृताञ्जलि	-13783
ाजन	-13784
स्सं	-13785
भृत्य	-13786
मास्व	-13787
▁बालो	-13788
क्षिणी	-13789
व्यस्य	-13790
▁घृतेन	-13791
▁जिज्ञ	-13792
▁परदार	-13793
प्रमत्त	-13794
▁उभयत्र	-13795
▁सर्वधर्माणां	-13796
ेर्व	-13797
▁अधी	-13798
▁चाध	-13799
निस्व	-13800
स्येन	-13801
▁धनुर	-13802
भेदस्य	-13803
▁मुदित	-13804
मारब्धः	-13805
▁ग्रामे	-13806
▁इक्ष्वा	-13807
क्रान्ताः	-13808
ञ्स	-13809
मने	-13810
हरे	-13811
▁क्य	-13812
तपर्व	-13813
प्येत	-13814
ित्री	-13815
ित्रे	-13816
ोपात्त	-13817
▁गीयते	-13818
▁परस्व	-13819
मारोप्य	-13820
वगम्यते	-13821
ासत्त्व	-13822
▁च्छन्द	-13823
▁यदुक्त	-13824
▁सुचिरं	-13825
▁सङ्खचक्र	-13826
ेत्युच्यते	-13827
्व्	-13828
वत्प	-13829
▁मलय	-13830
▁आसुर	-13831
▁कुमु	-13832
▁पापि	-13833
देवताः	-13834
रूपतया	-13835
▁कोष्ठ	-13836
मात्मनो	-13837
▁अनेनैव	-13838
▁किन्नर	-13839
▁दर्सने	-13840
▁पिबेत्	-13841
▁भवेत्त	-13842
▁सूक्ष्	-13843
▁स्रीमा	-13844
मुपसंहरति	-13845
तिल	-13846
र्षा	-13847
▁कवे	-13848
ाभिर्	-13849
ामिनि	-13850
▁मञ्च	-13851
▁रम्भ	-13852
दुत्तर	-13853
न्त्रं	-13854
विष्टः	-13855
ान्यनु	-13856
▁किम्च	-13857
▁जगद्ध	-13858
मूर्धनि	-13859
▁निमज्ज	-13860
▁प्रज्वल	-13861
▁सर्वनाम	-13862
ावच	-13863
▁द्	-13864
मागत	-13865
साने	-13866
▁नभो	-13867
मभाषत	-13868
रत्नं	-13869
व्येन	-13870
ैवर्त	-13871
▁पुरोह	-13872
▁विभूष	-13873
प्रेक्ष	-13874
काङ्क्षा	-13875
▁कर्मभिः	-13876
▁दर्सनाय	-13877
▁तज्ज्ञान	-13878
▁भवन्तीति	-13879
खं	-13880
ैता	-13881
च्छत	-13882
विना	-13883
सेनं	-13884
ात्च	-13885
▁घटो	-13886
रूपता	-13887
▁कृपा	-13888
▁जगृह	-13889
▁छान्द	-13890
नक्षत्र	-13891
▁भुक्ति	-13892
प्रतिपादन	-13893
▁प्रसस्यते	-13894
जनो	-13895
भिष	-13896
मुभ	-13897
सुं	-13898
ूनं	-13899
ञ्जि	-13900
मियं	-13901
▁रुर	-13902
न्मते	-13903
हेतवः	-13904
▁गुणं	-13905
▁पुरम्	-13906
▁भावाः	-13907
▁यतस्च	-13908
▁यमुना	-13909
ात्मभिः	-13910
▁संस्थान	-13911
▁कुम्भकर्ण	-13912
▁विप्रेन्द्र	-13913
दीय	-13914
रनु	-13915
कासो	-13916
चारं	-13917
ान्क	-13918
पस्चि	-13919
स्वरि	-13920
▁वायो	-13921
यिष्ये	-13922
▁कारणा	-13923
▁यस्ते	-13924
▁हरिणा	-13925
▁वन्दित्वा	-13926
▁स्थातव्यं	-13927
धीय	-13928
वरे	-13929
▁अघ	-13930
पदेषु	-13931
भ्रंस	-13932
▁यजति	-13933
र्थवाद	-13934
▁कीदृस	-13935
▁जीमूत	-13936
गङ्ग	-13937
मिहा	-13938
स्मे	-13939
्रीड	-13940
चेतनः	-13941
▁भावि	-13942
▁अस्थि	-13943
▁तेभ्य	-13944
▁भगवांस्त	-13945
▁संवर्तते	-13946
सर्व्वाकारज्ञता	-13947
धूम	-13948
समि	-13949
लाभे	-13950
होति	-13951
स्चिर	-13952
▁ध्मा	-13953
▁सूरा	-13954
▁सत्सु	-13955
▁ससर्ज	-13956
ान्निष्	-13957
▁महर्द्ध	-13958
▁करिष्यते	-13959
▁किम्पुनः	-13960
छि	-13961
ूण	-13962
हेय	-13963
मज्ज	-13964
वर्म	-13965
बन्धो	-13966
संभवे	-13967
विसेषो	-13968
▁भ्रुव	-13969
▁स्तूय	-13970
▁वेस्या	-13971
▁अत्रेति	-13972
▁चान्यत्र	-13973
▁निमन्त्र	-13974
▁यदृच्छया	-13975
जट	-13976
ऽत	-13977
▁सल	-13978
ह्ने	-13979
ापरो	-13980
पास्य	-13981
▁ईदृस	-13982
स्रद्ध	-13983
▁तद्यथ	-13984
संपन्ना	-13985
▁पर्वता	-13986
▁वैडूर्य	-13987
तामि	-13988
स्वः	-13989
▁सची	-13990
▁सबल	-13991
भोज्य	-13992
ाम्बु	-13993
▁विजि	-13994
▁दुःखा	-13995
▁पुरोध	-13996
भ्यन्तर	-13997
▁चक्षुष	-13998
मात्रमेव	-13999
▁मनस्कार	-14000
ोगः	-14001
लिनं	-14002
ासम्	-14003
ासोक	-14004
पद्या	-14005
पुङ्ख	-14006
▁कृणु	-14007
▁यजते	-14008
▁रेतः	-14009
ार्थाय	-14010
ुर्यथा	-14011
▁कुतूह	-14012
▁जगतां	-14013
▁सोभते	-14014
तीक्ष्ण	-14015
▁दृष्टिः	-14016
▁तस्मात्तर्हि	-14017
भवो	-14018
द्यद	-14019
ाद्यो	-14020
▁कृणो	-14021
ास्रवा	-14022
▁प्रबल	-14023
▁अपेक्ष	-14024
▁तद्गृह	-14025
▁दीक्षा	-14026
▁विनष्ट	-14027
▁संमुखी	-14028
मन्त्रेण	-14029
▁चतुर्षु	-14030
▁संबन्धि	-14031
वैक	-14032
त्पुर	-14033
परिपा	-14034
मङ्गी	-14035
ष्यामः	-14036
ाङ्गुल	-14037
ान्यतर	-14038
स्मृतिः	-14039
▁जगन्नाथ	-14040
रूपत्वात्	-14041
▁अन्तरिक्ष	-14042
▁नोपलभ्यन्ते	-14043
द्बल	-14044
वाणि	-14045
ात्व	-14046
▁वसं	-14047
ष्णीष	-14048
्वादि	-14049
स्कृतं	-14050
हितस्य	-14051
त्सृज्य	-14052
निबन्धन	-14053
र्मध्ये	-14054
स्कन्धः	-14055
▁ज्ञेयो	-14056
▁वामदेव	-14057
▁स्लेष्म	-14058
▁सर्वदुःख	-14059
▁पुरस्तात्	-14060
ञः	-14061
तीम्	-14062
लिका	-14063
ादाने	-14064
▁तिरो	-14065
द्बुधः	-14066
येद्वि	-14067
▁व्यवह	-14068
क्षान्ति	-14069
धारणीमुख	-14070
भ्युपगमा	-14071
▁कुक्कुट	-14072
▁चिह्नित	-14073
▁वाक्यम्	-14074
मुदाहृतम्	-14075
ञ्सर	-14076
येन्म	-14077
स्तृत	-14078
▁कच्छ	-14079
▁दम्भ	-14080
▁पराम	-14081
▁बर्ह	-14082
▁रुरु	-14083
ान्धकार	-14084
▁साधयति	-14085
▁निराकरोति	-14086
चयो	-14087
पयति	-14088
ानना	-14089
ासिक	-14090
ोदयः	-14091
▁तिमि	-14092
सिष्टं	-14093
ाणामपि	-14094
ान्तर्	-14095
प्रकारं	-14096
▁ग्रीष्	-14097
प्रकारेण	-14098
▁तन्निमित्त	-14099
त्यय	-14100
प्यु	-14101
यौवन	-14102
वनीय	-14103
ावेक	-14104
▁ण्य	-14105
र्षति	-14106
ाख्यो	-14107
ैर्या	-14108
▁घोरा	-14109
▁कर्हि	-14110
▁षट्सु	-14111
▁संजान	-14112
▁सरीरि	-14113
▁स्रीः	-14114
▁स्वाम	-14115
▁क्षेमं	-14116
▁भ्रष्ट	-14117
ानुभावेन	-14118
▁त्रिपुर	-14119
▁वर्जयेत्	-14120
दाव	-14121
ैवा	-14122
सिनः	-14123
नात्त	-14124
▁जातौ	-14125
▁धीरो	-14126
▁रतिः	-14127
▁गाङ्ग	-14128
▁प्रदि	-14129
▁सक्यो	-14130
▁स्नाय	-14131
िष्यन्ते	-14132
▁कृतवान्	-14133
▁भगवन्तो	-14134
▁व्यञ्जन	-14135
▁हेतुरिति	-14136
▁व्यवस्थित	-14137
▁अधः	-14138
कस्मा	-14139
त्सृज	-14140
सूक्त	-14141
ानन्य	-14142
▁कठिन	-14143
▁करणे	-14144
▁निर्ह	-14145
▁बलानि	-14146
▁मुखम्	-14147
▁आर्द्र	-14148
▁कान्तं	-14149
▁सिल्पि	-14150
वाक्यार्थ	-14151
▁स्लक्ष्ण	-14152
ेत्युक्तम्	-14153
▁गृह्यन्ते	-14154
▁अग्निहोत्र	-14155
▁व्युत्पत्त	-14156
तले	-14157
तुम्	-14158
ीयूष	-14159
▁भृस	-14160
हमिति	-14161
▁भागे	-14162
▁सालि	-14163
कृतस्य	-14164
ज्ञेयं	-14165
नपेक्ष	-14166
ोपपन्न	-14167
्रह्मा	-14168
▁पुंसः	-14169
▁ममापि	-14170
▁पस्यन्	-14171
▁सहिताः	-14172
▁क्षीयते	-14173
▁नराधिपः	-14174
▁पर्यङ्क	-14175
▁विभक्ति	-14176
▁पक्षधर्म	-14177
▁महातेजाः	-14178
▁सर्वात्मना	-14179
बुद्धक्षेत्र	-14180
नृ	-14181
ऽथ	-14182
ारक	-14183
द्गद	-14184
धावी	-14185
वक्र	-14186
ातुः	-14187
▁अयो	-14188
ाह्णे	-14189
गामिनः	-14190
पितामह	-14191
▁निघ्न	-14192
▁परस्त	-14193
व्याहार	-14194
ैर्दिव्य	-14195
▁उन्मत्त	-14196
▁क्षौद्र	-14197
▁निर्वेद	-14198
कत्वादिति	-14199
▁संस्थाप्य	-14200
पूजा	-14201
वाङ्	-14202
ापाय	-14203
▁गणे	-14204
▁मना	-14205
तामेव	-14206
प्रस्	-14207
स्तरण	-14208
ोऽष्ट	-14209
▁मताः	-14210
प्रस्र	-14211
भिधानं	-14212
▁वियोज	-14213
्यादिना	-14214
▁क्षीरो	-14215
▁पञ्चमः	-14216
▁कस्चिद्	-14217
▁जज्ञिरे	-14218
विमोक्षमुख	-14219
थित	-14220
व्यू	-14221
हृतं	-14222
▁एषो	-14223
▁सला	-14224
येद्ध	-14225
समारोप	-14226
ेस्वरः	-14227
▁तैस्च	-14228
▁फुल्ल	-14229
▁सेनां	-14230
भावेऽपि	-14231
▁तत्रैक	-14232
▁कृतकृत्य	-14233
▁तस्मात्क	-14234
ध्म	-14235
सिष	-14236
न्यत	-14237
मेषु	-14238
सारः	-14239
▁उपध	-14240
भ्यते	-14241
ीपतिः	-14242
च्छ्रे	-14243
न्दुभि	-14244
सत्कार	-14245
▁बृहत्	-14246
▁रुधिरं	-14247
▁सूर्यं	-14248
▁प्रसज्य	-14249
▁नान्तर्ध	-14250
▁विजानाति	-14251
▁सर्व्वाकारज्ञ	-14252
यने	-14253
ध्वे	-14254
ममृत	-14255
लेखा	-14256
▁पसव	-14257
क्ष्व	-14258
प्रभं	-14259
भास्व	-14260
वैराग	-14261
िणीम्	-14262
▁सपदि	-14263
ध्याये	-14264
मनुष्ठ	-14265
▁मायां	-14266
▁हन्तु	-14267
▁स्थितौ	-14268
च्छिन्नं	-14269
▁सन्ध्या	-14270
▁सरीरस्य	-14271
▁वासुदेवं	-14272
▁अयमुच्यते	-14273
▁स्रोत्रिय	-14274
▁कृताञ्जलिः	-14275
लष	-14276
मन्थ	-14277
म्णा	-14278
▁रथः	-14279
▁सरा	-14280
कोविद	-14281
द्देह	-14282
स्वयं	-14283
▁ऋषयः	-14284
▁नाडी	-14285
क्षितः	-14286
बन्धेन	-14287
▁भगिनी	-14288
▁उपादाय	-14289
▁कौरव्य	-14290
▁तद्विष	-14291
ासंस्कार	-14292
ावस्थायां	-14293
▁विज्ञेयः	-14294
ूज	-14295
द्दस	-14296
द्यथ	-14297
धन्वा	-14298
▁तोयं	-14299
▁धरणी	-14300
▁यज्ज	-14301
▁रागः	-14302
ल्लङ्घ	-14303
संकासं	-14304
▁सहितः	-14305
▁साङ्ग	-14306
र्जितम्	-14307
▁सदासिव	-14308
▁सिद्धो	-14309
समुदाचार	-14310
▁क्षत्रं	-14311
▁महान्तं	-14312
▁ग्राह्यं	-14313
▁सून्यतैव	-14314
िया	-14315
र्धे	-14316
ाम्ल	-14317
▁सफल	-14318
यन्तु	-14319
वानसि	-14320
ज्ञाति	-14321
तस्ततः	-14322
यान्ति	-14323
▁धर्मी	-14324
▁रमणीय	-14325
▁विनीत	-14326
रुच्यते	-14327
▁एतद्वि	-14328
▁सामन्त	-14329
प्रतिबद्ध	-14330
ौद्गल्याय	-14331
भवनं	-14332
रण्ड	-14333
ल्पं	-14334
ालये	-14335
▁छाद	-14336
धिवास	-14337
ैक्यं	-14338
▁गणना	-14339
ुष्यति	-14340
विकुर्व	-14341
▁मण्डले	-14342
▁सतसहस्र	-14343
भ्युपगम्य	-14344
धरे	-14345
भञ्ज	-14346
ागमन	-14347
ुरजः	-14348
ोदये	-14349
▁मोच	-14350
रूपाय	-14351
षिच्य	-14352
सहितं	-14353
ाभिसं	-14354
▁पादप	-14355
▁इच्छा	-14356
▁मुनेः	-14357
▁व्यवस	-14358
यामासुः	-14359
सुन्दरी	-14360
स्यार्थे	-14361
▁युद्धाय	-14362
▁सर्ववेद	-14363
वादो	-14364
▁कनीय	-14365
▁मधुक	-14366
▁मारी	-14367
ानुसास	-14368
▁भ्रमर	-14369
म्प्रति	-14370
▁अयुक्त	-14371
▁प्राणं	-14372
▁पूजयेत्	-14373
▁पर्याप्त	-14374
▁विनिर्दि	-14375
▁स्रेष्ठः	-14376
▁स्वच्छन्द	-14377
▁स्रोतुमिच्छामि	-14378
मुः	-14379
सोप	-14380
त्सू	-14381
दिवं	-14382
▁गणा	-14383
दुःखं	-14384
ध्यवस	-14385
ल्येन	-14386
वेत्य	-14387
▁दिदृ	-14388
▁भुजं	-14389
▁विधौ	-14390
विसेषे	-14391
▁गर्भे	-14392
▁तपस्त	-14393
▁वेद्य	-14394
▁परिक्र	-14395
▁भवत्या	-14396
▁प्रतिपद	-14397
चै	-14398
हिण	-14399
▁मग	-14400
ैर्बाण	-14401
▁दर्सय	-14402
▁ययाति	-14403
▁व्युप	-14404
▁तदुक्त	-14405
▁साधनम्	-14406
▁विजृम्भ	-14407
▁एवमुक्तस्तु	-14408
दह	-14409
्नु	-14410
रङ्ग	-14411
र्के	-14412
ल्ला	-14413
▁आसा	-14414
तामिव	-14415
लिन्द	-14416
ाक्षो	-14417
▁सयने	-14418
▁स्वध	-14419
▁तिमिर	-14420
▁नृपाः	-14421
▁रजस्व	-14422
▁सुतां	-14423
प्रदर्स	-14424
सिद्धिं	-14425
▁किञ्चन	-14426
▁प्रयाज	-14427
प्रतिज्ञ	-14428
▁दृष्टम्	-14429
प्रतिलम्भ	-14430
▁महामुनिः	-14431
ितय	-14432
▁ऋते	-14433
जनस्य	-14434
स्नीय	-14435
▁चरणौ	-14436
▁भावन	-14437
▁स्थवि	-14438
▁ततस्तं	-14439
▁द्रुतं	-14440
▁कस्मिन्	-14441
▁चतुर्धा	-14442
▁विग्रहः	-14443
▁प्राणस्य	-14444
▁यथासुखम्	-14445
▁विज्ञेयं	-14446
किरण	-14447
ालंब	-14448
ोग्र	-14449
कल्पन	-14450
माराध	-14451
म्भोज	-14452
ितेति	-14453
ोपवास	-14454
▁चोदना	-14455
▁महावि	-14456
तीत्याह	-14457
▁ग्रामं	-14458
▁वित्तं	-14459
▁कुर्वते	-14460
▁तान्येव	-14461
▁मन्त्रा	-14462
▁प्रत्यहं	-14463
▁वस्तुतस्तु	-14464
▁चिह्नितपुस्तक	-14465
ीना	-14466
कूलं	-14467
र्सा	-14468
वचनेन	-14469
व्रते	-14470
संस्थ	-14471
▁यथेति	-14472
▁अनिष्ट	-14473
▁स्पर्ध	-14474
्यात्प्र	-14475
▁दुःखानि	-14476
च्छल	-14477
सवर्ण	-14478
हिताय	-14479
भिज्ञा	-14480
र्यस्य	-14481
व्यापक	-14482
ितायां	-14483
▁चाष्ट	-14484
▁रूक्ष	-14485
▁वाग्व	-14486
▁ज्ञापयति	-14487
▁प्रस्ताव	-14488
▁बुद्धक्षेत्रं	-14489
दीयं	-14490
लेसं	-14491
▁माघ	-14492
▁विय	-14493
लुब्ध	-14494
स्तूप	-14495
ूर्ति	-14496
▁भयात्	-14497
▁दारिका	-14498
दृष्ट्या	-14499
स्वभावेन	-14500
▁पुनर्भगव	-14501
▁रक्षांसि	-14502
लभे	-14503
वरा	-14504
वल्ल	-14505
समति	-14506
▁गाः	-14507
म्येन	-14508
्त्स्	-14509
▁निजं	-14510
▁पराव	-14511
▁पिसा	-14512
▁पेया	-14513
▁सगुण	-14514
▁समति	-14515
र्जुनं	-14516
▁सुखाय	-14517
ञ्जातीय	-14518
▁वाच्या	-14519
मुत्पन्न	-14520
्यतामिति	-14521
▁विनियोग	-14522
▁सिद्ध्य	-14523
▁सर्वभूतेषु	-14524
दिक	-14525
ुदय	-14526
मेतं	-14527
यमनु	-14528
▁काण	-14529
▁रवे	-14530
प्रदं	-14531
ाव्यव	-14532
ाद्देव	-14533
▁नीयते	-14534
▁चोक्तं	-14535
▁विपस्च	-14536
▁सप्तमे	-14537
विषयत्वं	-14538
ापत	-14539
सर्पि	-14540
▁स्वस	-14541
राक्षस	-14542
▁बभाषे	-14543
▁युज्य	-14544
▁स्यात	-14545
▁ततोऽहं	-14546
▁बहुतरं	-14547
क्रान्ते	-14548
वर्जितम्	-14549
▁पञ्चानां	-14550
▁साक्षिणः	-14551
▁स्यात्तदा	-14552
ूरं	-14553
गर्व	-14554
मतम्	-14555
ायुष	-14556
नोऽपि	-14557
भूतां	-14558
▁पसवः	-14559
▁भौति	-14560
दृष्टं	-14561
भावस्च	-14562
ात्मजा	-14563
▁आसीत्	-14564
▁उपाधि	-14565
▁नामतः	-14566
▁भगवती	-14567
▁भोज्य	-14568
सापेक्ष	-14569
▁तद्यदि	-14570
▁पृथ्वी	-14571
▁प्राणे	-14572
▁भुजङ्ग	-14573
▁लोकनाथ	-14574
कर्तृत्व	-14575
▁मुञ्चति	-14576
▁व्यवहित	-14577
▁प्रधानस्य	-14578
▁दानपारमिता	-14579
▁भगवानायुष्म	-14580
ानघ	-14581
ीरा	-14582
्ते	-14583
▁चप	-14584
चिते	-14585
ोषित	-14586
पिसाच	-14587
मवतार	-14588
र्बुद	-14589
सोणित	-14590
ुस्ते	-14591
▁अजात	-14592
▁जीवे	-14593
काण्डे	-14594
मन्यत्	-14595
▁कण्टक	-14596
▁जन्मा	-14597
▁संसयं	-14598
▁निवेद्य	-14599
ाद्वयमेतद	-14600
▁रुद्ध्वा	-14601
▁स्त्रियं	-14602
▁स्रेष्ठा	-14603
सामर्थ्यात्	-14604
ाष	-14605
सोर	-14606
पत्न	-14607
वत्य	-14608
ैतत्	-14609
▁तमस	-14610
▁यते	-14611
▁हेय	-14612
मानाय	-14613
मारूढ	-14614
वियोग	-14615
कार्मु	-14616
▁कुलाल	-14617
▁वनानि	-14618
▁वरुणः	-14619
▁चूर्णं	-14620
▁भूपतिः	-14621
तात्पर्य	-14622
▁स्यादेत	-14623
▁परमानन्द	-14624
▁प्रत्याय	-14625
▁ब्रह्मवर्च	-14626
ूट	-14627
मिमां	-14628
▁वाता	-14629
ुदात्त	-14630
▁तदत्र	-14631
▁पासुप	-14632
ामन्त्र	-14633
▁महार्ह	-14634
कत्वमिति	-14635
क्ष्यमाण	-14636
▁कच्चित्	-14637
ेन्द्रस्य	-14638
▁यावत्प्र	-14639
घट्ट	-14640
मासे	-14641
यतां	-14642
▁दृष	-14643
▁लिङ	-14644
▁धारा	-14645
क्ष्ये	-14646
▁मधुना	-14647
▁यान्त	-14648
▁विकास	-14649
▁साहाय	-14650
▁ख्यातं	-14651
भिव्यक्त	-14652
▁योग्यता	-14653
▁ध्यानानि	-14654
मिदमुच्यते	-14655
▁निर्वृत्त	-14656
रोष	-14657
सरः	-14658
गामी	-14659
▁घृता	-14660
▁घोरे	-14661
ाध्ययन	-14662
ैर्व्य	-14663
▁कान्ता	-14664
▁कुमारः	-14665
▁प्रदात	-14666
▁भिन्नं	-14667
▁महाभूत	-14668
मासङ्क्य	-14669
▁विष्णवे	-14670
▁परिग्रहाय	-14671
▁आढ	-14672
रिवा	-14673
ीतम्	-14674
▁उपा	-14675
गुणाः	-14676
पौत्र	-14677
विभाव	-14678
▁सूरो	-14679
स्तानि	-14680
▁किंचन	-14681
निराकरण	-14682
प्रतिरूप	-14683
▁सविकल्प	-14684
▁वक्तव्या	-14685
▁बुद्धिमान्	-14686
चाम	-14687
▁आत	-14688
मेको	-14689
योऽपि	-14690
▁भेदं	-14691
्यात्स	-14692
▁त्रयं	-14693
▁सक्रः	-14694
▁स्तेन	-14695
कर्मणाम्	-14696
सास्त्रे	-14697
▁प्रयोगे	-14698
▁साध्यसाधन	-14699
▁सीलपारमित	-14700
▁स्कन्धधात्वायतन	-14701
मृद	-14702
ग्नेः	-14703
न्यतम	-14704
ाणीति	-14705
▁गर्ग	-14706
चर्यां	-14707
▁गृहम्	-14708
▁प्रसम	-14709
▁सुखाव	-14710
त्स्यते	-14711
▁निर्मित	-14712
▁क्रियमाण	-14713
▁प्रजापतेः	-14714
गह	-14715
बक	-14716
▁हन	-14717
कुतः	-14718
▁चावि	-14719
▁तदहं	-14720
▁भीमः	-14721
▁समार	-14722
चरन्ति	-14723
स्नाति	-14724
मुपेत्य	-14725
▁ज्ञाता	-14726
तावच्छेद	-14727
▁महामतिः	-14728
▁राष्ट्रं	-14729
▁सर्वज्ञः	-14730
ाद्वयमेतदद्वैधी	-14731
गलित	-14732
घण्ट	-14733
जङ्घ	-14734
पक्व	-14735
ल्लो	-14736
विधो	-14737
ीर्थ	-14738
ुरूपं	-14739
▁नमस्	-14740
▁यद्भ	-14741
▁याता	-14742
▁रूपा	-14743
मानस्च	-14744
मालम्ब	-14745
ापवर्ग	-14746
▁विदेह	-14747
च्छेदेन	-14748
ेन्द्रः	-14749
▁निर्मल	-14750
▁प्रयत्	-14751
▁वसन्ति	-14752
ग्रहणात्	-14753
▁योज्यम्	-14754
भिसंस्कार	-14755
▁पाण्डवान्	-14756
▁प्रविसन्ति	-14757
▁मध्यमुपलभ्यते	-14758
संह	-14759
सतो	-14760
म्ये	-14761
ाह्ण	-14762
▁वरो	-14763
द्रोण	-14764
सिक्त	-14765
▁गतोऽ	-14766
▁सूरः	-14767
पत्तिं	-14768
▁दिवाक	-14769
▁यमस्य	-14770
▁वीर्यव	-14771
▁चाक्षुष	-14772
▁हिरण्यं	-14773
▁अन्योन्यं	-14774
▁परिणामयति	-14775
तर्कताण्डवम्	-14776
मेद	-14777
▁मख	-14778
ाधरः	-14779
ृषिः	-14780
काञ्च	-14781
भागेन	-14782
षष्टि	-14783
ैक्षत	-14784
▁वेता	-14785
▁सभां	-14786
मित्रं	-14787
▁ग्रहः	-14788
▁दण्डो	-14789
धिमात्र	-14790
▁रुद्रः	-14791
संयोगात्	-14792
▁पुरोडास	-14793
चरो	-14794
▁चरित	-14795
विष्टं	-14796
▁अस्मै	-14797
▁निषाद	-14798
▁पन्नग	-14799
▁सीतया	-14800
ासिद्धि	-14801
▁एवमिति	-14802
▁पुराणे	-14803
▁महायोग	-14804
▁वैष्णव	-14805
▁चतुरस्र	-14806
▁प्रीतिं	-14807
गुड	-14808
ेहं	-14809
बृंह	-14810
▁अण्	-14811
▁जनं	-14812
▁सहज	-14813
▁सोद	-14814
कल्पं	-14815
जीवित	-14816
▁चचार	-14817
▁चम्प	-14818
वदित्य	-14819
्यादिक	-14820
▁अग्नौ	-14821
▁ऋतस्य	-14822
▁नाभ्य	-14823
▁मातरि	-14824
▁लाक्ष	-14825
▁संभवः	-14826
▁सर्वस	-14827
▁पार्थं	-14828
▁प्रतीय	-14829
विसुद्धि	-14830
मतेन	-14831
तेत्य	-14832
ीयस्य	-14833
ोपमाः	-14834
▁अच्छ	-14835
▁अप्सु	-14836
स्तीर्ण	-14837
▁कटाक्ष	-14838
पत्स्यते	-14839
▁करोतीति	-14840
▁धारणीमुख	-14841
कूप	-14842
चनेन	-14843
मपीति	-14844
ान्तक	-14845
▁चरतो	-14846
▁तमाह	-14847
▁नक्तं	-14848
ापरिमाण	-14849
ोऽपवादः	-14850
▁एतत्ते	-14851
▁सुभूति	-14852
स्वभावस्य	-14853
िमा	-14854
तान्	-14855
ोदार	-14856
▁कया	-14857
▁तैज	-14858
स्तमो	-14859
ास्वं	-14860
ुल्यं	-14861
▁गदां	-14862
▁गोषु	-14863
▁दाने	-14864
▁निषे	-14865
▁विरे	-14866
▁गुञ्ज	-14867
▁जाताः	-14868
▁रावणं	-14869
न्तीत्य	-14870
स्तोत्र	-14871
▁यथास्र	-14872
▁सम्यङ्	-14873
▁वक्तुम्	-14874
▁सम्पूर्ण	-14875
▁दौर्मनस्य	-14876
क्रान्तविक्र	-14877
भ्व	-14878
ागो	-14879
ातौ	-14880
र्मन	-14881
संचय	-14882
द्याव	-14883
ार्ता	-14884
▁पूति	-14885
▁यद्ग	-14886
पुद्गल	-14887
सन्तान	-14888
▁व्रीह	-14889
संपन्नः	-14890
▁प्रजया	-14891
▁मुख्यं	-14892
▁साध्वी	-14893
ाभिनिवेस	-14894
▁कौसल्या	-14895
▁तेजस्वी	-14896
▁वस्त्रं	-14897
भिरे	-14898
▁संध	-14899
मन्यत	-14900
पूजितः	-14901
प्रलाप	-14902
ान्तरो	-14903
ुपादान	-14904
▁उभयोः	-14905
स्माभिर	-14906
▁सपत्नी	-14907
तन्मात्र	-14908
▁सौभाग्य	-14909
▁बोधिचित्त	-14910
▁विप्रतिषेधेन	-14911
त्पद	-14912
▁हरः	-14913
वह्नि	-14914
▁उपमा	-14915
▁मृतो	-14916
▁यथोप	-14917
भिरिति	-14918
स्यन्द	-14919
ितोऽपि	-14920
ित्वाद	-14921
▁अवतार	-14922
▁पचेत्	-14923
▁धर्मतः	-14924
▁प्रदान	-14925
▁सुसुभे	-14926
▁इत्येतद	-14927
▁ब्रह्मणे	-14928
ताद	-14929
पती	-14930
येव	-14931
ापण	-14932
स्मान	-14933
▁अतीव	-14934
▁जायत	-14935
▁प्लु	-14936
कृत्रि	-14937
▁प्रसि	-14938
▁वैनते	-14939
ावस्थान	-14940
▁अस्यां	-14941
▁विमर्द	-14942
▁मूर्च्छ	-14943
▁साक्यमुनि	-14944
ीरः	-14945
▁उपस	-14946
ितत्व	-14947
▁अविद	-14948
▁पठति	-14949
चार्यः	-14950
▁खल्वि	-14951
येत्ततः	-14952
▁तद्व्य	-14953
▁मुक्तो	-14954
▁अर्हन्तः	-14955
▁द्रष्टव्य	-14956
▁अभावस्वभाव	-14957
गृ	-14958
्यहं	-14959
▁भूः	-14960
▁स्ल	-14961
पदानि	-14962
येत्य	-14963
स्तपो	-14964
▁चरता	-14965
▁दातुं	-14966
▁सौभाग	-14967
माचार्य	-14968
▁देवराज	-14969
▁भर्तुः	-14970
▁महर्षि	-14971
▁पण्डितः	-14972
▁तस्मिन्व	-14973
▁कार्यकारणभाव	-14974
▁ऽउ	-14975
पेत्	-14976
स्वो	-14977
ायास	-14978
ीणां	-14979
मुन्न	-14980
▁याते	-14981
ानिस्च	-14982
▁सक्तः	-14983
द्युतिः	-14984
▁इदानीम	-14985
▁रागादि	-14986
ज्ज्ञानं	-14987
▁स्रीमान	-14988
▁कस्मात्न	-14989
▁प्रणिधानं	-14990
▁समन्वागतः	-14991
पेय	-14992
ङ्कः	-14993
माहार	-14994
▁मासं	-14995
▁नमामि	-14996
▁यान्य	-14997
▁अदृस्य	-14998
▁नृपतिः	-14999
▁प्लक्ष	-15000
मित्यनेन	-15001
भ्युपगन्त	-15002
▁बुद्धक्षेत्रे	-15003
पठ	-15004
्ः	-15005
संचार	-15006
सरीरं	-15007
स्रोत	-15008
ितमेव	-15009
▁वपुषा	-15010
▁समीपे	-15011
▁स्वतो	-15012
▁स्फुटं	-15013
▁कात्याय	-15014
▁प्राणातिपात	-15015
िवे	-15016
ूषा	-15017
▁चं	-15018
र्घट	-15019
वासन	-15020
सुतं	-15021
ीर्त	-15022
▁तास	-15023
कुन्त	-15024
ग्नये	-15025
ग्रहं	-15026
नाद्व	-15027
वत्या	-15028
ष्टिं	-15029
▁दहति	-15030
स्चेत्	-15031
ापत्ते	-15032
▁पदस्य	-15033
ास्रितः	-15034
▁तावत्त	-15035
ायकौसलेन	-15036
▁वृत्त्या	-15037
क्रान्तविक्रामि	-15038
▁डि	-15039
▁पं	-15040
धिका	-15041
ोरसि	-15042
सीर्ण	-15043
▁पान्	-15044
्यमानं	-15045
▁इदमपि	-15046
▁किन्न	-15047
▁दानवः	-15048
हेतुत्व	-15049
▁मेधावी	-15050
▁रुद्रो	-15051
न्तरिक्ष	-15052
▁रक्षसां	-15053
▁सङ्ग्रह	-15054
▁ब्राह्मणी	-15055
▁महाद्युतिः	-15056
▁सर्वधर्माः	-15057
▁वं	-15058
वसात्	-15059
▁पूरण	-15060
विपक्ष	-15061
सम्प्र	-15062
स्रिया	-15063
हस्तेन	-15064
्याम्य	-15065
▁चास्ति	-15066
▁व्रतम्	-15067
▁संयोगः	-15068
▁संपद्यते	-15069
▁प्रमुच्यते	-15070
शः	-15071
जुः	-15072
वेल	-15073
सोद	-15074
दृसे	-15075
मानौ	-15076
मूला	-15077
र्हो	-15078
्मना	-15079
▁सहि	-15080
▁सुद	-15081
भिमुख	-15082
म्भसा	-15083
ाम्यति	-15084
▁बृहती	-15085
▁भद्रा	-15086
▁वन्दे	-15087
क्रियां	-15088
▁कर्त्र	-15089
▁भवेत्स	-15090
▁विसेषं	-15091
▁स्वेता	-15092
द्वाक्यं	-15093
▁वक्त्रं	-15094
▁संगृह्य	-15095
मुत्पाद्य	-15096
▁दृष्ट्या	-15097
▁पुरातनम्	-15098
▁राक्षसाः	-15099
▁स्रावस्त	-15100
▁विक्षिप्त	-15101
▁पूर्वोत्तर	-15102
▁प्रदक्षिणं	-15103
▁सम्यग्ज्ञान	-15104
चञ्च	-15105
▁धना	-15106
▁धीः	-15107
▁नीव	-15108
क्षार	-15109
देवम्	-15110
भङ्गः	-15111
विधिं	-15112
वेक्ष	-15113
ोऽन्व	-15114
▁निधि	-15115
ादिगुण	-15116
▁एवमाह	-15117
▁लोचने	-15118
वर्तिनः	-15119
स्पर्सं	-15120
▁गङ्गां	-15121
▁पुत्रौ	-15122
▁प्रभेद	-15123
▁विवृद्ध	-15124
▁सांप्रतं	-15125
▁प्रवृत्ते	-15126
▁करिष्यन्ति	-15127
खर	-15128
युगं	-15129
▁तमु	-15130
▁नून	-15131
ञ्जसा	-15132
न्तर्	-15133
पल्लव	-15134
ासीति	-15135
▁घटते	-15136
▁यसोध	-15137
▁विरि	-15138
निवासि	-15139
▁ध्वंस	-15140
▁परितः	-15141
कृत्स्न	-15142
त्वस्या	-15143
भावाच्च	-15144
मादीनां	-15145
▁चोदयति	-15146
▁महास्व	-15147
▁मैथिली	-15148
▁संवित्	-15149
▁कर्तव्यो	-15150
कया	-15151
कैर	-15152
भीम	-15153
ैकः	-15154
गमने	-15155
सेना	-15156
ापीड	-15157
ान्मु	-15158
▁गणाः	-15159
▁सासन	-15160
तिष्ठत	-15161
र्दृष्ट	-15162
▁विसर्ग	-15163
▁स्रष्ट	-15164
तिष्ठन्ति	-15165
▁पृथिव्यादि	-15166
प्रत्युत्पन्न	-15167
थम	-15168
हेठ	-15169
कारकः	-15170
स्थेन	-15171
▁कर्द	-15172
▁कुरू	-15173
▁ताभि	-15174
▁मृत्	-15175
▁हीना	-15176
न्त्रे	-15177
प्रहार	-15178
ायामेव	-15179
▁उक्तो	-15180
▁यद्वै	-15181
▁विद्र	-15182
▁सहितं	-15183
▁सम्पाद	-15184
▁सर्वेऽ	-15185
▁ततोऽन्य	-15186
▁नारायणः	-15187
▁सुदुर्लभ	-15188
मभिसंबुद्ध	-15189
▁मञ्जुस्रीः	-15190
▁त्वत्प्रसाद	-15191
सानं	-15192
ोपमं	-15193
ायत्त	-15194
▁नीता	-15195
▁सेतु	-15196
गोचरम्	-15197
धानस्य	-15198
व्यापि	-15199
सिद्धा	-15200
ुरित्य	-15201
▁पताका	-15202
▁बन्धन	-15203
▁वक्ता	-15204
क्तव्यः	-15205
दत्तस्य	-15206
सिद्धिर	-15207
स्त्रिय	-15208
▁इत्यभि	-15209
▁तावत्क	-15210
▁तिस्रो	-15211
▁तृप्ति	-15212
▁मरुत्व	-15213
तेऽध्वनि	-15214
▁नित्यत्व	-15215
▁लक्ष्मणं	-15216
▁प्रतितिष्ठति	-15217
दिद	-15218
ानाग	-15219
▁अहम्	-15220
स्तेजो	-15221
▁पस्यत	-15222
▁मातुल	-15223
▁सप्तद	-15224
भावादिति	-15225
▁विपर्या	-15226
▁काप	-15227
णाच्च	-15228
▁कृती	-15229
भार्या	-15230
ायाञ्च	-15231
ोदितम्	-15232
▁असक्त	-15233
▁ग्रास	-15234
▁रामाय	-15235
त्वेनोप	-15236
▁पसूनां	-15237
म्ब्रह्म	-15238
तामुपलभते	-15239
▁क्वचिद्ग	-15240
▁स्त्रीषु	-15241
▁दुर्योधनो	-15242
▁विस्रान्त	-15243
▁संलक्षयति	-15244
ेयम	-15245
र्सं	-15246
स्नु	-15247
▁उदय	-15248
▁पूष	-15249
▁वधं	-15250
तृप्त	-15251
त्वार	-15252
ुर्नि	-15253
ेष्वि	-15254
▁भूयि	-15255
प्रवीर	-15256
म्बरम्	-15257
ासक्ति	-15258
▁मोदते	-15259
साधनत्व	-15260
साधारणं	-15261
▁तादृसः	-15262
▁नान्यः	-15263
▁सुभद्र	-15264
▁तादात्म	-15265
▁सनत्कुमार	-15266
▁वैसारद्यानि	-15267
काया	-15268
चारु	-15269
नागत	-15270
भ्रं	-15271
ायुत	-15272
▁गेह	-15273
▁चात	-15274
त्येष	-15275
▁गोमय	-15276
जिह्वा	-15277
▁ग्रीव	-15278
▁चतुरो	-15279
▁बहुना	-15280
▁यास्च	-15281
▁विसार	-15282
द्युक्त	-15283
▁अधिकरण	-15284
▁इत्येष	-15285
▁वरवर्ण	-15286
त्प्रभुः	-15287
▁सक्रस्य	-15288
▁न्यवेदयत्	-15289
▁प्रतिज्ञाय	-15290
▁सदेवमानुषासुर	-15291
फेन	-15292
ासति	-15293
▁एति	-15294
▁भवन	-15295
▁वदन	-15296
ष्टिः	-15297
▁जलम्	-15298
▁सिवो	-15299
न्त्यो	-15300
▁पस्ये	-15301
▁रूप्य	-15302
▁कर्मफल	-15303
▁बुद्धौ	-15304
▁यन्मया	-15305
▁वैयर्थ	-15306
▁पार्वती	-15307
▁समाप्तः	-15308
रूपी	-15309
▁भया	-15310
सोध्य	-15311
▁तवैव	-15312
▁रराज	-15313
▁तन्तु	-15314
▁निःसेष	-15315
▁पङ्क्त	-15316
▁दर्सनेन	-15317
▁यथेष्टं	-15318
बोधः	-15319
ीरूप	-15320
▁अरे	-15321
▁खुर	-15322
रीक्ष	-15323
▁नागं	-15324
▁पादा	-15325
▁सत्स	-15326
संज्ञान	-15327
ाद्यर्थ	-15328
ोऽस्तीति	-15329
▁समन्तात्	-15330
▁संविद्यन्ते	-15331
▁चित्तमुत्पाद	-15332
बी	-15333
सयं	-15334
ल्लभ	-15335
ासार	-15336
▁आधि	-15337
▁घटः	-15338
रिष्य	-15339
▁दासा	-15340
▁रजसा	-15341
क्षिति	-15342
स्यादि	-15343
▁आवर्त	-15344
▁तत्तद	-15345
▁नृपम्	-15346
▁वचनेन	-15347
▁दर्सितं	-15348
▁भर्त्रा	-15349
▁वैलक्षण	-15350
ोत्पद्यते	-15351
▁त्रयाणाम	-15352
▁यथासक्ति	-15353
ध्यानारूप्य	-15354
▁व्यवस्थिताः	-15355
चये	-15356
▁धव	-15357
र्जर	-15358
▁लप्	-15359
धारणे	-15360
सारथिः	-15361
▁वेदाः	-15362
▁आस्वास	-15363
▁चतुर्व	-15364
▁यथेष्ट	-15365
ोऽस्माकं	-15366
▁ज्ञातुं	-15367
▁तथागतेन	-15368
▁पाण्डुर	-15369
ानुप्रवेस	-15370
▁पृथक्त्व	-15371
▁साक्षाद्	-15372
भ्	-15373
भुजा	-15374
ाट्य	-15375
▁केषा	-15376
▁क्वि	-15377
ङ्गेषु	-15378
प्रभुः	-15379
▁अर्चि	-15380
▁प्रमथ	-15381
▁मत्तो	-15382
त्त्वम्	-15383
▁पार्थो	-15384
▁अनन्तरं	-15385
▁उत्तरस्य	-15386
सोष	-15387
ांसः	-15388
ावनु	-15389
▁वसो	-15390
निरूपण	-15391
भ्रष्ट	-15392
मुत्तम	-15393
ाभिप्र	-15394
▁पौण्ड	-15395
▁रज्जु	-15396
▁सिसिर	-15397
काभ्यां	-15398
▁मुक्तः	-15399
प्रतीतिः	-15400
▁दुष्कृत	-15401
▁पारमिता	-15402
▁स्थित्य	-15403
▁स्रोतुं	-15404
▁परिगृह्य	-15405
▁प्रणिहित	-15406
त्प्रेक्षा	-15407
▁प्रयान्ति	-15408
भयम	-15409
ीषु	-15410
▁गाम	-15411
▁बभू	-15412
मन्ति	-15413
मास्च	-15414
▁एवाय	-15415
माप्नु	-15416
युक्ति	-15417
नासंज्ञ	-15418
प्रियम्	-15419
स्तीर्थ	-15420
▁महासुर	-15421
▁योषितः	-15422
▁महायानं	-15423
▁मुमुक्ष	-15424
प्रतिलब्ध	-15425
▁प्रज्वाल	-15426
प्रतिपत्तिः	-15427
▁स्पृष्ट्वा	-15428
▁प्रत्यवेक्ष	-15429
षण्	-15430
हरः	-15431
न्तम	-15432
ांसे	-15433
पुङ्ग	-15434
र्करा	-15435
ाधिकं	-15436
ापस्य	-15437
ेकस्य	-15438
▁जनित	-15439
▁तप्य	-15440
▁नक्त	-15441
▁स्तः	-15442
कीर्णा	-15443
▁एतद्व	-15444
▁सहृदय	-15445
स्लिष्ट	-15446
▁अधिष्ठ	-15447
▁देवर्षि	-15448
▁प्रत्याह	-15449
▁स्वार्थे	-15450
ुदक	-15451
ोपा	-15452
▁शि	-15453
ध्यै	-15454
प्ते	-15455
वसाद	-15456
ावतं	-15457
ावेण	-15458
ेदेव	-15459
▁पादं	-15460
▁बहुप	-15461
▁क्षेम	-15462
▁सक्ता	-15463
▁एवमादि	-15464
▁घटोत्क	-15465
स्रुत्या	-15466
▁मधुसूदन	-15467
▁आयुर्वेद	-15468
▁स्वात्मनि	-15469
थता	-15470
ृणो	-15471
कुटी	-15472
▁जये	-15473
▁सहा	-15474
धातोः	-15475
भूमिः	-15476
ादीति	-15477
ेऽन्य	-15478
▁भीता	-15479
विषयम्	-15480
▁अभ्यु	-15481
▁पार्थः	-15482
▁मातङ्ग	-15483
▁सूचयति	-15484
वच्छिन्न	-15485
▁जनयामास	-15486
▁इदम्तर्हि	-15487
▁तथागतोऽर्ह	-15488
यस	-15489
ोगे	-15490
क्वा	-15491
ेरुप	-15492
▁उदु	-15493
ेकदेस	-15494
पर्यास	-15495
▁अथापि	-15496
▁उभयम्	-15497
▁निर्घ	-15498
▁यथापि	-15499
संबन्धि	-15500
▁समुत्प	-15501
▁सप्तभिः	-15502
▁ज्येष्ठं	-15503
▁तीर्थानि	-15504
▁पञ्चविंसति	-15505
गग	-15506
ॄन्	-15507
द्ये	-15508
राणि	-15509
विमल	-15510
▁बलभ	-15511
प्रदः	-15512
▁लग्न	-15513
▁समलं	-15514
▁हताः	-15515
ष्टम्भ	-15516
ह्रस्व	-15517
▁चान्त	-15518
कारान्त	-15519
▁कृत्या	-15520
▁यात्रा	-15521
▁लोकान्	-15522
▁एकान्ते	-15523
▁तस्यैवं	-15524
व्याप्तिः	-15525
▁तेनोच्यते	-15526
▁सर्वभूतानि	-15527
कै	-15528
पिति	-15529
▁आगत	-15530
▁रेफ	-15531
गोचरे	-15532
त्पक्ष	-15533
स्तुति	-15534
▁जगामा	-15535
▁हन्ता	-15536
पेक्ष्य	-15537
वर्जितः	-15538
वर्तन्त	-15539
सुखदुःख	-15540
▁चतुर्थः	-15541
▁दुर्लभं	-15542
▁ग्राह्या	-15543
पटल	-15544
रणा	-15545
लोकः	-15546
▁आया	-15547
▁गोर	-15548
▁दमः	-15549
▁मेर	-15550
त्काम	-15551
न्मनो	-15552
पत्यं	-15553
▁भीरु	-15554
▁वात्	-15555
▁वालु	-15556
▁कथंचन	-15557
▁पादेन	-15558
▁कस्मिं	-15559
▁दुःखम्	-15560
▁द्रौपद	-15561
▁बध्यते	-15562
▁विभाति	-15563
सम्बन्धि	-15564
▁ततस्तेन	-15565
▁सुगन्धि	-15566
▁देवेभ्यो	-15567
▁अत्रान्तरे	-15568
▁निवर्तन्ते	-15569
▁प्रातिमोक्ष	-15570
▁प्राधान्येन	-15571
धैः	-15572
भुवः	-15573
सिता	-15574
▁अया	-15575
चयेत्	-15576
ान्दे	-15577
▁नदीं	-15578
▁लवणं	-15579
▁वासव	-15580
▁सीमा	-15581
▁स्लि	-15582
र्द्धं	-15583
▁निहतं	-15584
▁निबोधत	-15585
सम्बन्धः	-15586
स्थितस्य	-15587
▁तद्रूपं	-15588
▁देव्याः	-15589
पुरुषार्थ	-15590
▁मातापितृ	-15591
▁क्षत्रियस्य	-15592
ूते	-15593
केति	-15594
च्छू	-15595
दोषो	-15596
दोषेण	-15597
मानीय	-15598
ष्ठाः	-15599
नेनेति	-15600
ानाम्त	-15601
ान्नाम	-15602
ान्याद	-15603
▁किमिद	-15604
▁बोधाय	-15605
▁वास्त	-15606
लक्षणाः	-15607
▁ऋषीणां	-15608
▁ग्रहीत	-15609
▁विभागः	-15610
ध्यात्मं	-15611
मपेक्ष्य	-15612
▁कामावचर	-15613
▁समन्वाह	-15614
▁एकस्मिन्	-15615
ाजा	-15616
▁सुब	-15617
तिरेक	-15618
▁जामद	-15619
▁ददृस	-15620
▁नकुल	-15621
स्वेति	-15622
▁नानाप	-15623
▁सुभाः	-15624
स्त्वम्	-15625
▁द्रव्यस्य	-15626
▁प्रतिष्ठितम्	-15627
मला	-15628
हतः	-15629
धिना	-15630
▁प्य	-15631
मानोऽ	-15632
मायुः	-15633
▁वदनं	-15634
▁क्षित	-15635
▁समुदय	-15636
प्रार्थ	-15637
यन्तीति	-15638
▁जात्या	-15639
▁संरम्भ	-15640
मास्रितः	-15641
▁अप्रमेय	-15642
▁देवास्त	-15643
▁वस्तुतः	-15644
▁स्मरामि	-15645
▁स्रुतिर	-15646
स्चतुर्वि	-15647
▁समापद्यते	-15648
भुवा	-15649
साखा	-15650
▁अनी	-15651
▁यमः	-15652
कल्पे	-15653
न्ध्य	-15654
मयानि	-15655
ागच्छ	-15656
ामयम्	-15657
ारणाय	-15658
▁क्षौ	-15659
▁सिता	-15660
तामेति	-15661
निरोधः	-15662
स्चतुर	-15663
▁सिवाय	-15664
▁सृगाल	-15665
▁इत्यृचा	-15666
▁कल्याणि	-15667
▁कुमारस्य	-15668
संभ	-15669
ुष्	-15670
▁रत	-15671
निम्	-15672
यस्त	-15673
ासमा	-15674
▁एषु	-15675
िकेषु	-15676
वादिना	-15677
विपरीत	-15678
संवत्स	-15679
स्त्वर	-15680
ेऽस्मि	-15681
ोपमान्	-15682
▁स्वैर	-15683
परमार्थ	-15684
मीदृसम्	-15685
ीक्ष्णं	-15686
▁प्राङ्	-15687
▁व्यापि	-15688
▁समर्थः	-15689
▁सुव्रत	-15690
प्रस्ताव	-15691
▁प्रस्नः	-15692
▁तन्मध्ये	-15693
▁दुर्धर्ष	-15694
▁यावज्जीवं	-15695
ढ्यं	-15696
▁शिव	-15697
त्तत्	-15698
नीयाः	-15699
मप्या	-15700
ष्टोम	-15701
ालम्भ	-15702
▁नीलं	-15703
▁निम्ब	-15704
▁मृणाल	-15705
▁हरेत्	-15706
पितामहः	-15707
सर्वज्ञ	-15708
स्चाप्य	-15709
▁सुतरां	-15710
▁अनागामि	-15711
▁परमात्मनः	-15712
ारम	-15713
ण्डं	-15714
ाभाग	-15715
ासाव	-15716
ोन्न	-15717
▁नञ्	-15718
चनात्	-15719
विघ्न	-15720
हार्य	-15721
▁गगनं	-15722
▁गुहा	-15723
▁पस्व	-15724
▁मद्व	-15725
▁स्वरः	-15726
▁ह्रिय	-15727
▁महीपते	-15728
दागच्छति	-15729
ान्नित्य	-15730
▁पस्येत्	-15731
कोटीनियुत	-15732
▁यदुक्तम्	-15733
▁धर्मज्ञान	-15734
▁वैसंपायनः	-15735
▁नरं	-15736
कास्र	-15737
दुहित	-15738
र्द्व	-15739
ल्लिख	-15740
▁अपरं	-15741
▁अविव	-15742
▁चिति	-15743
▁तरसा	-15744
योस्तु	-15745
सतैरपि	-15746
▁कञ्चु	-15747
▁ह्ययं	-15748
वृत्तिर	-15749
▁अन्तरा	-15750
▁पञ्चमं	-15751
▁वहन्ति	-15752
विवर्जितः	-15753
▁प्रागुक्त	-15754
▁वक्ष्यामः	-15755
िकृ	-15756
▁रं	-15757
धानो	-15758
स्मय	-15759
ावलि	-15760
पाषाण	-15761
मवधार	-15762
वासना	-15763
स्वप्	-15764
ेन्दु	-15765
▁गौरव	-15766
तीर्थं	-15767
र्ज्यो	-15768
ाद्वित	-15769
सत्त्वे	-15770
▁कुमारं	-15771
▁स्वैरं	-15772
ानुरोधेन	-15773
स्मिन्नपि	-15774
ग्रहणम्कर्तव्यम्	-15775
मानय	-15776
[...]
